<unk>	0
<s>	0
</s>	0
<pad>	0
.	-2.29974
'	-3.1271
▁tom	-3.18625
▁i	-3.26128
▁to	-3.47518
▁you	-3.70945
▁the	-3.79942
t	-3.83101
▁a	-4.06255
?	-4.06265
▁that	-4.24514
s	-4.30994
▁is	-4.34499
▁do	-4.61652
▁was	-4.69817
▁he	-4.71307
▁it	-4.81542
▁mary	-4.86559
▁in	-4.90334
▁we	-4.93492
n	-4.95174
▁of	-4.98426
▁me	-5.00566
▁did	-5.01893
,	-5.02081
▁be	-5.05291
▁this	-5.09385
▁have	-5.10056
▁what	-5.1513
▁for	-5.18046
▁don	-5.24512
m	-5.30333
▁can	-5.33627
▁my	-5.39641
▁and	-5.47621
▁know	-5.48289
▁his	-5.50285
▁are	-5.51258
▁with	-5.53876
▁on	-5.5756
▁want	-5.57668
▁not	-5.62323
▁think	-5.63712
▁like	-5.69234
▁your	-5.71484
re	-5.72317
▁has	-5.74227
ve	-5.79878
ll	-5.81544
▁how	-5.84359
▁go	-5.86288
▁going	-5.87798
▁at	-5.88004
▁here	-5.92491
▁there	-5.93282
▁about	-5.95278
▁would	-5.96033
▁she	-5.97955
▁very	-5.99191
▁will	-6.05369
▁had	-6.07211
▁get	-6.07699
▁time	-6.09443
▁all	-6.09941
▁should	-6.10117
▁said	-6.13359
▁they	-6.13727
d	-6.1492
▁why	-6.18091
▁out	-6.2214
▁been	-6.23026
▁as	-6.24077
▁one	-6.26074
▁who	-6.26266
▁him	-6.27408
▁were	-6.28076
▁just	-6.29288
▁tell	-6.303
▁need	-6.31606
▁help	-6.33209
▁boston	-6.33797
▁up	-6.34312
▁if	-6.34807
▁us	-6.35939
▁doesn	-6.3597
▁isn	-6.3618
▁told	-6.36285
▁really	-6.36728
▁good	-6.39328
▁let	-6.40189
▁never	-6.41802
▁no	-6.47072
▁could	-6.47401
▁now	-6.48058
▁when	-6.48529
▁from	-6.52803
▁by	-6.54043
▁her	-6.55754
▁see	-6.57932
▁got	-6.61322
▁an	-6.62179
▁so	-6.63084
▁where	-6.64531
▁come	-6.67478
▁much	-6.67994
▁something	-6.6948
▁doing	-6.71501
▁still	-6.72838
▁thought	-6.73351
ed	-6.74935
▁some	-6.75363
▁than	-6.75626
▁back	-6.79359
▁more	-6.79525
▁home	-6.7957
▁too	-6.80913
▁take	-6.81156
▁won	-6.81867
▁french	-6.84187
▁anything	-6.87154
▁but	-6.8871
▁wanted	-6.89328
▁last	-6.89771
▁work	-6.89973
▁any	-6.90549
▁right	-6.90894
▁please	-6.91831
▁three	-6.92507
▁lot	-6.93366
▁does	-6.9433
▁money	-6.97292
▁today	-6.97308
▁sure	-6.99129
▁make	-7.00499
▁car	-7.0125
▁our	-7.04245
▁day	-7.04693
▁only	-7.06136
▁people	-7.06209
▁say	-7.07253
▁talk	-7.08677
▁better	-7.10104
▁always	-7.10381
▁	-7.13033
▁give	-7.13415
▁asked	-7.1366
ing	-7.13675
▁done	-7.14738
▁again	-7.15775
▁way	-7.15955
▁long	-7.16306
▁many	-7.17587
▁eat	-7.17872
▁school	-7.18379
▁went	-7.18825
▁house	-7.18888
▁made	-7.19288
▁leave	-7.21501
▁look	-7.22384
▁well	-7.22679
▁before	-7.23665
▁tomorrow	-7.25552
▁buy	-7.26298
▁stay	-7.29155
▁must	-7.31053
▁find	-7.31244
▁knew	-7.31281
▁new	-7.32437
▁over	-7.32566
▁aren	-7.32917
▁room	-7.33247
▁job	-7.34801
▁left	-7.35318
▁ever	-7.35593
▁put	-7.36015
▁next	-7.36074
▁into	-7.36583
▁everything	-7.37157
-	-7.39739
▁used	-7.40441
▁off	-7.40931
▁night	-7.42417
▁happened	-7.42506
▁down	-7.43444
▁little	-7.44003
▁other	-7.44066
▁couldn	-7.44818
▁speak	-7.44989
▁might	-7.45106
▁happy	-7.46453
▁hard	-7.47152
▁problem	-7.47991
▁love	-7.48482
▁ask	-7.50137
▁both	-7.50385
▁may	-7.51073
▁able	-7.51524
▁old	-7.53364
▁believe	-7.53426
▁wants	-7.53676
▁after	-7.53706
▁every	-7.54291
▁knows	-7.54641
▁yet	-7.55192
▁or	-7.55201
▁already	-7.5631
▁book	-7.57981
▁yesterday	-7.57985
▁hope	-7.58285
▁try	-7.58308
▁things	-7.58338
▁years	-7.5835
ly	-7.58655
▁saw	-7.59639
▁late	-7.59808
▁wish	-7.59988
▁nothing	-7.61732
▁says	-7.62063
▁enough	-7.62508
▁first	-7.63553
▁these	-7.64051
▁live	-7.64123
▁father	-7.64292
▁am	-7.64304
▁probably	-7.6445
▁feel	-7.65294
▁wrong	-7.6535
▁took	-7.65532
▁came	-7.65633
▁play	-7.66149
▁happen	-7.66429
▁soon	-7.66703
▁man	-7.66799
▁busy	-7.67089
▁two	-7.67137
▁away	-7.67763
▁stop	-7.6822
▁week	-7.68448
▁children	-7.69562
▁party	-7.69807
▁call	-7.69901
▁even	-7.70473
▁everyone	-7.70685
▁often	-7.71251
▁friends	-7.71584
▁wait	-7.72195
▁thing	-7.72732
▁understand	-7.73297
▁heard	-7.73314
▁gave	-7.7349
▁together	-7.73894
▁pretty	-7.73952
▁anyone	-7.73954
▁wonder	-7.74051
▁himself	-7.76133
l	-7.76242
▁else	-7.76371
▁idea	-7.76377
▁looking	-7.7747
▁door	-7.77813
▁morning	-7.77876
▁bad	-7.78494
▁seems	-7.78604
▁read	-7.7985
▁keep	-7.80326
▁anymore	-7.80829
▁their	-7.81584
▁plan	-7.81903
▁looks	-7.82096
▁looked	-7.82736
▁haven	-7.83186
▁same	-7.83615
▁alone	-7.8413
▁tried	-7.84259
▁being	-7.85109
▁life	-7.85295
▁year	-7.85411
▁kind	-7.8563
▁name	-7.85996
▁dog	-7.86204
▁them	-7.86729
▁found	-7.88219
▁seem	-7.89063
▁bought	-7.90457
▁best	-7.91581
▁remember	-7.91909
▁trying	-7.93141
▁few	-7.93167
▁without	-7.93398
▁someone	-7.93531
▁around	-7.93957
▁married	-7.9424
▁mother	-7.94312
▁seen	-7.94562
▁care	-7.95118
▁win	-7.95141
▁getting	-7.95641
▁hear	-7.969
▁early	-7.97805
▁mind	-7.98333
▁afraid	-7.98471
▁almo	-7.99377
▁ready	-7.99835
▁big	-7.99897
!	-8.00041
▁lost	-8.00446
▁needs	-8.00912
▁each	-8.00958
▁drink	-8.01143
▁tired	-8.01197
ther	-8.03284
▁while	-8.03354
quite	-8.03649
▁place	-8.04239
▁great	-8.04641
▁person	-8.04998
▁talking	-8.05529
▁teacher	-8.06746
▁working	-8.07753
▁waiting	-8.09344
▁tonight	-8.09985
▁food	-8.10283
▁another	-8.10485
▁meeting	-8.11476
▁john	-8.11499
▁nice	-8.12982
▁monday	-8.13355
▁parents	-8.14021
▁water	-8.14059
▁australia	-8.14685
▁dinner	-8.14685
▁meet	-8.14708
▁answer	-8.14752
▁coming	-8.1487
▁myself	-8.14952
▁supposed	-8.15521
▁since	-8.1559
▁days	-8.16147
▁friend	-8.16618
▁likely	-8.17142
▁change	-8.17525
▁started	-8.1753
▁use	-8.18105
▁cold	-8.18431
▁everybody	-8.18802
▁pay	-8.19715
▁those	-8.19719
▁coffee	-8.19811
cause	-8.20275
▁likes	-8.20928
▁usually	-8.21118
▁decided	-8.2117
▁fun	-8.21352
▁unti	-8.21914
▁sleep	-8.21951
▁easy	-8.22332
▁open	-8.22799
▁most	-8.23105
▁walk	-8.23478
▁own	-8.23783
▁needed	-8.25021
▁sorry	-8.25114
▁maybe	-8.25211
▁family	-8.25307
▁nobody	-8.25698
▁question	-8.2572
▁hungry	-8.26286
▁study	-8.26309
▁show	-8.26732
▁hours	-8.26875
▁watch	-8.26881
▁bed	-8.26923
▁ago	-8.27215
▁seemed	-8.27544
▁drive	-8.27729
▁truth	-8.27772
▁office	-8.2847
▁true	-8.28878
▁police	-8.29484
▁having	-8.29994
▁bus	-8.30532
▁young	-8.30561
▁hurt	-8.30751
▁died	-8.31544
▁difficult	-8.31834
▁doctor	-8.32579
▁lunch	-8.33201
▁swim	-8.33487
▁angry	-8.33527
▁train	-8.33915
▁phone	-8.33948
▁boy	-8.34327
▁chance	-8.34332
▁english	-8.3459
▁beautiful	-8.3486
▁yourself	-8.3599
▁once	-8.36113
▁sick	-8.36969
▁called	-8.36973
▁brother	-8.37177
▁gone	-8.38175
▁such	-8.38292
▁trouble	-8.38816
▁matter	-8.38854
▁hate	-8.38964
▁anybody	-8.39745
▁felt	-8.39858
▁learn	-8.40226
▁afternoon	-8.40309
▁longer	-8.40446
▁sing	-8.40611
▁girl	-8.41725
▁surprised	-8.42215
▁books	-8.42337
▁which	-8.42483
▁start	-8.42777
▁enjoy	-8.42827
▁exactly	-8.43884
▁letter	-8.44083
▁wearing	-8.44404
▁important	-8.44469
▁wife	-8.45659
▁accident	-8.4698
▁park	-8.47227
▁later	-8.47351
▁finished	-8.47434
▁questions	-8.47535
▁bit	-8.47801
▁lives	-8.47969
▁minutes	-8.48254
▁planning	-8.48934
▁times	-8.49097
▁playing	-8.49231
▁glad	-8.49874
▁rain	-8.50525
▁class	-8.50782
▁living	-8.51179
▁write	-8.52135
▁""	-8.5234
▁interested	-8.52596
▁high	-8.52771
▁turn	-8.52858
▁thirty	-8.53094
▁far	-8.53261
▁world	-8.53348
▁forget	-8.53595
▁whe	-8.54123
▁visit	-8.54837
▁tv	-8.55564
▁favorite	-8.56225
▁stupid	-8.56357
▁table	-8.57031
▁movie	-8.57169
▁hand	-8.57719
▁agree	-8.57907
▁mistake	-8.58232
▁music	-8.58867
▁makes	-8.5952
▁station	-8.60012
▁ok	-8.60013
▁thank	-8.60657
▁picture	-8.60903
▁broke	-8.61648
▁actually	-8.62103
▁thinks	-8.6219
▁expect	-8.62758
▁eating	-8.63131
▁2:30.	-8.63136
▁ate	-8.63389
▁guy	-8.63908
▁trust	-8.64747
▁summer	-8.64957
"""	-8.65019
▁sister	-8.65519
▁son	-8.65765
▁worried	-8.6583
▁helped	-8.66258
▁fast	-8.66317
▁sit	-8.66411
▁under	-8.66537
▁quit	-8.66896
▁month	-8.66953
▁hair	-8.6745
▁run	-8.67614
▁interesting	-8.6791
▁different	-8.68594
▁mean	-8.68719
▁"""	-8.68738
▁lived	-8.68948
▁near	-8.69084
▁team	-8.69188
▁safe	-8.69648
▁problems	-8.69783
▁fire	-8.69794
▁story	-8.69854
▁town	-8.7017
▁ten	-8.70379
▁possible	-8.70617
▁finish	-8.71183
▁deal	-8.71216
▁reason	-8.71831
▁homework	-8.72007
▁small	-8.72155
▁taking	-8.72319
▁caught	-8.72473
▁through	-8.72474
▁turned	-8.73081
▁hospital	-8.73731
▁sat	-8.73786
▁tennis	-8.74047
▁street	-8.74471
▁paid	-8.74525
▁close	-8.74654
▁business	-8.74837
▁window	-8.75278
▁game	-8.75278
▁walked	-8.75514
▁reading	-8.75683
▁ran	-8.7585
▁talked	-8.76087
▁killed	-8.76202
▁hot	-8.76297
▁listen	-8.76721
▁stayed	-8.76787
▁thinking	-8.76885
▁spent	-8.77107
▁outside	-8.77759
▁students	-8.77913
▁kept	-8.77928
▁worry	-8.78016
▁arrived	-8.78046
▁making	-8.78424
▁forgot	-8.78924
▁mine	-8.79255
▁spend	-8.79494
▁front	-8.79759
▁eyes	-8.8
▁child	-8.80259
▁shoes	-8.80399
▁face	-8.80407
▁feeling	-8.80695
▁un	-8.81104
▁swimming	-8.81111
▁along	-8.81301
▁careful	-8.81574
▁wear	-8.81732
▁met	-8.81976
▁works	-8.82389
▁goes	-8.82914
▁studying	-8.83135
▁behind	-8.83523
▁watching	-8.84182
▁become	-8.84302
▁company	-8.84751
▁kids	-8.85757
▁scared	-8.85863
▁number	-8.85971
▁stopped	-8.86534
▁rich	-8.87064
▁woman	-8.87072
▁changed	-8.87318
▁ra	-8.87524
▁lose	-8.87553
▁advice	-8.87797
▁became	-8.87984
▁guess	-8.88148
▁japan	-8.88162
▁worked	-8.88252
▁hands	-8.88504
▁song	-8.88673
▁fell	-8.88903
▁cat	-8.88921
▁free	-8.88985
▁real	-8.89256
▁guys	-8.89316
▁expected	-8.89412
▁bicycle	-8.89416
▁weather	-8.89448
▁moment	-8.89645
▁news	-8.89905
▁wine	-8.90162
▁bring	-8.90279
▁sometimes	-8.90349
▁word	-8.90546
▁asleep	-8.90565
▁clothes	-8.9094
▁country	-8.91129
▁breakfast	-8.91505
▁clean	-8.92065
▁weekend	-8.92071
▁christmas	-8.92263
▁dollars	-8.92455
▁hour	-8.92654
▁liked	-8.92686
▁city	-8.93028
▁wrote	-8.93029
▁student	-8.93429
▁birthday	-8.93991
▁whole	-8.94009
▁telling	-8.94083
▁quickly	-8.94782
▁end	-8.94783
▁move	-8.94992
▁evening	-8.95295
▁miss	-8.95382
▁five	-8.95754
▁explain	-8.96349
▁box	-8.96451
▁cut	-8.96531
▁situation	-8.96815
▁baby	-8.96815
▁choice	-8.97002
▁finally	-8.97146
y	-8.97469
▁hit	-8.97603
▁decision	-8.97611
▁began	-8.97945
▁plans	-8.97947
▁drunk	-8.98557
▁hat	-8.98615
▁saying	-8.99061
▁lucky	-8.99365
▁break	-8.99379
▁serious	-8.99514
▁kiss	-8.99979
▁gets	-9.00065
▁red	-9.00125
▁somebody	-9.00181
▁part	-9.0055
▁leaving	-9.00593
▁die	-9.00653
▁severa	-9.00686
▁cost	-9.00789
▁promised	-9.00794
▁catch	-9.00985
▁lie	-9.01127
▁point	-9.01425
▁dark	-9.01622
▁head	-9.01659
▁pain	-9.01668
▁hotel	-9.01768
▁fine	-9.01805
▁older	-9.01872
▁rest	-9.01956
▁store	-9.02198
▁cry	-9.03031
▁sitting	-9.03327
▁restaurant	-9.03908
ought	-9.03963
▁beer	-9.04273
e	-9.04471
▁computer	-9.0456
▁fight	-9.04947
▁fish	-9.05378
▁expensive	-9.05467
▁large	-9.05652
▁cup	-9.06319
▁opened	-9.06382
▁dead	-9.06505
▁promise	-9.0655
▁upset	-9.07216
▁report	-9.07311
▁strange	-9.07606
▁either	-9.07662
▁river	-9.07687
▁lying	-9.08108
▁happening	-9.08421
▁hurry	-9.08467
▁secret	-9.08902
▁against	-9.09428
▁closed	-9.09531
▁death	-9.09681
▁daughter	-9.09706
▁light	-9.09796
▁tree	-9.09938
▁guitar	-9.09946
▁quiet	-9.10077
▁milk	-9.10134
▁sound	-9.10232
▁trip	-9.10396
▁umbrella	-9.10398
▁driver	-9.10405
▁full	-9.10808
▁age	-9.10985
▁stand	-9.11014
▁couple	-9.11049
▁eaten	-9.11064
▁showed	-9.11082
▁dangerous	-9.11912
▁key	-9.12267
▁snow	-9.12776
▁nervous	-9.1285
?""	-9.12874
▁months	-9.12903
▁tea	-9.13265
▁mad	-9.13606
▁dress	-9.13638
▁building	-9.13946
▁baseball	-9.14079
▁college	-9.14079
▁dance	-9.14436
▁girlfriend	-9.14653
▁attention	-9.14792
▁cook	-9.15165
▁also	-9.1575
▁brought	-9.16475
▁minute	-9.16605
▁flowers	-9.16814
▁second	-9.16841
▁blame	-9.17237
▁sense	-9.17728
▁japanese	-9.1794
▁war	-9.18023
▁agreed	-9.18081
▁born	-9.18187
▁short	-9.18221
▁thanks	-9.18567
▁fix	-9.18725
▁weeks	-9.18943
▁comes	-9.19072
▁speaking	-9.19365
▁order	-9.19395
▁least	-9.19427
▁piano	-9.19427
▁smoking	-9.1968
▁played	-9.19952
▁cake	-9.20095
▁mistakes	-9.20638
▁between	-9.20683
i	-9.21329
▁certainly	-9.21486
▁loved	-9.21624
▁happens	-9.21839
▁doubt	-9.22044
▁allowed	-9.22044
▁sent	-9.22217
▁somewhere	-9.22236
▁loves	-9.22303
▁test	-9.2249
▁kill	-9.22532
▁join	-9.22554
▁sell	-9.22649
▁worth	-9.22709
▁crying	-9.22819
▁concert	-9.23465
▁funny	-9.23765
▁pass	-9.23905
▁coat	-9.24004
▁half	-9.24025
▁present	-9.24139
▁teach	-9.24199
▁crazy	-9.24287
▁clear	-9.24299
▁helping	-9.24371
▁list	-9.24714
▁desk	-9.24813
▁proud	-9.25077
▁whatever	-9.25137
▁bag	-9.25592
▁paper	-9.25601
▁waited	-9.25601
▁floor	-9.25879
▁strong	-9.26079
▁willing	-9.26093
▁road	-9.26408
▁forward	-9.26411
▁definitely	-9.26677
▁weight	-9.26687
▁completely	-9.26693
▁pick	-9.268
▁inside	-9.26947
▁black	-9.26996
▁dream	-9.27682
▁invited	-9.2784
▁check	-9.27852
▁bank	-9.2804
▁driving	-9.28298
▁famous	-9.28573
▁plane	-9.28958
▁travel	-9.29082
▁white	-9.29121
▁staying	-9.29131
▁send	-9.29319
▁kissed	-9.29548
▁asking	-9.29599
▁younger	-9.29973
▁prison	-9.30006
▁taken	-9.30074
▁language	-9.30286
▁shot	-9.30317
▁glass	-9.30501
▁learned	-9.30506
▁ice	-9.30621
▁offer	-9.30647
▁air	-9.31027
▁speaks	-9.31171
▁given	-9.31647
▁touch	-9.32022
▁broken	-9.32202
▁spoke	-9.3234
▁running	-9.32478
▁kid	-9.32573
▁kitchen	-9.33048
▁suspect	-9.33606
▁boss	-9.3361
▁moved	-9.33647
▁gun	-9.33741
▁shirt	-9.33746
▁drinking	-9.33908
▁known	-9.34005
▁neither	-9.342
▁beach	-9.34489
▁shopping	-9.34489
▁lawyer	-9.34897
▁side	-9.35198
▁opinion	-9.35492
▁vacation	-9.35503
▁figure	-9.35566
▁six	-9.35652
▁price	-9.36085
▁arrive	-9.36469
▁missed	-9.3674
▁advised	-9.36884
▁uncle	-9.36981
▁october	-9.37435
▁women	-9.37435
▁hold	-9.37513
▁afford	-9.37727
▁terrible	-9.38034
▁stuff	-9.38206
▁taught	-9.38336
▁sounds	-9.38893
▁library	-9.38941
▁refused	-9.39028
▁extreme	-9.39245
▁tall	-9.39248
▁poor	-9.3949
▁enjoyed	-9.39848
▁others	-9.40053
▁pictures	-9.40335
▁sleeping	-9.4041
▁ride	-9.40503
▁difference	-9.40671
▁hoping	-9.40779
▁lied	-9.40788
▁borrow	-9.40974
▁shut	-9.41088
▁written	-9.41712
▁arrested	-9.42044
▁seat	-9.42171
▁certain	-9.42286
▁surprise	-9.42345
▁fired	-9.42464
▁bother	-9.42505
▁alive	-9.42651
▁blue	-9.42929
▁anywhere	-9.42991
▁heart	-9.43143
▁injured	-9.43284
▁disappointed	-9.43617
▁realize	-9.43706
▁jackson	-9.43853
▁earlier	-9.43918
▁suggest	-9.43954
▁meat	-9.43993
▁set	-9.44008
▁apartment	-9.44238
▁glasses	-9.44243
▁save	-9.44356
▁noticed	-9.44429
▁garden	-9.44473
▁health	-9.44544
▁perhaps	-9.44559
▁pretend	-9.44804
▁camera	-9.44821
▁convince	-9.44989
▁writing	-9.45203
▁seeing	-9.45253
▁fault	-9.45807
▁message	-9.45814
▁heavy	-9.45851
▁medicine	-9.45851
▁return	-9.45929
▁wash	-9.46394
▁perfect	-9.46451
▁raining	-9.46702
▁waste	-9.46729
▁husband	-9.46805
▁takes	-9.46876
▁dur	-9.47037
▁herself	-9.4716
▁dogs	-9.47208
▁noise	-9.47465
▁across	-9.47493
▁fishing	-9.47606
▁accept	-9.47702
▁smart	-9.47749
▁listening	-9.47976
▁walking	-9.48085
▁decide	-9.48274
▁traffic	-9.48487
▁studied	-9.48821
▁information	-9.48821
▁o	-9.49635
▁discuss	-9.49639
▁solve	-9.49882
▁tie	-9.49905
▁consider	-9.49978
▁allow	-9.50152
▁sleepy	-9.50217
▁harder	-9.50223
▁rules	-9.50241
▁passed	-9.50318
▁realized	-9.5074
▁necessary	-9.50853
▁visited	-9.51148
▁immediately	-9.51198
▁sad	-9.51632
▁singing	-9.51768
▁rent	-9.518
▁canadian	-9.5193
▁worse	-9.52227
▁picked	-9.52378
▁horse	-9.52634
▁expecting	-9.52763
▁future	-9.52925
▁convinced	-9.53155
▁knife	-9.53274
▁recently	-9.53279
▁prefer	-9.53692
▁boys	-9.5379
▁boyfriend	-9.54398
▁carefully	-9.54436
▁assume	-9.55041
▁notice	-9.55546
▁follow	-9.55596
▁keys	-9.55658
▁truck	-9.5576
▁girls	-9.55965
▁dictionary	-9.56116
▁handle	-9.56351
▁excited	-9.56478
▁though	-9.56501
er	-9.56579
▁wall	-9.56621
▁ship	-9.56643
▁sign	-9.56746
▁past	-9.56831
▁prepared	-9.56911
▁t	-9.57063
▁bread	-9.57568
▁words	-9.5761
▁address	-9.57723
▁means	-9.57876
▁movies	-9.57907
▁danger	-9.58036
▁case	-9.58056
▁speech	-9.58285
▁confused	-9.58319
▁apologize	-9.58458
▁support	-9.58545
▁experience	-9.58585
▁stole	-9.58706
▁eggs	-9.59033
▁gotten	-9.59043
▁watched	-9.59095
▁standing	-9.59165
▁impressed	-9.59458
▁tokyo	-9.59787
▁begin	-9.59948
▁intend	-9.60048
▁lend	-9.60163
▁canno	-9.6025
▁excuse	-9.60486
▁twice	-9.60537
▁hundred	-9.60704
▁drank	-9.60914
▁2013	-9.60914
▁airport	-9.60914
▁appreciate	-9.61078
▁apple	-9.61101
▁seldom	-9.61293
▁chair	-9.61474
▁wedding	-9.61485
▁easily	-9.61675
▁winter	-9.61676
▁regret	-9.62058
▁arm	-9.62146
▁laughed	-9.62166
▁attend	-9.62247
▁date	-9.6241
▁control	-9.6244
▁aware	-9.62464
▁ticket	-9.62645
▁line	-9.62651
▁four	-9.62817
▁men	-9.63157
▁impossible	-9.63209
▁sunday	-9.63425
clock	-9.63506
▁laugh	-9.63617
▁cooking	-9.6372
▁eye	-9.63819
se	-9.64205
▁marry	-9.64376
▁suggested	-9.64515
▁smell	-9.6461
▁held	-9.64793
▁patient	-9.64951
▁player	-9.65055
▁grew	-9.65162
▁less	-9.65227
▁taxi	-9.65383
▁nor	-9.65417
▁tough	-9.65947
▁special	-9.66131
▁gift	-9.66502
▁missing	-9.66508
▁hey	-9.66596
▁church	-9.66752
▁bored	-9.66774
▁pulled	-9.6681
▁honest	-9.6709
▁abroad	-9.67154
▁ourselves	-9.67154
▁warm	-9.67831
▁voice	-9.67835
▁bottle	-9.67838
▁wake	-9.67963
▁pen	-9.68091
▁stolen	-9.68331
▁ahead	-9.68375
▁obviously	-9.68399
▁concerned	-9.68417
▁cool	-9.68641
▁popular	-9.68776
▁stood	-9.69598
▁exam	-9.69927
▁carry	-9.69949
▁wonderful	-9.69959
▁simple	-9.70009
▁slept	-9.70011
▁empty	-9.70012
▁none	-9.70031
▁golf	-9.70422
▁sugar	-9.70426
▁charge	-9.70536
▁telephone	-9.70623
able	-9.71589
▁suitcase	-9.71609
▁absolutely	-9.71687
▁grandfather	-9.71688
▁president	-9.71796
▁bill	-9.71837
▁meant	-9.71886
▁sun	-9.7211
▁america	-9.72244
▁eats	-9.7237
▁joke	-9.72462
▁piece	-9.72464
▁calm	-9.72485
▁success	-9.72519
▁awake	-9.72527
▁guilty	-9.72528
▁cream	-9.72531
▁hang	-9.72751
▁hide	-9.72966
▁seriously	-9.73058
▁drinks	-9.7396
▁learning	-9.74531
▁risk	-9.74626
▁unhappy	-9.74673
th	-9.74743
▁smile	-9.74846
▁tickets	-9.74874
▁chess	-9.75108
▁beat	-9.75126
▁handed	-9.7549
▁common	-9.75988
▁forgive	-9.76159
▁correct	-9.76255
▁newspaper	-9.76856
▁fat	-9.77186
▁built	-9.77311
▁failed	-9.77366
▁smoke	-9.77521
▁fall	-9.77677
▁public	-9.777
▁reached	-9.77851
▁radio	-9.78205
▁lonely	-9.78206
▁race	-9.78687
▁wallet	-9.79109
▁locked	-9.79193
▁throw	-9.79305
▁received	-9.7963
▁pleased	-9.797
▁suppose	-9.79807
▁suddenly	-9.80032
▁single	-9.80036
▁sooner	-9.80078
▁offered	-9.8021
▁apples	-9.80256
▁except	-9.80477
▁drove	-9.80478
▁faster	-9.805
▁law	-9.80551
▁top	-9.80867
▁protect	-9.81206
▁dishes	-9.8142
▁named	-9.81511
▁healthy	-9.81886
▁machine	-9.81902
▁hiding	-9.81931
▁satisfied	-9.82335
▁unlikely	-9.82337
▁dressed	-9.82561
▁sports	-9.82794
▁eventually	-9.82804
▁mountain	-9.82881
ever	-9.83042
giving	-9.83267
▁buying	-9.83323
▁shop	-9.83394
▁mouth	-9.83754
▁cats	-9.83852
▁blood	-9.83969
▁spoken	-9.8398
▁license	-9.84003
▁thirteen	-9.84226
▁beginning	-9.84227
▁laughing	-9.84319
▁taller	-9.84715
▁sold	-9.8519
▁plays	-9.85456
▁succeed	-9.85554
▁deserve	-9.8557
▁color	-9.85595
▁admit	-9.8566
▁dropped	-9.85669
▁foot	-9.85675
▁ball	-9.85786
▁answered	-9.8581
▁leg	-9.86115
▁bare	-9.86207
▁respect	-9.86405
▁jail	-9.86518
▁owe	-9.86557
▁american	-9.86601
▁amazing	-9.86641
▁choose	-9.87707
▁friendly	-9.87903
▁jealous	-9.88106
▁basketball	-9.88119
▁shower	-9.8814
▁moving	-9.88617
▁pizza	-9.88741
▁cute	-9.88812
▁slow	-9.8906
▁storm	-9.89105
▁understood	-9.89117
▁details	-9.89134
▁animals	-9.89174
▁shy	-9.89565
▁dirty	-9.89621
▁entered	-9.89697
▁followed	-9.89779
▁singer	-9.8981
▁count	-9.90068
▁grandmother	-9.90126
▁returned	-9.90301
▁recognize	-9.90419
▁sandwich	-9.90627
▁painted	-9.9075
▁ring	-9.90751
▁painting	-9.9091
▁absent	-9.91142
▁television	-9.91142
▁calling	-9.91325
▁paint	-9.91641
▁earth	-9.9166
▁permission	-9.9217
▁slowly	-9.92222
▁ordered	-9.92406
▁schedule	-9.92473
▁dating	-9.9269
▁states	-9.92724
hrew	-9.9279
▁suit	-9.92931
less	-9.93011
▁songs	-9.93339
▁feet	-9.93442
▁forgotten	-9.93733
▁totally	-9.93761
▁pool	-9.9391
▁solution	-9.93932
▁plenty	-9.94259
▁contact	-9.94339
▁club	-9.94471
▁novel	-9.94513
▁results	-9.94748
▁history	-9.94796
▁step	-9.95154
▁trees	-9.95247
▁feed	-9.95336
▁fair	-9.95789
▁favor	-9.95849
▁huge	-9.95864
▁bar	-9.95956
▁smiled	-9.96118
▁escape	-9.96365
▁fact	-9.96413
▁brothers	-9.96454
▁ideas	-9.96487
▁luck	-9.96919
▁middle	-9.96934
▁keeps	-9.9706
▁pocket	-9.97224
▁appear	-9.97362
▁duty	-9.97477
▁jacket	-9.97477
▁dad	-9.97487
▁continue	-9.97537
▁vote	-9.97541
▁yours	-9.97753
▁boat	-9.97758
▁reach	-9.97861
▁post	-9.97887
▁bath	-9.97945
▁soccer	-9.98023
▁instead	-9.98026
▁fool	-9.98203
▁hopes	-9.98312
▁practice	-9.98322
▁bike	-9.98786
▁admitted	-9.99062
▁mood	-9.99112
▁chinese	-9.99126
▁involved	-9.99144
▁crowd	-9.99278
▁lake	-9.99337
▁project	-9.99362
▁seven	-9.99419
▁pair	-10.0001
▁feelings	-10.0017
▁hid	-10.0021
▁fighting	-10.0044
▁starting	-10.0061
▁eight	-10.0079
▁spring	-10.0108
▁prices	-10.0109
▁bridge	-10.0113
▁fit	-10.0123
▁awful	-10.0137
▁sight	-10.0187
▁cried	-10.0194
▁responsible	-10.0251
▁gas	-10.0257
▁cause	-10.0266
▁explained	-10.0283
▁saved	-10.0289
▁feels	-10.0293
▁foreign	-10.0307
▁appointment	-10.0347
▁wears	-10.0353
▁speaker	-10.0356
▁pour	-10.0359
▁deep	-10.0364
▁third	-10.0366
▁fairly	-10.0371
▁clearly	-10.0377
▁government	-10.0397
▁yen	-10.0424
▁caused	-10.0446
▁group	-10.0464
▁avoid	-10.0522
▁chocolate	-10.0523
▁football	-10.0541
▁mom	-10.0544
▁area	-10.0549
▁goodbye	-10.0576
▁remind	-10.058
▁weird	-10.0599
▁retired	-10.0613
▁believed	-10.0629
▁explanation	-10.0641
▁lights	-10.0652
▁boring	-10.066
▁neighborhood	-10.066
▁soup	-10.0664
▁flight	-10.0704
▁breath	-10.0709
▁normal	-10.0715
▁usual	-10.0715
▁body	-10.072
""	-10.0721
▁grow	-10.0739
▁persuade	-10.0759
▁neighbors	-10.0765
▁rule	-10.0767
▁complain	-10.0771
▁particular	-10.078
▁teeth	-10.078
▁manager	-10.078
▁policeman	-10.0781
▁leaves	-10.0785
▁act	-10.0812
▁woke	-10.0841
▁comfortable	-10.0841
▁ti	-10.0843
▁accepted	-10.0862
▁murder	-10.087
▁course	-10.0884
▁figured	-10.0885
▁enemy	-10.0902
▁windows	-10.0919
▁share	-10.0927
▁lock	-10.0937
▁native	-10.0948
▁drop	-10.0948
▁parked	-10.0959
▁warned	-10.0972
▁cookies	-10.0976
▁picnic	-10.1006
▁subject	-10.1011
▁languages	-10.1012
▁accused	-10.1027
▁considered	-10.1108
▁straight	-10.1145
▁dancing	-10.1149
▁innocent	-10.1149
▁embarrassed	-10.1151
▁paying	-10.1202
▁map	-10.1204
es	-10.1243
▁imagine	-10.1254
▁major	-10.1263
▁fruit	-10.1265
.""	-10.1265
▁mess	-10.1274
▁"	-10.1275
▁stuck	-10.1276
▁depressed	-10.1276
▁crime	-10.1331
al	-10.1332
▁purpose	-10.1334
▁anyway	-10.1341
▁relax	-10.1384
▁recommend	-10.1392
▁planned	-10.1404
▁rarely	-10.1406
▁skiing	-10.1408
▁washed	-10.1426
est	-10.1448
▁rude	-10.1461
▁garage	-10.1468
▁supermarket	-10.1468
▁sang	-10.1468
▁green	-10.1476
ting	-10.1496
▁listened	-10.1513
▁low	-10.1532
▁university	-10.1533
▁punished	-10.1535
▁passport	-10.1586
▁upstairs	-10.1598
▁shocked	-10.1603
▁raise	-10.1636
▁cash	-10.165
▁lots	-10.1659
▁yes	-10.1667
▁wore	-10.1668
▁managed	-10.1682
▁ground	-10.1718
▁possibly	-10.173
▁rice	-10.173
▁classroom	-10.173
▁complaining	-10.1739
▁jokes	-10.174
▁cleaning	-10.1757
▁sort	-10.1791
▁button	-10.1794
▁fixed	-10.1828
▁stick	-10.1855
▁obvious	-10.1859
▁proposal	-10.186
▁type	-10.1862
▁delicious	-10.1864
▁opportunity	-10.1864
▁sky	-10.1864
▁thirsty	-10.1864
▁cards	-10.1865
▁covered	-10.1871
▁art	-10.1874
▁teaching	-10.1884
▁invite	-10.191
▁badly	-10.192
▁mail	-10.192
▁rid	-10.1924
▁loud	-10.1926
▁denied	-10.1933
▁prove	-10.1934
▁cars	-10.1965
▁attack	-10.1986
▁private	-10.1994
▁lift	-10.1995
▁jumped	-10.2007
▁welcome	-10.2047
▁sweater	-10.2057
▁contract	-10.2068
▁europe	-10.2068
▁worst	-10.2068
▁hoped	-10.2087
▁exercise	-10.2112
▁sea	-10.2117
▁village	-10.2126
▁harvard	-10.2137
▁midnight	-10.2137
▁gate	-10.2138
▁headache	-10.214
▁result	-10.2142
▁filled	-10.2145
▁hated	-10.2169
▁fly	-10.2202
▁excellent	-10.2206
▁london	-10.2206
▁zoo	-10.2206
▁familiar	-10.2207
▁motorcycle	-10.2208
▁bedroom	-10.2209
▁pencil	-10.2211
▁card	-10.2217
▁2:30	-10.2255
▁argue	-10.2255
▁roof	-10.2276
▁treat	-10.2277
▁thousand	-10.2283
▁talks	-10.2284
▁continued	-10.2304
▁checked	-10.2306
united	-10.2322
▁easier	-10.2347
▁exhausted	-10.2347
▁vegetables	-10.2364
▁games	-10.2367
▁sentence	-10.2403
▁quick	-10.2412
▁fresh	-10.2412
▁successful	-10.2412
▁curious	-10.2418
▁themselves	-10.2418
▁twenty	-10.2418
▁handsome	-10.2418
▁york	-10.2489
▁losing	-10.249
▁sisters	-10.2499
▁hired	-10.2509
▁tears	-10.2515
▁teachers	-10.2517
a	-10.2536
▁grab	-10.2552
▁toward	-10.2567
▁rock	-10.2569
▁forced	-10.258
▁sometime	-10.2581
▁legs	-10.2615
▁birds	-10.2616
▁20	-10.2629
▁examination	-10.264
▁treated	-10.2645
▁noon	-10.2646
▁divorced	-10.2647
▁following	-10.2649
▁washing	-10.2652
▁options	-10.2696
▁paris	-10.2707
▁account	-10.2707
▁aunt	-10.2708
▁band	-10.2713
▁wind	-10.2721
▁cross	-10.2761
▁enter	-10.2761
▁kick	-10.2773
▁desperate	-10.2775
▁couch	-10.278
▁dying	-10.278
▁traveling	-10.2801
▁grateful	-10.2848
▁weak	-10.2848
▁peace	-10.2854
▁credit	-10.2854
▁apparently	-10.2854
▁brave	-10.2855
▁names	-10.2863
▁forever	-10.2869
▁meal	-10.2872
▁complete	-10.2902
▁mention	-10.2909
▁fence	-10.2928
▁belong	-10.2937
▁stared	-10.2939
▁gloves	-10.2948
▁raised	-10.2953
▁cheap	-10.2997
▁nine	-10.3004
▁staring	-10.3008
▁perfectly	-10.3016
▁graduated	-10.3017
▁clock	-10.3034
c	-10.3048
o	-10.3066
▁hire	-10.3073
▁audience	-10.308
▁hearing	-10.3083
▁neighbor	-10.3099
▁bird	-10.3099
▁nose	-10.3114
▁refuse	-10.3135
looking	-10.3139
▁farm	-10.3149
▁anxious	-10.3151
▁suspicious	-10.3151
▁silent	-10.3151
▁optimistic	-10.3156
▁bigger	-10.3156
▁burned	-10.3161
▁space	-10.3233
▁unusual	-10.3233
▁useful	-10.3234
▁remain	-10.3234
▁email	-10.3236
▁letters	-10.3257
▁discussed	-10.3259
▁ended	-10.3278
▁suicide	-10.3311
▁carried	-10.3311
▁interest	-10.3312
▁gold	-10.3312
▁stairs	-10.3312
▁someday	-10.3312
▁museum	-10.333
▁saturday	-10.3331
▁chicken	-10.3331
▁borrowed	-10.3339
▁changes	-10.3367
▁match	-10.3388
▁lazy	-10.3389
▁science	-10.3389
▁system	-10.3389
▁due	-10.3394
▁fear	-10.3396
▁salt	-10.3401
▁power	-10.3405
▁warn	-10.3437
▁pull	-10.3457
▁brush	-10.3465
▁lately	-10.3467
▁available	-10.3467
▁everywhere	-10.3471
▁position	-10.3475
▁remained	-10.3479
▁million	-10.3491
▁rang	-10.3543
▁30	-10.3545
▁god	-10.3545
▁personal	-10.3546
▁hung	-10.3546
▁lady	-10.3547
▁bathroom	-10.3547
▁distance	-10.3547
▁frightened	-10.3549
▁wood	-10.3575
▁rains	-10.3595
▁soldiers	-10.3612
▁wise	-10.3622
▁search	-10.3623
▁ashamed	-10.3627
▁bench	-10.3627
▁cancer	-10.3627
▁blind	-10.3631
r	-10.3635
▁corner	-10.3654
▁manage	-10.3687
▁hug	-10.3706
▁supper	-10.3707
▁salary	-10.3707
▁complicated	-10.3708
▁ex	-10.3776
▁alice	-10.3789
▁countries	-10.3789
▁according	-10.3789
▁winning	-10.3789
▁moon	-10.381
▁size	-10.3811
▁sweet	-10.3815
▁translate	-10.3849
▁land	-10.3867
▁france	-10.3871
▁rope	-10.3871
▁behavior	-10.3871
▁army	-10.3873
▁complained	-10.3886
▁mistaken	-10.3888
▁island	-10.3907
▁calls	-10.3917
▁shall	-10.3954
▁drives	-10.3978
▁view	-10.3983
▁note	-10.3985
▁coach	-10.3993
▁belongs	-10.4018
▁horrible	-10.4037
▁math	-10.4037
▁stronger	-10.4039
▁camping	-10.404
▁helpful	-10.4041
▁climbed	-10.4047
▁liar	-10.4067
▁escaped	-10.407
▁photo	-10.4071
▁spending	-10.4075
▁season	-10.4138
▁wondering	-10.4146
▁add	-10.4187
▁trusted	-10.4187
▁polite	-10.42
▁spends	-10.4201
▁jerk	-10.4225
▁member	-10.4243
▁facts	-10.4246
▁ignore	-10.427
."	-10.4287
▁courage	-10.4291
▁exciting	-10.4291
▁confident	-10.4291
▁further	-10.4291
▁heat	-10.4298
▁request	-10.4301
▁bear	-10.4312
▁apologized	-10.4341
▁theater	-10.4377
▁finding	-10.4377
▁shoulder	-10.4382
▁pushed	-10.4386
▁carrying	-10.4393
▁miles	-10.4413
▁holiday	-10.4417
▁build	-10.4456
▁butter	-10.4466
▁using	-10.448
in	-10.4483
▁taste	-10.4483
▁friday	-10.4496
▁video	-10.4498
▁prize	-10.45
▁earthquake	-10.4504
▁similar	-10.4552
▁intelligent	-10.4552
▁arguing	-10.4552
mong	-10.457
▁market	-10.4579
▁pie	-10.4591
▁ear	-10.4601
till	-10.4611
▁talented	-10.4647
▁hanging	-10.4656
▁socks	-10.4659
▁recognized	-10.4678
▁artist	-10.468
▁sale	-10.4775
▁diet	-10.4777
▁survive	-10.4798
▁chicago	-10.482
▁possibility	-10.482
▁entire	-10.482
▁oil	-10.4821
▁smarter	-10.4822
▁classes	-10.4823
gged	-10.4826
▁fail	-10.4843
▁attended	-10.4847
▁signed	-10.4848
▁cleaned	-10.4874
▁stories	-10.4911
▁assistant	-10.4911
▁engaged	-10.4911
▁answers	-10.4921
▁idiot	-10.4957
▁article	-10.4957
▁habit	-10.4959
▁climb	-10.4982
▁wasting	-10.4997
▁lay	-10.5
▁stubborn	-10.5002
▁uncomfortable	-10.5002
▁adopted	-10.5005
▁reasonable	-10.5006
▁envelope	-10.5035
▁guests	-10.505
▁pressure	-10.5072
▁local	-10.5095
▁yourselves	-10.5095
▁main	-10.5095
▁sofa	-10.5095
▁determined	-10.5098
▁annoyed	-10.5099
▁acting	-10.5107
▁holding	-10.5119
▁hole	-10.5147
▁horses	-10.5173
▁rained	-10.5179
▁dentist	-10.5188
▁juice	-10.5188
▁above	-10.5189
▁unfortunately	-10.5189
▁closer	-10.5191
▁intended	-10.5217
▁progress	-10.5262
▁express	-10.5272
▁p	-10.5279
▁china	-10.5283
▁laid	-10.5283
▁patience	-10.5283
▁shape	-10.5291
▁judge	-10.5301
▁10	-10.5303
▁issue	-10.5316
▁kissing	-10.5317
▁record	-10.5318
▁condition	-10.5333
▁elevator	-10.5335
▁flower	-10.5341
▁parking	-10.5342
▁scare	-10.5361
▁bright	-10.5373
▁baked	-10.5387
to	-10.545
▁nurse	-10.5474
▁captain	-10.5474
▁smiling	-10.5474
▁brown	-10.5474
▁elected	-10.5476
time	-10.548
▁flying	-10.5485
▁loss	-10.549
▁drawer	-10.5529
▁suggestion	-10.5535
▁cheese	-10.5571
▁downstairs	-10.5571
▁mirror	-10.5571
▁thief	-10.5571
▁joking	-10.5571
▁energy	-10.5571
▁factory	-10.5571
▁shelf	-10.5572
▁persuaded	-10.5606
▁visiting	-10.5628
▁musician	-10.5631
▁orange	-10.5634
▁ski	-10.565
▁extra	-10.5669
▁kyoto	-10.5669
▁illness	-10.567
▁lack	-10.567
▁chose	-10.5697
▁conversation	-10.5703
▁costs	-10.5711
▁within	-10.5717
▁package	-10.5727
▁resign	-10.5749
▁foolish	-10.5763
▁shoot	-10.5763
▁urgent	-10.5764
▁furniture	-10.5768
▁germany	-10.5769
▁jobs	-10.5778
on	-10.5805
▁retire	-10.5806
▁cooked	-10.5816
▁marriage	-10.582
▁closet	-10.5836
▁professional	-10.5863
▁evidence	-10.5868
▁safety	-10.5868
▁hall	-10.5877
▁mondays	-10.59
▁arms	-10.5917
▁page	-10.5918
▁failure	-10.5925
▁service	-10.5933
▁intention	-10.5934
▁magazine	-10.5936
▁cousin	-10.5937
▁finger	-10.5937
▁workers	-10.5939
▁deserves	-10.5945
▁bite	-10.5946
▁illegal	-10.5964
▁natural	-10.5964
▁beard	-10.5966
▁self	-10.5969
▁difficulty	-10.5982
▁kinds	-10.5983
▁crowded	-10.5991
▁doctors	-10.6037
▁obey	-10.606
▁allergi	-10.6071
▁emergency	-10.6071
▁committed	-10.6071
▁clever	-10.6071
▁copy	-10.6073
▁candy	-10.6077
▁dreams	-10.6165
▁blew	-10.6174
▁dessert	-10.6174
▁refrigerator	-10.6174
▁memory	-10.6174
▁canceled	-10.6185
▁growing	-10.6187
▁fed	-10.6194
▁ignored	-10.6205
coming	-10.6243
▁leader	-10.6248
▁fill	-10.626
▁dry	-10.627
▁board	-10.6272
▁ridiculous	-10.6279
▁tastes	-10.6334
▁concern	-10.6343
▁solved	-10.6345
▁understands	-10.6354
▁studies	-10.6384
▁switch	-10.6384
▁purse	-10.6384
▁diary	-10.6384
▁ugly	-10.6384
▁quietly	-10.6407
▁succeeded	-10.6409
▁alarm	-10.6422
▁damage	-10.6437
▁engine	-10.6452
▁german	-10.6456
▁advantage	-10.6459
▁amount	-10.646
▁notebook	-10.6461
▁double	-10.647
▁matters	-10.6479
▁hero	-10.6489
▁stomach	-10.649
▁politics	-10.649
▁silence	-10.649
▁temperature	-10.649
▁unlucky	-10.649
▁careless	-10.6492
▁attacked	-10.6508
▁stepp	-10.6508
▁draw	-10.6517
▁website	-10.6557
▁loan	-10.6558
▁force	-10.6571
▁push	-10.6577
▁prevent	-10.6581
▁conference	-10.6598
▁kidding	-10.6598
▁apart	-10.6598
▁jump	-10.6631
▁king	-10.6669
▁places	-10.6679
▁human	-10.6685
▁prepare	-10.6685
▁cancel	-10.6695
▁invitation	-10.6706
▁sunglasses	-10.6706
▁wealthy	-10.6707
▁pale	-10.6709
▁wounded	-10.6712
▁writer	-10.6791
▁cookie	-10.6793
▁walks	-10.6801
▁hill	-10.6806
▁sharp	-10.6807
▁tight	-10.6809
▁runs	-10.681
▁occurred	-10.6816
▁hugged	-10.6816
▁potatoes	-10.6817
▁fever	-10.6817
▁deeply	-10.6826
▁highly	-10.686
▁sundays	-10.6865
▁reasons	-10.688
▁text	-10.6883
▁poem	-10.6905
▁lobby	-10.6927
▁neck	-10.6928
▁confidence	-10.6928
▁knocked	-10.6933
▁volunteer	-10.6999
▁challenge	-10.7017
▁rumor	-10.7018
▁divorce	-10.7018
▁officer	-10.7021
▁reply	-10.7032
▁education	-10.7039
▁gym	-10.704
▁population	-10.704
▁yellow	-10.704
▁d	-10.704
▁apply	-10.704
▁prevented	-10.7052
▁describe	-10.7052
▁crossed	-10.7057
▁appeared	-10.7063
▁survived	-10.7067
▁lean	-10.7108
▁capital	-10.7116
▁collect	-10.7121
▁owns	-10.7129
▁relationship	-10.7131
▁expert	-10.7131
▁introduce	-10.7132
▁dare	-10.7134
▁speed	-10.7146
▁wild	-10.7153
▁threatened	-10.7154
▁jeans	-10.7154
▁compare	-10.7198
▁disagree	-10.7214
▁impatient	-10.7263
▁committee	-10.7268
▁attractive	-10.7268
▁unlocked	-10.727
▁bags	-10.7271
▁lovely	-10.7282
▁final	-10.7292
▁orders	-10.7308
▁mt	-10.7337
▁f	-10.7348
▁battle	-10.7348
▁ocean	-10.7356
▁mountains	-10.7365
▁harm	-10.7372
year	-10.7376
▁rough	-10.7379
▁funeral	-10.7385
▁insurance	-10.7385
▁jazz	-10.7385
▁shook	-10.7385
▁basement	-10.7385
▁thin	-10.7385
▁fallen	-10.7385
▁anger	-10.7388
▁insisted	-10.739
▁classmates	-10.74
▁introduced	-10.7407
▁writes	-10.7435
▁meaning	-10.7443
▁forest	-10.7461
▁americans	-10.7473
▁attempt	-10.748
▁require	-10.7481
▁argument	-10.7484
▁example	-10.7484
▁depends	-10.7494
▁england	-10.7502
▁noisy	-10.7502
▁largest	-10.7518
▁acted	-10.7525
▁woods	-10.7581
▁graduate	-10.7582
no	-10.7584
▁cover	-10.7593
▁pond	-10.7599
▁actor	-10.7601
▁repeat	-10.7603
▁document	-10.7607
▁animal	-10.7608
▁fantastic	-10.7621
▁scary	-10.7622
▁mentioned	-10.764
▁suitcases	-10.7642
▁required	-10.7643
▁impress	-10.7674
▁meals	-10.7718
▁election	-10.7725
▁secrets	-10.7732
▁eager	-10.7737
▁enemies	-10.7742
▁generous	-10.7742
▁responsibility	-10.7742
▁surgery	-10.7742
▁changing	-10.7742
▁roses	-10.7745
▁shorter	-10.7745
▁abandoned	-10.7747
▁cave	-10.7748
▁lent	-10.7748
▁nowhere	-10.7758
▁re	-10.7775
▁tend	-10.7782
▁goal	-10.7783
▁voted	-10.7789
dical	-10.7791
▁smells	-10.7791
▁sounded	-10.7803
▁towel	-10.7851
▁weapon	-10.7852
▁lesson	-10.7853
▁stranger	-10.7854
▁positive	-10.7858
bed	-10.7859
▁debt	-10.7862
▁drew	-10.7864
▁skeptical	-10.7864
▁fifty	-10.7864
▁deny	-10.7864
▁related	-10.7865
▁released	-10.7871
▁passengers	-10.79
▁improve	-10.7948
▁guard	-10.7964
▁spare	-10.7966
▁swimmer	-10.7968
▁ability	-10.7989
▁served	-10.8003
▁state	-10.8008
▁grown	-10.8009
▁decisions	-10.8066
▁repair	-10.8081
▁hurts	-10.8097
▁disease	-10.8101
▁furious	-10.8106
▁climate	-10.8112
▁gentleman	-10.8112
▁defend	-10.8112
▁aggressive	-10.8112
▁dumb	-10.8112
▁pity	-10.8112
▁beside	-10.8114
▁split	-10.8114
▁bills	-10.8133
▁pounds	-10.814
▁cousins	-10.8153
▁oranges	-10.8158
▁headed	-10.8184
where	-10.8187
▁stamps	-10.8194
▁owes	-10.8205
▁toilet	-10.8213
▁agreement	-10.8218
▁pleasure	-10.8221
▁operation	-10.8221
▁coincidence	-10.8223
▁blamed	-10.8226
▁saving	-10.8232
▁department	-10.8239
▁hobby	-10.8239
▁south	-10.8239
▁accustom	-10.8239
▁cab	-10.8239
▁childhood	-10.8239
▁capable	-10.824
▁destroyed	-10.8243
▁entirely	-10.8246
▁riding	-10.8253
▁falling	-10.8261
▁tense	-10.8265
▁worrying	-10.8298
▁novels	-10.8306
▁file	-10.8339
▁s	-10.8345
▁press	-10.8348
▁detail	-10.8351
▁reluctant	-10.8362
▁action	-10.8362
▁briefcase	-10.8367
▁economy	-10.8367
▁percent	-10.8367
▁comment	-10.8368
▁fortune	-10.8369
▁currently	-10.8369
▁larger	-10.8369
▁offended	-10.837
▁stealing	-10.8374
▁fan	-10.8377
▁nuts	-10.8384
▁per	-10.842
▁e	-10.8431
▁friendship	-10.8465
▁approve	-10.8475
▁canadians	-10.8479
▁behave	-10.8481
▁engineer	-10.8482
▁temper	-10.8483
▁airplane	-10.849
▁rose	-10.8494
▁salad	-10.8497
▁simply	-10.8497
▁presents	-10.8509
▁rainy	-10.851
▁pants	-10.8528
▁fingers	-10.8539
▁snowing	-10.854
▁unfair	-10.8623
▁romantic	-10.8628
▁beauty	-10.8628
▁biggest	-10.8628
▁creative	-10.8628
▁happiness	-10.8628
▁reliable	-10.8628
▁fond	-10.8629
▁round	-10.8629
▁permitted	-10.8629
▁dollar	-10.8629
▁hunting	-10.8631
▁slightly	-10.8633
▁star	-10.8642
▁theory	-10.865
▁selling	-10.8668
▁terms	-10.8689
▁customers	-10.8701
▁members	-10.8704
▁value	-10.873
▁pack	-10.873
▁celebrate	-10.874
▁scene	-10.8748
▁legal	-10.8751
▁castle	-10.8756
▁plate	-10.8759
▁applie	-10.8762
▁garbage	-10.8762
▁downtown	-10.8762
▁grass	-10.8762
▁violin	-10.8762
▁motivated	-10.8762
▁dozen	-10.8763
▁disappeared	-10.8764
▁teaches	-10.8764
▁discovered	-10.8765
▁oldest	-10.8773
tom	-10.8784
▁lies	-10.8817
▁100	-10.8822
▁steal	-10.8886
▁spread	-10.8889
▁incredible	-10.8897
▁egg	-10.89
▁sport	-10.89
▁papers	-10.89
▁boots	-10.8905
▁promises	-10.8907
▁murdered	-10.8922
▁lasted	-10.8966
▁ears	-10.8967
▁begins	-10.8974
▁c	-10.8978
▁claims	-10.8979
▁tied	-10.8995
▁model	-10.9017
▁3	-10.9024
▁research	-10.903
▁tax	-10.9033
▁fuji	-10.9034
▁average	-10.9034
▁burst	-10.9034
▁tongue	-10.9034
▁active	-10.9034
▁stars	-10.9035
▁nearest	-10.9038
▁5	-10.9046
▁touched	-10.909
▁doors	-10.9133
▁skin	-10.9143
▁income	-10.9146
▁advise	-10.9151
what	-10.9152
▁crash	-10.9153
ies	-10.9164
▁pilot	-10.9167
▁lead	-10.9169
▁nap	-10.9173
▁arriving	-10.9173
▁happier	-10.9173
▁preparing	-10.9173
▁buried	-10.9173
▁overweight	-10.9173
▁conservative	-10.9173
▁spot	-10.9173
▁secretary	-10.9174
▁proof	-10.9174
▁canada	-10.9176
▁blanket	-10.9177
▁organized	-10.9177
▁screaming	-10.9178
▁climbing	-10.9184
▁documents	-10.9189
▁gives	-10.9195
▁considering	-10.9204
▁belt	-10.9208
▁seats	-10.9215
▁starts	-10.9238
▁complaints	-10.9263
▁fake	-10.9288
▁permit	-10.93
▁lower	-10.9304
▁ambulance	-10.9314
▁competition	-10.9314
▁fifteen	-10.9314
▁skating	-10.9314
▁jogging	-10.9314
▁poker	-10.9314
▁nearby	-10.9314
▁instructions	-10.9315
▁annoying	-10.9318
▁score	-10.9322
▁flat	-10.9324
▁anytime	-10.9328
en	-10.933
▁relaxed	-10.9339
▁oppose	-10.9389
▁iron	-10.9414
▁center	-10.9437
▁rescue	-10.9444
▁crush	-10.9445
▁slight	-10.9451
▁stock	-10.9453
▁bottom	-10.9456
▁twelve	-10.9456
▁robbed	-10.9456
▁spite	-10.9457
▁sand	-10.9459
▁boxes	-10.946
▁depend	-10.9461
▁discussion	-10.9463
▁criminal	-10.9465
▁repaired	-10.947
▁prisoner	-10.947
▁glance	-10.9483
▁dealing	-10.9508
▁receive	-10.958
▁bomb	-10.9588
▁narrow	-10.9589
▁general	-10.9596
▁ceiling	-10.9601
▁british	-10.9601
▁vase	-10.9602
▁stage	-10.9602
▁mission	-10.9603
▁professor	-10.9604
▁mayor	-10.9606
▁yelling	-10.9607
▁field	-10.9611
▁wishes	-10.9614
▁lessons	-10.9615
▁puzzled	-10.9617
▁chances	-10.9663
ier	-10.9664
▁mis	-10.9702
▁ends	-10.9728
▁interview	-10.9748
▁decent	-10.9748
▁necklace	-10.9748
▁porch	-10.9748
▁contest	-10.9748
▁deaf	-10.9749
▁hello	-10.9749
▁oh	-10.9749
▁sleeps	-10.9755
▁improved	-10.9774
▁cares	-10.9798
▁differently	-10.9798
ous	-10.9809
▁wipe	-10.981
▁photos	-10.9837
▁advance	-10.9876
▁pitch	-10.9897
▁electric	-10.9898
▁application	-10.9898
▁hurried	-10.9898
▁laundry	-10.9898
▁policy	-10.9898
▁handwriting	-10.9898
▁slipped	-10.9898
▁assistance	-10.9898
▁silly	-10.9898
▁talkative	-10.9898
▁nodded	-10.9899
▁granted	-10.99
▁waiter	-10.99
▁swear	-10.9902
▁burning	-10.9904
▁jam	-10.9904
▁effort	-10.9905
▁personally	-10.9909
▁roll	-10.9912
▁valuable	-10.9912
▁computers	-10.9927
▁witness	-11.0049
shirt	-11.0049
▁practical	-11.0049
▁ambitious	-11.0049
▁awesome	-11.0049
▁competitive	-11.0049
▁accent	-11.0049
▁flew	-11.0049
▁generally	-11.0055
▁forty	-11.0059
▁lit	-11.0078
▁warning	-11.0079
▁doubts	-11.0081
▁plants	-11.012
▁homeless	-11.0191
▁talent	-11.0192
▁tru	-11.0192
▁stone	-11.0199
▁attract	-11.0203
▁insane	-11.0203
▁modern	-11.0203
▁stabbed	-11.0203
▁security	-11.0204
▁trick	-11.0211
▁risks	-11.0215
▁impression	-11.0216
▁weapons	-11.0217
▁supplies	-11.0221
▁diamond	-11.0223
▁option	-11.0225
▁led	-11.0262
it	-11.0262
▁charged	-11.0284
▁holidays	-11.0287
▁flu	-11.0292
▁cops	-11.0293
▁earn	-11.0329
▁shock	-11.0338
▁basket	-11.0359
▁explosion	-11.0359
▁property	-11.0359
▁ladder	-11.036
▁terrified	-11.036
▁birth	-11.036
▁sandwiches	-11.0361
▁tallest	-11.0361
▁knee	-11.0364
▁cell	-11.0365
▁encouraged	-11.0367
▁greatest	-11.0367
▁incident	-11.0372
▁yard	-11.0377
▁cigarette	-11.0383
▁al	-11.0396
▁claim	-11.0401
▁replace	-11.0417
▁suggestions	-11.0419
▁sons	-11.0455
▁remembered	-11.0459
▁coins	-11.0459
▁rare	-11.0467
▁chosen	-11.0473
how	-11.0485
▁admire	-11.0496
▁concentrate	-11.0496
▁earns	-11.0496
▁owner	-11.0506
▁row	-11.051
▁financial	-11.0513
▁strict	-11.0513
▁fortunate	-11.0513
▁punctual	-11.0518
▁selfish	-11.0518
▁parties	-11.0519
▁begun	-11.052
▁scolded	-11.052
▁north	-11.052
▁demand	-11.0524
▁delayed	-11.0525
▁smaller	-11.0525
▁ruined	-11.0529
▁loudly	-11.053
▁pieces	-11.0542
▁program	-11.0544
▁recommended	-11.0547
▁grade	-11.0553
▁suggesting	-11.0556
▁suspected	-11.0582
▁snakes	-11.0609
▁cheer	-11.0655
▁provide	-11.0658
▁pillow	-11.0679
▁humor	-11.0679
▁apology	-11.0679
▁frustrated	-11.0679
▁naive	-11.0679
▁subway	-11.0679
▁taxes	-11.068
▁suffering	-11.0686
▁higher	-11.0688
▁arrest	-11.069
▁packed	-11.0693
▁exist	-11.0694
▁cap	-11.07
▁minor	-11.0701
▁odd	-11.0701
▁soldier	-11.071
▁notes	-11.0711
▁pretending	-11.0718
▁shake	-11.0771
▁twins	-11.0781
▁despise	-11.0785
▁remains	-11.0799
▁houses	-11.0806
▁grades	-11.0816
ion	-11.0818
▁aim	-11.0836
▁wide	-11.0842
▁knowledge	-11.0843
▁thick	-11.0844
▁surrounded	-11.0844
▁beaten	-11.0844
▁oven	-11.0844
▁embarrassing	-11.0846
▁relieved	-11.0847
▁fluently	-11.0847
▁betrayed	-11.0848
▁informed	-11.0848
▁breathe	-11.0853
▁master	-11.0855
▁crashed	-11.0857
▁film	-11.0861
▁gain	-11.0863
▁counting	-11.0868
▁cheek	-11.0871
▁ghost	-11.0875
▁shoe	-11.0876
▁discussing	-11.0881
ic	-11.0899
▁tire	-11.0912
▁stays	-11.0914
▁india	-11.0916
▁soft	-11.0931
▁sings	-11.0954
▁rush	-11.099
▁poison	-11.099
▁nonsense	-11.101
▁performance	-11.101
▁naked	-11.101
▁equal	-11.1017
▁watches	-11.1018
▁confessed	-11.1018
▁removed	-11.1023
▁pressed	-11.1025
▁ruin	-11.103
▁skirt	-11.1041
▁direction	-11.1044
▁translated	-11.1054
▁barn	-11.1064
ily	-11.1086
▁turning	-11.1111
▁drugs	-11.114
▁compromise	-11.1156
▁serve	-11.1157
▁object	-11.1168
▁terribly	-11.1179
▁volleyball	-11.1179
▁pleasant	-11.1179
▁skinny	-11.1179
▁electricity	-11.118
▁miserable	-11.118
▁square	-11.118
▁struck	-11.118
▁injuries	-11.118
▁expectations	-11.1181
▁announced	-11.1182
or	-11.1183
▁useless	-11.1189
▁rely	-11.1189
▁suffered	-11.119
▁demanded	-11.1192
▁pot	-11.1192
▁carrots	-11.1192
▁strength	-11.1205
▁strike	-11.1207
▁detective	-11.1213
▁reservation	-11.1215
▁medication	-11.1216
▁hi	-11.1262
▁wasted	-11.1272
▁lawn	-11.1277
▁ghosts	-11.1319
▁answering	-11.1329
▁contain	-11.1339
▁greet	-11.1342
▁classical	-11.1346
▁complex	-11.1352
▁ease	-11.1352
▁mystery	-11.1352
▁typhoon	-11.1352
▁cities	-11.1352
▁raw	-11.1353
▁planted	-11.1359
▁court	-11.1364
▁drawing	-11.1364
▁fashion	-11.1372
▁album	-11.1373
▁appropriate	-11.1373
do	-11.1373
▁degree	-11.1392
▁drug	-11.1392
▁rate	-11.1393
,000	-11.14
▁regrets	-11.145
▁training	-11.1478
yon	-11.1484
▁opening	-11.1493
▁exchange	-11.1506
though	-11.1518
▁cruel	-11.1521
▁surprising	-11.1522
▁dawn	-11.1527
▁luggage	-11.1527
▁osaka	-11.1527
▁actress	-11.1527
▁chest	-11.1527
▁italy	-11.1527
▁sympathetic	-11.1528
▁backyard	-11.1528
▁amused	-11.1529
▁drowned	-11.1529
▁cheating	-11.153
▁irritated	-11.1534
▁limit	-11.1556
▁dancer	-11.1559
▁investigation	-11.156
▁reads	-11.156
▁victim	-11.157
ver	-11.157
▁conditions	-11.1599
▁efforts	-11.1686
▁unexpected	-11.1701
▁direct	-11.1702
▁urge	-11.1702
you	-11.1703
▁genius	-11.1705
▁attitude	-11.1706
▁authority	-11.1706
▁worn	-11.1707
▁below	-11.1708
▁cheated	-11.1711
▁accomplished	-11.1717
▁rushed	-11.1718
▁trap	-11.1723
law	-11.1742
▁toys	-11.1744
▁dislike	-11.1749
▁teenager	-11.1752
▁track	-11.1761
▁experienced	-11.1813
▁tires	-11.1834
▁swam	-11.1861
▁settle	-11.1862
▁daughters	-11.1867
▁respond	-11.1868
▁danced	-11.187
old	-11.1871
▁prisoners	-11.1876
▁affect	-11.1876
▁burn	-11.188
▁flashlight	-11.1882
▁shame	-11.1885
▁alcohol	-11.1888
▁data	-11.1888
▁nowadays	-11.1888
▁violence	-11.1888
▁italian	-11.1888
▁junk	-11.1888
▁6:30	-11.1888
▁rejected	-11.1888
▁invented	-11.1889
▁treaty	-11.1891
▁fully	-11.19
▁correctly	-11.191
▁suffer	-11.1917
▁tattoo	-11.192
▁upon	-11.1923
▁charges	-11.1927
▁asks	-11.1939
▁visitors	-11.1939
▁breaking	-11.1957
▁ways	-11.1963
▁understanding	-11.1972
▁bananas	-11.1974
▁candles	-11.1992
ated	-11.2022
▁sheep	-11.2071
▁bowl	-11.2071
▁total	-11.2073
▁bucket	-11.2073
▁religious	-11.2073
▁visa	-11.2073
▁pessimistic	-11.2073
▁sensitive	-11.2073
▁spanish	-11.2073
▁impressive	-11.2073
▁cheaper	-11.2075
▁properly	-11.2075
▁discouraged	-11.2075
▁spilled	-11.2076
▁stove	-11.2079
▁kilometers	-11.2087
▁resigned	-11.2094
▁expenses	-11.2102
▁opposite	-11.2107
▁treatment	-11.2107
▁throat	-11.2107
▁poet	-11.2112
▁sentenced	-11.2129
▁approach	-11.2154
▁forgiven	-11.2188
▁hesitate	-11.224
▁focus	-11.2242
▁shave	-11.2245
▁sink	-11.2254
▁sudden	-11.2257
▁firm	-11.2261
▁dust	-11.2261
▁hesitant	-11.2262
▁incredibly	-11.2262
▁practicing	-11.2262
▁importance	-11.2262
▁hiking	-11.2262
▁national	-11.2262
▁unconscious	-11.2262
▁trunk	-11.2264
▁warmer	-11.2265
▁somewhat	-11.2278
▁ringing	-11.229
▁rescued	-11.2291
▁task	-11.2292
▁scream	-11.2295
▁camp	-11.2299
▁closely	-11.2322
le	-11.2361
ssed	-11.2368
▁africa	-11.238
▁b	-11.2386
▁base	-11.2403
▁tune	-11.2432
▁interrupt	-11.2434
▁yell	-11.2435
▁deliver	-11.2441
yes	-11.2442
▁plain	-11.2443
▁uses	-11.2447
▁popcorn	-11.2454
▁flag	-11.2454
▁imagination	-11.2454
▁hidden	-11.2454
▁fridge	-11.2454
▁tries	-11.2454
▁remarkable	-11.2454
▁aside	-11.2462
▁recovered	-11.2463
▁tip	-11.2466
▁gained	-11.2467
▁mall	-11.2472
▁strangers	-11.2473
▁requested	-11.248
▁puzzle	-11.249
▁meters	-11.249
▁fooled	-11.2494
▁steak	-11.2495
▁bound	-11.2495
▁lecture	-11.25
▁password	-11.2508
misunderstanding	-11.2531
▁appreciated	-11.2564
▁however	-11.2575
▁adults	-11.258
▁choices	-11.2587
minded	-11.2633
▁accidents	-11.2639
▁original	-11.2645
▁dish	-11.2649
▁process	-11.2649
▁entrance	-11.265
▁reputation	-11.265
▁typical	-11.265
▁community	-11.265
▁haircut	-11.265
▁sung	-11.2651
▁bleeding	-11.2651
▁devoted	-11.2652
▁risky	-11.2656
▁declined	-11.2657
▁screamed	-11.2662
▁deceived	-11.2663
▁mathematics	-11.2665
▁desire	-11.2681
▁pills	-11.2684
▁tools	-11.2687
▁added	-11.2693
▁essay	-11.2704
▁character	-11.271
▁coward	-11.2712
▁curtains	-11.2754
▁worker	-11.2771
▁design	-11.2775
▁accomplish	-11.2795
▁aid	-11.2803
▁evil	-11.285
▁fog	-11.285
▁heavily	-11.285
▁internet	-11.285
▁leather	-11.285
▁stunned	-11.285
▁spain	-11.285
▁dizzy	-11.285
▁salesman	-11.285
▁political	-11.285
▁luckily	-11.285
▁suspended	-11.2851
▁edge	-11.2854
▁soap	-11.2854
▁counter	-11.2856
▁online	-11.2861
▁normally	-11.2867
▁knowing	-11.288
ipped	-11.2893
▁trade	-11.29
▁de	-11.2908
▁carpet	-11.291
▁loser	-11.2917
▁gifts	-11.292
▁panic	-11.2939
▁cd	-11.2949
▁reported	-11.2949
▁shoulders	-11.2976
▁hurting	-11.3001
▁unite	-11.3034
▁thousands	-11.3035
▁adapt	-11.3054
▁april	-11.3054
▁families	-11.3054
▁independent	-11.3054
▁pork	-11.3054
▁espe	-11.3054
▁june	-11.3054
▁bitten	-11.3054
▁published	-11.3054
▁tower	-11.3054
▁accurate	-11.3054
cially	-11.3054
▁lightning	-11.3055
▁acquainted	-11.3055
▁qualified	-11.3055
▁grandparents	-11.3056
▁rome	-11.3057
▁barking	-11.3058
▁located	-11.3059
▁comments	-11.3062
▁yelled	-11.3066
▁breathing	-11.308
▁shortly	-11.3096
▁shift	-11.3104
▁bat	-11.3121
▁turns	-11.3123
▁assure	-11.3124
▁citizen	-11.3125
▁adult	-11.3127
▁stamp	-11.3128
is	-11.3145
▁pockets	-11.315
▁u	-11.3177
▁300	-11.3208
▁blow	-11.3228
▁knock	-11.3243
▁fluent	-11.3257
▁predict	-11.3259
▁commit	-11.3262
▁ceremony	-11.3262
▁eleven	-11.3262
▁engagement	-11.3262
▁lincoln	-11.3262
▁sarcastic	-11.3262
▁beef	-11.3262
▁greedy	-11.3262
▁spicy	-11.3262
▁battery	-11.3263
▁convicted	-11.3263
▁frequently	-11.3263
▁weekends	-11.3265
▁gathered	-11.3266
ness	-11.3271
▁author	-11.3273
▁mr	-11.3273
ary	-11.3286
▁damaged	-11.3305
▁lamp	-11.3311
▁restaurants	-11.3312
▁employees	-11.3318
▁photograph	-11.3323
▁weigh	-11.3323
▁statement	-11.3327
▁carpenter	-11.3334
▁method	-11.3337
▁scientist	-11.3339
▁coin	-11.334
▁farmer	-11.3341
▁tourists	-11.3344
▁painful	-11.3352
▁deserved	-11.3356
▁scratch	-11.3365
▁chairs	-11.3373
▁sip	-11.3431
▁ages	-11.3436
▁disappoint	-11.3456
▁hammer	-11.3463
▁sweat	-11.3465
▁exact	-11.347
▁celebrating	-11.3475
▁equipment	-11.3475
▁helicopter	-11.3475
▁privacy	-11.3475
▁terrific	-11.3475
▁construction	-11.3475
▁eighteen	-11.3475
▁freedom	-11.3475
▁trash	-11.3475
▁promotion	-11.3475
▁bluffing	-11.3476
▁path	-11.3476
▁captured	-11.3479
▁folded	-11.3479
▁newspapers	-11.348
▁picky	-11.3486
▁messages	-11.35
▁plastic	-11.3502
▁tag	-11.3515
▁poems	-11.3519
▁translation	-11.3538
▁twin	-11.3539
▁killing	-11.3539
▁bottles	-11.3541
▁painter	-11.355
▁shared	-11.3551
▁bullet	-11.3554
▁nerves	-11.3562
▁players	-11.3564
▁trains	-11.3568
h	-11.3579
▁products	-11.3589
▁paintings	-11.3611
▁cure	-11.3673
▁resist	-11.3681
▁faith	-11.3689
▁potato	-11.3692
▁unwilling	-11.3693
▁nature	-11.3693
▁babysitter	-11.3693
▁unemployed	-11.3693
▁chairman	-11.3693
▁otherwise	-11.3693
▁mud	-11.3696
▁kindness	-11.3697
▁directly	-11.3699
▁youngest	-11.3701
▁trained	-11.3709
up	-11.3739
▁crack	-11.374
▁clouds	-11.3766
▁peanuts	-11.3772
▁nation	-11.3778
▁comic	-11.3778
▁cleared	-11.3789
▁babysit	-11.3811
▁underestimate	-11.3814
▁shirts	-11.3835
▁slice	-11.3858
▁tent	-11.386
▁bake	-11.3891
▁interfere	-11.3892
▁participate	-11.3893
▁pray	-11.3895
leaned	-11.3896
▁bargain	-11.3906
▁complaint	-11.3909
▁burglar	-11.3913
▁slamm	-11.3913
▁bartender	-11.3915
▁mouse	-11.3915
▁border	-11.3915
▁trial	-11.3915
▁powerful	-11.3915
▁maid	-11.3916
▁accidentally	-11.3917
▁fastest	-11.3921
▁mild	-11.3922
▁shouted	-11.3923
▁handy	-11.3936
▁settled	-11.3942
▁lips	-11.3944
▁volunteers	-11.3958
▁reminded	-11.3958
▁discount	-11.3963
▁increase	-11.3976
▁dreaming	-11.3979
▁wound	-11.3993
▁bothered	-11.3999
▁helmet	-11.4
▁partner	-11.4004
▁topic	-11.4007
▁relatives	-11.4021
▁guns	-11.4059
us	-11.4076
▁showing	-11.409
▁brief	-11.4115
▁official	-11.4137
▁magic	-11.4142
▁confusing	-11.4142
▁convenient	-11.4142
▁hokkaido	-11.4142
▁junior	-11.4142
▁pajamas	-11.4142
▁scissors	-11.4142
▁trumpet	-11.4142
▁unmarried	-11.4142
▁objective	-11.4142
▁rode	-11.4142
▁dried	-11.4142
▁cooperative	-11.4143
▁style	-11.4143
▁bald	-11.4144
▁safer	-11.4148
the	-11.415
▁guide	-11.4153
▁achieved	-11.416
▁points	-11.4169
▁provided	-11.4173
▁target	-11.4185
▁incorrect	-11.419
▁cop	-11.4202
▁manners	-11.4206
▁safely	-11.4219
▁disaster	-11.4225
▁seated	-11.4227
▁level	-11.4233
▁spoon	-11.4234
▁error	-11.4239
▁18	-11.4282
▁6	-11.431
▁sum	-11.4312
▁directions	-11.4327
▁closes	-11.4335
▁confess	-11.4363
▁insist	-11.4367
▁false	-11.4369
▁march	-11.4374
▁$300	-11.4375
▁causing	-11.4375
▁lottery	-11.4375
▁cooperate	-11.4375
▁pink	-11.4375
▁assist	-11.4375
▁mechanic	-11.4375
▁sir	-11.4375
▁stopping	-11.4375
▁appointed	-11.4376
▁drowning	-11.4376
▁amazed	-11.4378
▁difficulties	-11.4379
▁frankly	-11.4379
▁lid	-11.4379
▁fate	-11.4382
▁loaded	-11.4385
▁delivered	-11.4388
▁limited	-11.439
▁approved	-11.4414
▁racket	-11.4423
▁exams	-11.4432
▁completed	-11.4443
▁armed	-11.4445
▁alibi	-11.4449
▁collection	-11.445
▁roommate	-11.4474
▁snake	-11.4478
▁candle	-11.4478
▁height	-11.4482
▁opinions	-11.4508
out	-11.451
▁misse	-11.4538
▁faces	-11.4581
▁consult	-11.4605
▁brazil	-11.4613
▁anniversary	-11.4613
▁gullible	-11.4613
▁improving	-11.4613
▁mexico	-11.4613
▁spinach	-11.4613
▁valentine	-11.4613
▁century	-11.4613
▁effective	-11.4613
▁ordinary	-11.4613
▁okay	-11.4613
▁quality	-11.4613
▁gray	-11.4614
▁menu	-11.4616
▁toast	-11.4618
▁makeup	-11.4623
▁actions	-11.4623
▁divided	-11.4625
▁savings	-11.4626
▁shooting	-11.4631
▁rifle	-11.4667
▁bookstore	-11.4667
▁guitarist	-11.4693
▁heading	-11.4701
▁ankle	-11.4702
▁experiment	-11.4705
▁religion	-11.4717
▁politician	-11.4719
▁customer	-11.4722
▁dated	-11.475
▁latest	-11.4752
▁pet	-11.4813
▁recover	-11.4836
▁din	-11.4848
▁cloth	-11.4848
▁react	-11.4849
▁treasure	-11.4856
▁hawaii	-11.4856
▁ancient	-11.4857
▁appetite	-11.4857
▁baggage	-11.4857
▁investigating	-11.4857
▁itself	-11.4857
▁misunderstood	-11.4857
▁cellphone	-11.4857
▁charity	-11.4857
▁heartbroken	-11.4857
▁stew	-11.4857
▁puppy	-11.4857
▁charming	-11.4859
▁windy	-11.4862
▁m	-11.4865
▁richer	-11.4866
▁forgetting	-11.4867
▁cups	-11.4879
▁volunteered	-11.4882
▁crossing	-11.4882
▁goals	-11.4883
▁operate	-11.4886
▁owned	-11.4903
▁respected	-11.4915
▁tasted	-11.4918
▁shows	-11.4936
▁spell	-11.494
▁flood	-11.4942
▁50	-11.4948
▁content	-11.4957
▁regrett	-11.4963
▁wheel	-11.4969
▁cow	-11.4971
▁career	-11.4976
▁aspirin	-11.4979
▁fork	-11.4993
▁tour	-11.5014
▁wealth	-11.5014
▁import	-11.5033
man	-11.507
▁environment	-11.5072
▁van	-11.5098
▁social	-11.5098
▁load	-11.5099
▁awkward	-11.51
▁severe	-11.5101
▁grave	-11.5103
▁deposit	-11.5107
▁bunch	-11.5107
▁jewelry	-11.5107
▁dug	-11.5107
▁hook	-11.5107
▁flute	-11.5107
▁extraordinary	-11.5107
▁circumstances	-11.5108
▁louder	-11.5109
▁emotional	-11.511
▁honesty	-11.5115
▁disturbed	-11.5115
▁examined	-11.5115
▁punch	-11.5116
▁13	-11.5119
▁affected	-11.5123
▁somehow	-11.5125
▁avoiding	-11.514
▁planet	-11.5171
▁resume	-11.5177
▁budget	-11.5182
▁pages	-11.5191
▁imagined	-11.5197
are	-11.5206
▁quarrel	-11.5206
▁receipt	-11.5209
▁uniform	-11.5211
▁jar	-11.5218
▁skate	-11.5221
▁pipe	-11.5222
▁athlete	-11.5222
ity	-11.5223
▁vegetarian	-11.5223
▁curtain	-11.5228
▁guest	-11.5229
▁skills	-11.5229
▁product	-11.5254
▁colors	-11.5306
not	-11.5315
▁cigarettes	-11.5325
▁tooth	-11.5329
▁bent	-11.534
▁laws	-11.5341
▁annoy	-11.5344
▁ignor	-11.5349
▁spy	-11.5355
▁east	-11.5362
▁motion	-11.5362
▁absence	-11.5363
▁brilliant	-11.5363
▁cherry	-11.5363
▁laptop	-11.5363
▁pianist	-11.5363
▁response	-11.5363
▁sensible	-11.5363
▁snoring	-11.5363
▁addition	-11.5363
▁silver	-11.5363
▁sunny	-11.5363
▁scarf	-11.5363
▁honey	-11.5363
▁mobile	-11.5363
▁trapped	-11.5364
▁jury	-11.5364
▁fussy	-11.5364
▁waved	-11.537
▁reluctantly	-11.5373
▁predicted	-11.5377
▁cope	-11.538
▁jumping	-11.5381
▁increased	-11.5388
▁shaved	-11.5392
▁exchanged	-11.5395
▁opera	-11.5401
▁shown	-11.5403
▁complains	-11.5421
▁checking	-11.5437
▁shelter	-11.5438
▁blocks	-11.545
▁scheduled	-11.5471
▁connection	-11.5483
▁pig	-11.5485
▁pepper	-11.5485
▁alternative	-11.5487
▁lines	-11.5488
▁snowed	-11.5491
▁steps	-11.5503
▁w	-11.5533
▁buildings	-11.5533
▁prefers	-11.5575
▁skip	-11.5583
▁guarantee	-11.5603
▁sore	-11.5608
▁peel	-11.5615
handed	-11.5615
▁neat	-11.5624
▁cafeteria	-11.5626
▁halloween	-11.5626
▁international	-11.5626
▁pulse	-11.5626
▁satisfactory	-11.5626
▁spaghetti	-11.5626
▁statue	-11.5626
▁turkey	-11.5626
▁amusing	-11.5626
▁departure	-11.5626
▁sidewalk	-11.5626
▁worries	-11.5626
▁homesick	-11.5626
▁bible	-11.5626
▁surgeon	-11.5626
▁disappointment	-11.5626
▁personality	-11.5626
▁biased	-11.5627
▁thrilled	-11.5627
▁doubtful	-11.5627
▁someplace	-11.5627
▁cage	-11.5627
▁dependable	-11.5627
▁distracted	-11.5629
▁carries	-11.563
▁murderer	-11.5632
▁hike	-11.5634
▁cared	-11.5636
▁alike	-11.5645
▁postponed	-11.5648
▁frozen	-11.5658
▁honestly	-11.566
▁consequences	-11.5661
ally	-11.5661
▁insects	-11.5668
▁listens	-11.567
▁prom	-11.5674
▁strongly	-11.5677
▁rise	-11.5678
▁patients	-11.5735
▁leak	-11.5743
▁pro	-11.5744
▁owed	-11.5746
▁millionaire	-11.5748
▁handkerchief	-11.575
▁winner	-11.5755
▁appearance	-11.5757
▁cows	-11.5771
▁handled	-11.5787
▁flow	-11.5821
▁sincere	-11.5826
ry	-11.5848
▁demands	-11.5853
▁reduce	-11.5874
▁propose	-11.5875
▁postpone	-11.5877
ce	-11.5886
▁violent	-11.5891
▁coast	-11.5896
▁forehead	-11.5896
▁resemble	-11.5896
▁santa	-11.5896
▁heavier	-11.5896
▁saxophone	-11.5896
▁facebook	-11.5897
▁modest	-11.5897
▁carelessness	-11.5897
▁delighted	-11.5897
▁mustache	-11.5897
▁cloudy	-11.5897
▁efficient	-11.5898
▁july	-11.5898
▁riches	-11.5899
▁constantly	-11.59
▁dedicated	-11.5901
▁notified	-11.5904
▁bedtime	-11.5904
▁quitting	-11.5907
▁struggled	-11.5907
▁buses	-11.5908
▁arranged	-11.5912
▁focused	-11.5913
▁grapes	-11.5913
▁drums	-11.5935
▁hopeless	-11.5942
▁stops	-11.5953
▁contacted	-11.5956
▁spiders	-11.5962
▁7	-11.5984
▁delay	-11.5998
▁honor	-11.6007
▁freak	-11.6015
▁parts	-11.6028
▁seconds	-11.6032
▁sales	-11.6032
▁objection	-11.6036
▁custom	-11.6037
▁excused	-11.6054
ge	-11.6056
who	-11.611
▁west	-11.6113
▁chat	-11.6129
▁debate	-11.6152
▁achieve	-11.6153
▁stress	-11.6163
thirty	-11.6165
▁backpack	-11.617
▁fox	-11.6174
▁approximate	-11.6174
▁convincing	-11.6174
▁crisis	-11.6174
▁fascinating	-11.6174
▁journey	-11.6174
▁opportunities	-11.6174
▁senior	-11.6174
▁queen	-11.6174
▁washington	-11.6174
▁crew	-11.6174
▁sushi	-11.6174
▁fellow	-11.6174
▁technology	-11.6174
▁intoxicated	-11.6174
▁creepy	-11.6174
▁tidy	-11.6175
▁occur	-11.6175
▁joy	-11.6175
▁loving	-11.6175
▁sailing	-11.6176
▁bang	-11.6176
▁former	-11.6176
▁sharpen	-11.6176
▁hardworking	-11.6177
▁length	-11.6177
▁flirting	-11.6178
▁acceptable	-11.6179
▁phoned	-11.6182
▁blocked	-11.6182
▁resources	-11.6184
▁scar	-11.6186
▁packing	-11.619
▁attic	-11.6191
▁bush	-11.6192
▁earned	-11.6195
▁kilograms	-11.6199
▁driven	-11.62
▁admired	-11.6212
▁behaved	-11.6221
▁skill	-11.6224
he	-11.6228
▁8	-11.6232
▁ink	-11.6244
▁fixing	-11.6262
▁streets	-11.6269
▁affairs	-11.6281
▁journalist	-11.6314
▁occasion	-11.6321
▁nail	-11.6325
▁relative	-11.6325
▁banana	-11.6325
▁dis	-11.6325
▁frank	-11.6333
▁tape	-11.6339
▁weighs	-11.6355
one	-11.6364
▁co	-11.639
ation	-11.6397
ripped	-11.6412
▁whistle	-11.6438
▁remove	-11.6439
▁confirm	-11.6448
▁abandon	-11.6448
▁dye	-11.645
took	-11.6451
▁arrival	-11.646
▁arrogant	-11.646
▁bathtub	-11.646
▁custody	-11.646
▁genuine	-11.646
▁honeymoon	-11.646
▁precious	-11.646
▁principal	-11.646
▁rotten	-11.646
▁society	-11.646
▁strawberries	-11.646
▁sympathy	-11.646
▁uneasy	-11.646
▁cowboy	-11.646
▁vain	-11.646
▁critical	-11.646
▁solving	-11.646
▁retirement	-11.646
▁possibilities	-11.646
▁supportive	-11.646
▁swore	-11.646
▁deadline	-11.646
▁coal	-11.646
▁robbery	-11.6461
▁deer	-11.6461
▁rapidly	-11.6461
▁sake	-11.6461
▁disgusting	-11.6462
▁surfing	-11.6462
▁hunger	-11.6463
▁union	-11.6463
▁pure	-11.6464
▁insulted	-11.6468
▁highest	-11.6469
▁criticized	-11.6473
▁outdoors	-11.6486
▁flipp	-11.6489
▁thirties	-11.6502
▁beating	-11.6528
▁influence	-11.6544
▁12	-11.6545
▁causes	-11.6556
▁magazines	-11.6556
▁organ	-11.6563
▁culture	-11.6577
▁numbers	-11.6589
▁shout	-11.6595
▁soul	-11.6603
▁bars	-11.6608
▁costume	-11.661
▁arrives	-11.6614
▁source	-11.6616
▁monkey	-11.6616
▁gunshot	-11.6617
▁brain	-11.6617
▁rested	-11.662
▁term	-11.6621
▁excuses	-11.6625
▁errors	-11.663
▁scientists	-11.6646
▁degrees	-11.6686
▁tricks	-11.6715
▁potential	-11.6748
▁significant	-11.6749
▁bitter	-11.675
▁behaving	-11.6754
▁calendar	-11.6754
▁hockey	-11.6754
▁horror	-11.6754
▁influential	-11.6754
▁knives	-11.6754
▁military	-11.6754
▁proceed	-11.6754
▁staff	-11.6754
▁strategy	-11.6754
▁heaven	-11.6754
▁ladies	-11.6754
▁conceited	-11.6754
▁prime	-11.6754
▁sixty	-11.6754
▁role	-11.6755
▁princess	-11.6755
▁businessman	-11.6756
▁suitable	-11.6757
▁hopefully	-11.6758
▁registered	-11.6763
▁fainted	-11.6764
▁exception	-11.6764
▁created	-11.6771
▁communicate	-11.6772
▁agent	-11.6774
▁dyed	-11.6777
▁searching	-11.6783
▁earrings	-11.6785
▁replaced	-11.6794
▁rumors	-11.6812
▁sending	-11.6838
▁wink	-11.6846
▁argued	-11.6846
▁alcoholic	-11.6904
▁log	-11.6912
▁conclusion	-11.692
▁squeeze	-11.6958
▁40	-11.6963
▁loose	-11.6987
▁agrees	-11.6999
▁skippe	-11.6999
▁compete	-11.7033
▁anticipate	-11.7036
▁mix	-11.7046
▁chew	-11.7049
’	-11.7057
▁combination	-11.7057
▁devastated	-11.7057
▁hilton	-11.7057
▁memories	-11.7057
▁minister	-11.7057
▁sophisticated	-11.7057
▁kidnapped	-11.7057
▁sank	-11.7057
▁500	-11.7057
▁scarce	-11.7057
▁fifth	-11.7057
▁interpreter	-11.7057
▁daily	-11.7057
▁trustworthy	-11.7057
▁pride	-11.7057
▁gang	-11.7057
▁courageous	-11.7058
▁fiction	-11.7058
▁whispered	-11.706
▁dumped	-11.7062
▁disturbing	-11.7064
▁indoors	-11.7068
▁deserted	-11.7068
▁designed	-11.7075
▁lowered	-11.7082
▁debts	-11.7088
▁entering	-11.7089
▁beg	-11.7089
▁crops	-11.7127
▁counted	-11.7127
▁ho	-11.7129
▁grows	-11.713
▁partly	-11.7133
▁access	-11.7137
▁concerns	-11.7143
king	-11.7166
▁issues	-11.7186
▁laughs	-11.7199
▁nails	-11.7203
▁sunset	-11.7207
▁blog	-11.7207
▁sword	-11.7213
▁hundreds	-11.723
▁textbook	-11.7232
▁sides	-11.7234
▁farmers	-11.7255
▁victims	-11.7293
an	-11.7327
▁separate	-11.7343
▁memorize	-11.7348
▁desert	-11.7358
▁comfort	-11.7361
gave	-11.7362
▁regular	-11.7364
▁current	-11.7364
▁truthful	-11.7366
▁command	-11.7368
▁tank	-11.7369
▁civil	-11.7369
▁architect	-11.7369
▁biology	-11.737
▁composition	-11.737
▁dishonest	-11.737
▁freezing	-11.737
▁gambling	-11.737
▁gorgeous	-11.737
▁unreasonable	-11.737
▁vague	-11.737
▁victory	-11.737
▁closing	-11.737
▁barefoot	-11.737
▁relief	-11.737
▁rising	-11.737
▁recipe	-11.737
▁eyesight	-11.737
▁majority	-11.737
▁beans	-11.7372
▁logical	-11.7373
▁plead	-11.7373
▁click	-11.7377
▁theft	-11.7379
▁defeated	-11.7381
▁approaching	-11.7382
▁nicer	-11.7384
▁tightly	-11.7384
▁ver	-11.7388
▁objected	-11.7391
▁copies	-11.7398
▁landed	-11.7414
▁jacksons	-11.7435
▁slapp	-11.7437
▁musical	-11.7482
ped	-11.7497
▁reaction	-11.7505
▁dependent	-11.7506
▁tail	-11.7516
▁habits	-11.752
b	-11.7521
▁signal	-11.7533
▁horn	-11.7546
▁threat	-11.7551
▁metal	-11.7559
▁foreigner	-11.756
▁web	-11.7586
▁mile	-11.7592
▁walls	-11.7593
▁teenagers	-11.7609
▁helpless	-11.7627
▁2	-11.7633
▁knees	-11.7646
▁rocks	-11.7648
▁pencils	-11.767
▁troubled	-11.767
▁pronounce	-11.7672
▁cough	-11.7673
▁reconsider	-11.768
▁physical	-11.7687
▁recent	-11.7687
aware	-11.7689
▁consist	-11.769
▁differ	-11.7692
▁absurd	-11.7692
▁blouse	-11.7692
▁britain	-11.7692
▁displeased	-11.7692
▁fbi	-11.7692
▁inevitable	-11.7692
▁innocence	-11.7692
▁irresponsible	-11.7692
▁minimum	-11.7692
▁pollution	-11.7692
▁timid	-11.7692
▁unique	-11.7692
▁criticism	-11.7692
▁punishment	-11.7692
▁approval	-11.7692
▁wow	-11.7692
▁stressful	-11.7692
▁baking	-11.7692
▁overnight	-11.7692
▁tomatoes	-11.7692
▁stingy	-11.7692
▁unsure	-11.7693
▁realistic	-11.7693
▁teasing	-11.7694
▁waitress	-11.7694
▁reality	-11.7694
▁executed	-11.7694
▁defense	-11.7696
▁enthusiastic	-11.7697
▁spoiled	-11.7698
▁blowing	-11.7705
▁detailed	-11.7721
▁remembering	-11.7725
▁g	-11.7728
el	-11.7738
▁belonged	-11.7746
▁pays	-11.7758
▁attending	-11.7758
▁nervously	-11.7764
▁acts	-11.7766
▁economic	-11.7789
▁voices	-11.7796
▁rabbits	-11.7816
▁swims	-11.782
▁shaken	-11.7836
▁bracelet	-11.7839
▁barber	-11.784
▁utter	-11.7845
▁exceptional	-11.7859
▁compliment	-11.7863
▁pets	-11.7874
▁thrown	-11.7881
▁billion	-11.7886
▁material	-11.7888
▁lion	-11.7889
▁quarter	-11.7889
▁specific	-11.789
▁nerve	-11.7891
nna	-11.7906
▁$30	-11.7951
▁stands	-11.7965
▁fax	-11.7982
▁deceive	-11.8004
▁crawl	-11.8018
▁cheerful	-11.802
▁cautious	-11.802
▁roads	-11.8024
▁banjo	-11.8025
▁chopsticks	-11.8025
▁disorganized	-11.8025
▁forecast	-11.8025
▁grumpy	-11.8025
▁naughty	-11.8025
▁volume	-11.8025
▁literature	-11.8025
▁mexican	-11.8025
▁software	-11.8025
▁stiff	-11.8025
▁steady	-11.8025
▁unnecessary	-11.8026
▁campus	-11.8026
▁bakery	-11.8026
▁blackboard	-11.8026
▁secretive	-11.8026
▁unknown	-11.8027
▁justice	-11.8027
nuclear	-11.8027
▁conditioner	-11.8028
▁promoted	-11.8031
▁apt	-11.8032
▁injury	-11.8032
▁code	-11.8033
▁sour	-11.8034
▁inspired	-11.8034
▁confirmed	-11.8039
▁bowling	-11.8039
▁prayed	-11.8043
▁contributed	-11.8045
▁politely	-11.8046
▁proposed	-11.8052
▁k	-11.8055
▁longest	-11.8068
▁emotions	-11.807
▁negotiations	-11.8079
▁questioned	-11.8084
▁avoided	-11.8092
ance	-11.8097
▁addressed	-11.8132
▁loses	-11.8136
ne	-11.8141
▁explaining	-11.8158
▁foods	-11.8169
▁ambition	-11.8207
▁chain	-11.8209
▁investment	-11.8221
▁expression	-11.8222
▁snack	-11.8224
▁suits	-11.8227
▁russian	-11.8233
▁tourist	-11.8235
ng	-11.8243
▁millions	-11.8266
▁super	-11.8299
rs	-11.8302
▁wins	-11.8316
▁15	-11.8317
▁measure	-11.8333
▁mug	-11.8342
▁tolerate	-11.8347
▁balance	-11.8348
▁questioning	-11.8349
▁disturb	-11.8351
▁faint	-11.8352
▁stain	-11.8358
▁recall	-11.8358
▁9	-11.8361
▁motor	-11.837
▁judgment	-11.837
▁straw	-11.837
▁accompanie	-11.837
▁balcony	-11.837
▁convenience	-11.837
▁description	-11.837
▁destination	-11.837
▁essential	-11.837
▁exaggerating	-11.837
▁expelled	-11.837
▁obnoxious	-11.837
▁paranoid	-11.837
▁pregnant	-11.837
▁location	-11.837
▁ticklish	-11.837
▁reckless	-11.837
▁ignorance	-11.837
▁priest	-11.837
▁admission	-11.837
▁scenery	-11.8371
▁laughter	-11.8371
▁nasty	-11.8371
▁wig	-11.8371
▁consideration	-11.8371
▁protection	-11.8372
▁driveway	-11.8373
▁educated	-11.8373
▁paused	-11.8375
▁overheard	-11.8375
▁humiliated	-11.8376
▁valid	-11.8376
▁dresses	-11.8377
▁eighty	-11.8378
▁shouting	-11.838
▁fortunately	-11.8382
▁fined	-11.8383
▁interrupting	-11.8384
▁poisoned	-11.8394
▁con	-11.8403
▁massage	-11.8413
hes	-11.8414
▁hostages	-11.845
▁returning	-11.8454
▁tap	-11.8503
▁quarters	-11.8513
▁bringing	-11.8516
▁foreigners	-11.8519
ar	-11.8537
▁resignation	-11.8542
▁mark	-11.8569
▁bachelor	-11.8585
▁cooks	-11.8585
▁runner	-11.8586
▁mask	-11.8588
▁nightmare	-11.8588
▁affair	-11.8592
▁bone	-11.8593
▁fist	-11.8596
%	-11.8607
▁rabbit	-11.8612
ers	-11.8704
▁negotiate	-11.8705
▁include	-11.871
▁stretch	-11.8714
▁addict	-11.8716
▁conceal	-11.8716
▁surrender	-11.8716
▁adopt	-11.8716
▁register	-11.8716
▁destroy	-11.8716
impressed	-11.8718
▁constant	-11.8722
▁attorney	-11.8727
▁champagne	-11.8727
▁chemistry	-11.8727
▁february	-11.8727
▁hilarious	-11.8727
▁impolite	-11.8727
▁industry	-11.8727
▁nephew	-11.8727
▁physics	-11.8727
▁poverty	-11.8727
▁starving	-11.8727
▁troops	-11.8727
▁tunnel	-11.8727
▁universe	-11.8727
▁doorbell	-11.8727
▁festival	-11.8727
▁priorities	-11.8727
▁transferred	-11.8727
▁governor	-11.8727
▁gasoline	-11.8727
▁coma	-11.8728
▁unfriendly	-11.8728
▁solar	-11.8728
▁mentor	-11.8728
▁grouchy	-11.8728
▁testify	-11.8728
▁precise	-11.8728
▁autumn	-11.8728
▁policemen	-11.8728
▁artistic	-11.8728
▁discreet	-11.8729
▁shove	-11.8729
▁photographer	-11.8729
▁recovery	-11.8729
▁inches	-11.873
▁disgusted	-11.8731
▁instantly	-11.8731
▁wrapped	-11.8732
▁slower	-11.8733
▁outgoing	-11.8736
▁amends	-11.8736
▁coughing	-11.8736
▁collapsed	-11.8738
▁knocking	-11.8741
▁reserved	-11.8744
▁interrupted	-11.875
▁overtime	-11.8753
▁backwards	-11.877
▁shine	-11.8775
▁onions	-11.8776
▁starve	-11.8791
ble	-11.8791
▁challenges	-11.88
▁formal	-11.8822
▁remembers	-11.8835
▁elephants	-11.8845
▁catching	-11.8865
▁bones	-11.8866
▁records	-11.8881
▁holes	-11.889
▁doubted	-11.8893
▁h	-11.8906
▁wa	-11.8912
▁circle	-11.8913
▁exit	-11.8916
▁shovel	-11.8916
▁breaks	-11.8924
▁vari	-11.8925
▁brand	-11.893
age	-11.8939
thank	-11.8941
▁element	-11.8944
▁lawyers	-11.8947
▁elbow	-11.8954
▁railroad	-11.8954
▁postcard	-11.8957
▁effect	-11.896
▁wage	-11.8961
▁peanut	-11.8962
▁parent	-11.8964
▁bi	-11.8989
▁tear	-11.899
▁chuck	-11.9061
ful	-11.9069
▁dr	-11.9073
▁contribute	-11.9076
▁perform	-11.9078
▁wrap	-11.9082
▁alert	-11.9086
▁conduct	-11.9086
▁punish	-11.9086
why	-11.9089
▁smooth	-11.9093
▁absolute	-11.9093
▁attentive	-11.9093
▁necessar	-11.9096
▁atmosphere	-11.9098
▁cliff	-11.9098
▁companies	-11.9098
▁fountain	-11.9098
▁identify	-11.9098
▁obstinate	-11.9098
▁root	-11.9098
▁scandal	-11.9098
▁trigger	-11.9098
▁disorient	-11.9098
▁frustrating	-11.9098
▁cabinet	-11.9098
▁muddy	-11.9098
▁thai	-11.9098
▁intense	-11.9098
▁cries	-11.9098
▁mailbox	-11.9098
▁temporary	-11.9098
▁slippery	-11.9098
▁handcuffed	-11.9098
▁ditch	-11.9098
▁unbelievable	-11.9098
▁hometown	-11.9099
▁discovery	-11.9099
▁upside	-11.9099
▁prohibited	-11.91
▁conscious	-11.9102
▁disguised	-11.9102
▁incompetent	-11.9103
▁regularly	-11.9104
▁salty	-11.9104
▁rat	-11.9106
▁boiled	-11.9108
▁mixed	-11.9112
▁bossy	-11.9115
▁files	-11.9117
▁leading	-11.9119
▁starved	-11.912
▁unit	-11.9123
▁visits	-11.9127
▁anticipated	-11.9129
▁guards	-11.9132
▁patiently	-11.9147
▁advanced	-11.9153
claimed	-11.9161
▁mars	-11.9171
▁eater	-11.9178
▁aboard	-11.9183
▁port	-11.9192
▁joining	-11.9211
way	-11.9231
▁inappropriate	-11.9239
f	-11.9244
headed	-11.9251
▁thoughtful	-11.9299
▁heater	-11.9301
▁clue	-11.9328
▁invention	-11.9329
▁regard	-11.9333
▁wrist	-11.9338
▁guessed	-11.9338
▁adventure	-11.934
ized	-11.9387
p	-11.9408
▁drivers	-11.9428
▁arrange	-11.9461
▁mow	-11.9461
▁release	-11.9461
▁inform	-11.9463
wife	-11.9466
▁global	-11.9476
▁humid	-11.9482
▁inherit	-11.9482
▁accompany	-11.9482
▁california	-11.9482
▁delicate	-11.9482
▁depressing	-11.9482
▁female	-11.9482
▁happiest	-11.9482
▁haunted	-11.9482
▁irrelevant	-11.9482
▁ketchup	-11.9482
▁offensive	-11.9482
▁overseas	-11.9482
▁oxygen	-11.9482
▁presence	-11.9482
▁previous	-11.9482
▁serving	-11.9482
▁shade	-11.9482
▁disrespectful	-11.9482
▁illiterate	-11.9482
▁sunrise	-11.9482
▁shaking	-11.9482
▁prettier	-11.9483
▁pace	-11.9483
▁handling	-11.9483
▁fascinated	-11.9485
▁connected	-11.9486
▁prejudiced	-11.9486
▁locker	-11.9487
▁thoroughly	-11.9487
▁golfer	-11.9489
▁deleted	-11.949
▁severely	-11.949
▁circus	-11.9491
3,000	-11.9496
▁stressed	-11.9499
ish	-11.95
▁chips	-11.9508
▁cheered	-11.951
▁formed	-11.9533
3	-11.9534
▁thankful	-11.9537
▁pan	-11.954
▁guts	-11.954
▁officers	-11.9564
▁folks	-11.9566
▁secretly	-11.9572
▁survivors	-11.9577
▁bumpe	-11.958
▁arrangements	-11.9583
▁fries	-11.9596
▁forces	-11.9596
▁r	-11.9605
▁4	-11.9607
▁appointments	-11.9613
▁fits	-11.9627
▁ending	-11.9639
▁resort	-11.9698
▁stable	-11.97
▁flash	-11.9715
▁catholic	-11.972
▁insult	-11.9722
▁balloon	-11.9733
▁block	-11.9735
▁automobile	-11.974
▁float	-11.974
▁cent	-11.9741
▁blonde	-11.9741
▁instrument	-11.9744
▁suspects	-11.9744
▁cloud	-11.9746
▁killer	-11.9753
▁blinds	-11.9753
▁pre	-11.9757
▁tips	-11.9759
▁chickens	-11.9774
ist	-11.9792
▁travels	-11.9815
▁rooms	-11.9828
go	-11.9836
▁bark	-11.9864
will	-11.9866
▁defeat	-11.9871
▁negative	-11.9876
they	-11.9876
▁thorough	-11.9877
▁numb	-11.9882
▁branch	-11.9882
▁august	-11.9882
▁choir	-11.9882
▁embassy	-11.9882
▁energetic	-11.9882
▁excitement	-11.9882
▁gradually	-11.9882
▁janitor	-11.9882
▁lipstick	-11.9882
▁pistol	-11.9882
▁remote	-11.9882
▁roosevelt	-11.9882
▁semester	-11.9882
▁stadium	-11.9882
▁trombone	-11.9882
▁wednesday	-11.9882
▁digging	-11.9882
▁estate	-11.9882
▁series	-11.9882
▁overslept	-11.9882
▁resourceful	-11.9882
▁grandchildren	-11.9882
▁shallow	-11.9882
▁marathon	-11.9883
▁babies	-11.9883
▁ipad	-11.9883
▁waist	-11.9883
▁seventeen	-11.9883
▁butcher	-11.9883
▁fatter	-11.9883
▁outstanding	-11.9883
▁leaf	-11.9883
▁belongings	-11.9883
▁mugged	-11.9883
▁cabin	-11.9883
▁stream	-11.9884
▁grill	-11.9884
▁forgetful	-11.9885
▁established	-11.9885
▁chores	-11.9886
▁startled	-11.9888
▁chased	-11.9897
▁cast	-11.9908
▁texting	-11.9911
▁colder	-11.9914
▁korean	-11.9928
▁trusts	-11.9935
▁speakers	-12.0026
▁hats	-12.0035
▁weeds	-12.0061
▁fac	-12.0063
▁bribe	-12.0066
▁votes	-12.0078
▁events	-12.0098
▁championship	-12.0114
▁campfire	-12.0115
▁purchase	-12.0123
▁announcement	-12.0137
▁technique	-12.0137
▁blank	-12.0145
▁designer	-12.0154
▁sacrifice	-12.0155
▁kite	-12.0156
▁robber	-12.0159
▁candidate	-12.016
▁elephant	-12.0163
▁sheet	-12.0175
▁shots	-12.0208
▁diamonds	-12.0245
▁criminals	-12.0274
▁quote	-12.0276
▁cheat	-12.028
▁contradict	-12.0287
▁pardon	-12.0288
▁fuss	-12.0289
▁betray	-12.0289
▁stare	-12.0291
▁bloom	-12.0291
▁individual	-12.0294
▁immediate	-12.0294
▁prince	-12.0297
▁sneak	-12.0298
▁sec	-12.0299
▁congress	-12.0299
▁activity	-12.0299
▁cooperation	-12.0299
▁curiosity	-12.0299
▁envy	-12.0299
▁flexible	-12.0299
▁inspiration	-12.0299
▁obedient	-12.0299
▁pancakes	-12.0299
▁platform	-12.0299
▁pronunciation	-12.0299
▁shampoo	-12.0299
▁surface	-12.0299
▁unacceptable	-12.0299
▁wheelchair	-12.0299
▁whiskey	-12.0299
▁pathetic	-12.0299
▁claustrophobic	-12.0299
▁priority	-12.0299
▁consciousness	-12.0299
▁stroke	-12.0299
▁flies	-12.0299
▁angrily	-12.0299
▁timing	-12.03
▁refund	-12.03
▁witnesses	-12.03
▁dismissed	-12.0301
▁healthier	-12.0301
▁pitcher	-12.0302
▁wheat	-12.0302
▁wives	-12.0302
▁applauded	-12.0303
▁hint	-12.0305
▁fingerprints	-12.0308
▁kisses	-12.0309
▁bowed	-12.031
▁addicted	-12.0313
▁clothing	-12.0313
▁strictly	-12.0313
▁exploded	-12.0313
▁disappointing	-12.0314
▁fry	-12.0314
▁congratulated	-12.0315
▁weighed	-12.0322
▁diplomatic	-12.0323
▁approached	-12.0327
▁separated	-12.033
▁filling	-12.0331
▁repeated	-12.0335
▁included	-12.0337
▁hardest	-12.0338
▁collected	-12.0342
▁aliens	-12.0343
▁brings	-12.0351
▁absorb	-12.0351
▁meetings	-12.0354
▁indian	-12.0401
▁offering	-12.0419
▁ma	-12.0427
▁supported	-12.0433
▁stores	-12.0446
▁intentions	-12.0446
▁200	-12.0454
▁stuffed	-12.0463
▁lions	-12.0473
▁pairs	-12.0478
▁uniforms	-12.0527
▁deals	-12.054
▁clerk	-12.0551
▁version	-12.0572
▁smoker	-12.0584
▁basic	-12.059
▁exaggerate	-12.0592
▁channel	-12.0594
▁moral	-12.0595
▁hamburger	-12.0595
▁squirrel	-12.0595
u	-12.0641
te	-12.0661
▁banks	-12.0701
▁checks	-12.0705
▁divide	-12.0712
▁create	-12.0714
▁appeal	-12.0714
w	-12.0715
known	-12.0724
▁enormous	-12.0727
▁unfortunate	-12.0729
▁proper	-12.0729
▁dirt	-12.0733
▁canoe	-12.0733
▁gentle	-12.0734
▁horizon	-12.0734
▁adventurous	-12.0734
▁concentrating	-12.0734
▁contagious	-12.0734
▁faucet	-12.0734
▁immature	-12.0734
▁increasing	-12.0734
▁kindergarten	-12.0734
▁magnificent	-12.0734
▁mozart	-12.0734
▁nickname	-12.0734
▁permanent	-12.0734
▁receiving	-12.0734
▁regain	-12.0734
▁shakespeare	-12.0734
▁sunscreen	-12.0734
▁supply	-12.0734
▁thieves	-12.0734
▁unconvinced	-12.0734
▁wisdom	-12.0734
▁yogurt	-12.0734
▁zero	-12.0734
▁bullied	-12.0734
▁jog	-12.0734
▁rugby	-12.0734
▁thinner	-12.0734
▁toothache	-12.0734
▁tiny	-12.0734
▁unfinished	-12.0734
▁stomachache	-12.0734
▁batteries	-12.0734
▁bodyguard	-12.0734
▁groceries	-12.0734
▁sprain	-12.0734
▁therapist	-12.0734
▁management	-12.0734
▁claus	-12.0734
▁paperwork	-12.0734
▁rubber	-12.0734
▁damp	-12.0734
▁novelist	-12.0734
▁astonished	-12.0735
▁rational	-12.0735
▁male	-12.0735
▁competent	-12.0736
▁occupied	-12.0736
▁knitting	-12.0737
▁quicker	-12.0738
▁calculate	-12.0739
▁childish	-12.0739
▁speeches	-12.0739
▁falls	-12.074
▁alley	-12.0741
▁sits	-12.0742
▁relations	-12.0743
▁wolves	-12.0743
▁messy	-12.0743
▁cutting	-12.0746
▁performed	-12.0748
▁decorated	-12.0748
that	-12.0761
▁shocking	-12.0762
▁boarding	-12.0767
▁donate	-12.077
▁hesitated	-12.0785
▁relaxing	-12.0788
▁chopp	-12.0792
▁pens	-12.0796
▁instincts	-12.0798
ying	-12.0823
▁burnt	-12.0826
▁funds	-12.0827
▁protected	-12.0846
▁ham	-12.085
▁bore	-12.0861
▁surprises	-12.0866
▁leaders	-12.0868
▁differences	-12.089
▁regards	-12.0891
▁economics	-12.092
▁bow	-12.0935
▁customs	-12.0954
▁referr	-12.0959
▁pin	-12.0974
▁earthquakes	-12.0979
▁director	-12.1003
▁watermelon	-12.1005
▁nations	-12.101
▁protest	-12.1021
▁gum	-12.1025
▁procedure	-12.1039
▁angel	-12.1043
▁shark	-12.1047
▁beginner	-12.105
▁miracle	-12.105
▁tiger	-12.1051
▁lung	-12.1051
▁passenger	-12.1054
▁award	-12.1055
▁reporter	-12.106
ical	-12.1063
▁suffers	-12.1067
▁interests	-12.107
▁sleeve	-12.1074
▁surely	-12.1114
▁asia	-12.1132
ke	-12.1149
▁investigate	-12.1165
▁develop	-12.1165
▁praise	-12.1167
▁reserve	-12.1167
▁encourage	-12.1167
▁confuse	-12.1167
▁comb	-12.1174
▁leads	-12.1175
husband	-12.1179
▁races	-12.1182
▁passionate	-12.1183
▁slip	-12.1188
▁lab	-12.1188
▁agitated	-12.1188
▁athletic	-12.1188
▁background	-12.1188
▁cotton	-12.1188
▁elaborate	-12.1188
▁encouraging	-12.1188
▁filthy	-12.1188
▁footsteps	-12.1188
▁harsh	-12.1188
▁hobbies	-12.1188
▁inexpensive	-12.1188
▁instructor	-12.1188
▁intersection	-12.1188
▁january	-12.1188
▁jungle	-12.1188
▁orchestra	-12.1188
▁promising	-12.1188
▁psychic	-12.1188
▁registration	-12.1188
▁trousers	-12.1188
▁unbeatable	-12.1188
▁unpredictable	-12.1188
▁unreliable	-12.1188
▁assertive	-12.1188
▁astronaut	-12.1188
▁bacon	-12.1188
▁butterflies	-12.1188
▁screw	-12.1188
▁agenda	-12.1188
▁groggy	-12.1188
▁romance	-12.1188
▁ignorant	-12.1188
▁worthwhile	-12.1188
▁slavery	-12.1188
▁destiny	-12.1188
▁basically	-12.1189
▁retiring	-12.1189
▁fireplace	-12.1189
▁poetry	-12.1189
▁navy	-12.1189
▁production	-12.1189
▁leap	-12.1189
▁sauce	-12.1189
▁grandson	-12.1189
▁persuasive	-12.1189
▁extend	-12.1189
▁doghouse	-12.119
▁halfway	-12.119
▁carbon	-12.119
▁intentionally	-12.1191
▁heels	-12.1191
▁delivery	-12.1192
▁siblings	-12.1192
▁invest	-12.1193
▁growth	-12.1193
▁considerate	-12.1194
▁boiling	-12.1195
▁suburbs	-12.1198
▁peeled	-12.1209
▁reacted	-12.121
▁sober	-12.1221
▁tricked	-12.1223
▁jewels	-12.123
▁fewer	-12.1235
▁understandable	-12.1238
▁diplomat	-12.1241
▁faults	-12.1251
▁25	-12.1262
▁spirits	-12.1263
▁filed	-12.127
▁warming	-12.1281
ment	-12.1295
▁gardening	-12.1302
▁gifted	-12.1324
at	-12.1333
▁welcomed	-12.1338
▁ideal	-12.1363
▁bees	-12.1399
▁practices	-12.1403
▁gunshots	-12.1406
▁exceptions	-12.1407
▁knit	-12.1413
▁smoked	-12.1421
▁becomes	-12.1445
▁tuesday	-12.1481
▁medal	-12.1482
▁greatly	-12.1494
▁bug	-12.1497
▁fuel	-12.1516
▁improvement	-12.1521
▁temple	-12.1525
▁standard	-12.1526
▁client	-12.1526
▁signs	-12.1526
▁whale	-12.1526
▁brake	-12.1527
▁manner	-12.153
▁visitor	-12.1536
▁cleaner	-12.1541
▁kindly	-12.1558
▁reservations	-12.1564
▁embarrass	-12.1569
▁despi	-12.1575
▁ants	-12.1584
▁odds	-12.1584
▁frie	-12.1586
▁programs	-12.1587
▁seek	-12.1605
▁accuse	-12.1643
room	-12.1644
▁hunt	-12.1645
▁frighten	-12.1646
free	-12.1656
▁blam	-12.1657
▁instant	-12.166
▁mental	-12.166
hearted	-12.1661
▁gamble	-12.1663
▁clarinet	-12.1665
▁accusing	-12.1665
▁anonymous	-12.1665
▁campaign	-12.1665
▁conscientious	-12.1665
▁district	-12.1665
▁emptie	-12.1665
▁inviting	-12.1665
▁lousy	-12.1665
▁telescope	-12.1665
▁tolerant	-12.1665
▁toothbrush	-12.1665
▁translating	-12.1665
▁windshield	-12.1665
▁silk	-12.1665
▁steam	-12.1665
▁title	-12.1665
▁section	-12.1665
▁organization	-12.1665
▁traitor	-12.1665
▁voting	-12.1665
▁24	-12.1665
▁cattle	-12.1665
▁handbag	-12.1665
▁harvest	-12.1665
▁mosquitoes	-12.1665
▁freshman	-12.1665
▁slid	-12.1665
▁diving	-12.1666
▁cello	-12.1666
▁songwriter	-12.1666
▁smashed	-12.1666
▁snowman	-12.1667
▁declared	-12.1668
▁fireman	-12.1668
▁highway	-12.1669
▁blushed	-12.1669
▁guilt	-12.1669
▁pushy	-12.1671
▁rubbed	-12.1671
▁sickness	-12.1671
▁sewing	-12.1672
five	-12.1673
▁fled	-12.1674
▁afterwards	-12.1675
▁developed	-12.1677
▁intimidated	-12.1678
▁softly	-12.168
▁recovering	-12.168
▁reports	-12.1681
▁kilos	-12.1682
▁plus	-12.1682
▁sued	-12.1686
▁fans	-12.1687
▁ironed	-12.1704
▁footprints	-12.1715
▁towels	-12.1717
▁stinks	-12.1729
▁terrorists	-12.1729
nuck	-12.1731
▁pop	-12.1739
▁16	-12.1742
▁allies	-12.1744
▁bicycles	-12.1751
▁tests	-12.1754
▁disagreed	-12.1757
▁rewrit	-12.1766
▁fee	-12.1767
▁loosen	-12.178
▁corrected	-12.1794
▁notebooks	-12.1799
▁di	-12.1802
▁sheets	-12.1825
ral	-12.1855
me	-12.1875
▁holds	-12.1903
▁imports	-12.1932
aving	-12.1945
▁rub	-12.1965
▁link	-12.1996
▁snore	-12.2005
▁duck	-12.2007
▁fold	-12.2012
▁shortage	-12.2013
▁assignment	-12.202
▁frog	-12.2022
▁gardener	-12.2022
▁freeze	-12.2023
▁string	-12.2026
▁employee	-12.2029
▁tracks	-12.2037
▁follows	-12.2046
▁respects	-12.205
▁russia	-12.2093
▁sentences	-12.2118
▁eve	-12.2124
▁drunke	-12.2129
▁minds	-12.2134
▁polish	-12.2144
▁adjust	-12.2153
▁proofread	-12.2156
▁1	-12.2157
▁secure	-12.2159
▁screen	-12.2165
▁deciding	-12.2165
▁disgrace	-12.2165
▁intelligence	-12.2165
▁luxury	-12.2165
▁microphone	-12.2165
▁numerous	-12.2165
▁overcome	-12.2165
▁pattern	-12.2165
▁pharmacy	-12.2165
▁raising	-12.2165
▁scientific	-12.2165
▁struggling	-12.2165
▁switzerland	-12.2165
▁thunder	-12.2165
▁conscience	-12.2165
▁gently	-12.2165
▁grinning	-12.2165
▁indeed	-12.2165
▁kobe	-12.2165
▁pacific	-12.2165
▁trout	-12.2165
▁911	-12.2165
▁gentlemen	-12.2165
▁therapy	-12.2165
▁smartphone	-12.2165
▁persistent	-12.2165
▁typewriter	-12.2165
▁astronomy	-12.2165
▁drummer	-12.2165
▁texas	-12.2165
▁outfit	-12.2165
▁chief	-12.2166
▁corn	-12.2167
▁peek	-12.2168
▁overreacting	-12.2168
▁peacefully	-12.2168
▁mid	-12.2169
▁pierced	-12.2169
▁specialist	-12.2169
▁threatening	-12.217
▁v	-12.2171
▁splash	-12.2172
▁officially	-12.2176
▁regarded	-12.2182
▁praying	-12.2182
▁traditional	-12.2184
▁freaked	-12.2186
▁praised	-12.2189
▁purchased	-12.2192
▁symptoms	-12.2197
▁repeating	-12.2198
▁silently	-12.2199
▁speeding	-12.22
▁crushed	-12.2206
▁barbecue	-12.2208
▁landing	-12.2213
▁ripe	-12.2214
▁spit	-12.2222
▁concerts	-12.2241
▁celebrated	-12.2248
▁se	-12.2253
▁experts	-12.2264
▁willingly	-12.2279
▁install	-12.2324
▁faced	-12.233
▁le	-12.2333
1,000	-12.234
▁cakes	-12.234
▁hotels	-12.2351
▁effects	-12.2354
▁bride	-12.2385
▁presented	-12.2394
▁fools	-12.2406
▁19	-12.2417
▁dates	-12.2433
▁wounds	-12.2478
▁rug	-12.2501
▁trace	-12.2508
▁bandage	-12.2515
▁singers	-12.2524
▁boil	-12.2532
▁region	-12.2538
▁hunter	-12.2543
▁generation	-12.2548
▁acquaintance	-12.2549
▁payment	-12.255
▁lemon	-12.255
▁opponent	-12.255
▁thumb	-12.2551
▁saturdays	-12.2552
▁arrangement	-12.2555
▁glove	-12.2559
▁wo	-12.2598
▁exists	-12.2603
▁watering	-12.2632
▁struggle	-12.2669
made	-12.2675
▁blankets	-12.2677
▁offend	-12.2678
▁discover	-12.2679
minute	-12.2682
▁gossip	-12.2683
▁sweep	-12.2683
▁diligent	-12.2684
▁sew	-12.2688
▁broad	-12.269
▁mosquito	-12.269
▁grocer	-12.2691
▁revolution	-12.2691
▁abilities	-12.2691
▁advertising	-12.2691
▁ambassador	-12.2691
▁celebration	-12.2691
▁chubby	-12.2691
▁cycling	-12.2691
▁diabetic	-12.2691
▁grammar	-12.2691
▁hurricane	-12.2691
▁identical	-12.2691
▁perfume	-12.2691
▁period	-12.2691
▁profile	-12.2691
▁purple	-12.2691
▁september	-12.2691
▁species	-12.2691
▁thursday	-12.2691
▁translator	-12.2691
▁vacuum	-12.2691
▁veterinarian	-12.2691
▁yoga	-12.2691
▁grandma	-12.2691
▁wolf	-12.2691
▁programmer	-12.2691
▁vanished	-12.2691
▁7:30	-12.2691
▁factories	-12.2691
▁tapped	-12.2691
▁unbearable	-12.2691
▁daddy	-12.2691
▁2003	-12.2691
▁poisonous	-12.2691
▁bait	-12.2691
▁blast	-12.2691
▁overcoat	-12.2691
▁accountant	-12.2691
▁shining	-12.2692
▁slim	-12.2692
▁bury	-12.2692
▁shivering	-12.2692
▁manual	-12.2693
▁baffled	-12.2693
▁harmless	-12.2693
day	-12.2695
▁acquired	-12.2698
▁extent	-12.2698
▁frightening	-12.27
▁print	-12.27
▁worthless	-12.2701
▁exposed	-12.2704
▁chewing	-12.2705
▁originally	-12.2705
▁employed	-12.2706
▁surprisingly	-12.2707
▁quieter	-12.2708
▁spelling	-12.2708
▁dull	-12.2709
ate	-12.2711
▁sinking	-12.2713
▁demanding	-12.2717
▁blossoms	-12.2717
▁worthy	-12.2722
▁engineering	-12.2723
▁responded	-12.2725
▁sin	-12.2728
▁desperately	-12.2729
▁resigning	-12.2733
▁wings	-12.2737
▁teammates	-12.2748
▁smiles	-12.2752
▁attach	-12.2754
▁recorded	-12.2757
▁crimes	-12.2759
▁inch	-12.2763
▁items	-12.2777
▁waves	-12.2779
▁remarks	-12.2786
▁humans	-12.2826
▁flights	-12.2833
▁usa	-12.284
▁clearing	-12.2853
▁groups	-12.2863
0	-12.2871
▁wages	-12.2891
let	-12.2893
▁resting	-12.2894
▁snacks	-12.2907
▁tendenc	-12.2925
▁textbooks	-12.2929
▁conclusions	-12.2937
▁tested	-12.2937
▁ha	-12.295
▁restless	-12.299
tic	-12.299
▁dolls	-12.3007
▁heated	-12.3039
▁biting	-12.3042
▁experiences	-12.3051
▁citizens	-12.3052
▁cases	-12.3061
▁counts	-12.3069
▁tradition	-12.3082
▁plumber	-12.3085
▁swimsuit	-12.3085
▁snows	-12.3086
▁ships	-12.3089
▁champion	-12.3093
▁orphan	-12.31
▁greek	-12.31
▁export	-12.3107
▁setting	-12.3107
▁antique	-12.3108
▁european	-12.3108
▁slave	-12.3108
▁creature	-12.3109
▁bruise	-12.3109
▁survivor	-12.311
▁spider	-12.3111
▁vegetable	-12.3112
▁limits	-12.3115
▁wire	-12.312
ie	-12.3134
▁choos	-12.315
▁site	-12.3155
▁vet	-12.3158
▁trips	-12.316
▁goat	-12.3179
▁valuables	-12.3193
▁enti	-12.3216
▁irritate	-12.3225
▁headaches	-12.3225
▁abuse	-12.3225
▁criticize	-12.3228
▁sue	-12.3234
▁maintain	-12.3235
▁renew	-12.3235
class	-12.3238
▁fanatic	-12.3246
▁tomato	-12.3246
▁flour	-12.3246
▁obsess	-12.3246
▁loyal	-12.3246
responsibilities	-12.3246
▁7:00	-12.3246
▁awoke	-12.3246
▁cafe	-12.3246
▁cemetery	-12.3246
▁chimney	-12.3246
▁cottage	-12.3246
▁cynical	-12.3246
▁demonstrate	-12.3246
▁deported	-12.3246
▁dictionaries	-12.3246
▁doorknob	-12.3246
▁duties	-12.3246
▁fabulous	-12.3246
▁gesture	-12.3246
▁graduating	-12.3246
▁greece	-12.3246
▁identity	-12.3246
▁insecure	-12.3246
▁mahjong	-12.3246
▁mutual	-12.3246
▁nagoya	-12.3246
▁parcel	-12.3246
▁philosophy	-12.3246
▁picasso	-12.3246
▁psychologist	-12.3246
▁remarried	-12.3246
▁sneezing	-12.3246
▁unbiased	-12.3246
▁unpleasant	-12.3246
▁apologies	-12.3246
▁hunch	-12.3246
▁scholarship	-12.3246
▁strawberry	-12.3246
▁forbidden	-12.3246
▁outlive	-12.3246
▁witty	-12.3246
▁frost	-12.3247
▁hiring	-12.3247
▁zealand	-12.3247
▁withdrew	-12.3247
▁reflection	-12.3247
▁signature	-12.3247
▁uncertain	-12.3247
▁parade	-12.3247
▁vulnerable	-12.3247
▁rainbow	-12.3247
▁mice	-12.3247
▁jet	-12.3247
▁label	-12.3247
▁obligation	-12.3247
▁cranky	-12.3247
▁mercy	-12.3247
▁attribute	-12.3247
▁gear	-12.3247
▁occasionally	-12.3247
▁mansion	-12.3247
▁goodnight	-12.3247
▁lifestyle	-12.3247
▁gross	-12.3247
▁overwhelmed	-12.3247
▁solid	-12.3248
▁grand	-12.3248
▁hospitalized	-12.3249
▁dramatic	-12.3249
▁pickup	-12.3249
▁wiser	-12.3249
▁matches	-12.325
▁skier	-12.3252
▁mentally	-12.3253
▁dialed	-12.3255
▁shore	-12.3256
▁neatly	-12.3258
▁headlights	-12.3259
▁thanksgiving	-12.326
▁lighter	-12.3264
▁smokes	-12.3265
▁fur	-12.3267
▁immigrants	-12.3274
▁preparations	-12.3282
▁giants	-12.3283
▁privately	-12.329
▁bucks	-12.329
▁planting	-12.3297
▁participated	-12.3303
▁commute	-12.3315
▁olympics	-12.3322
can	-12.3323
▁environmental	-12.3326
▁posted	-12.3369
▁mushrooms	-12.337
▁bruises	-12.3386
▁en	-12.34
▁brakes	-12.341
▁pant	-12.3428
2,000	-12.3431
▁watered	-12.3435
▁blown	-12.3445
did	-12.3449
▁cr	-12.3468
▁musicians	-12.3471
ur	-12.3494
▁monkeys	-12.3515
▁forms	-12.3542
▁pound	-12.3555
▁politicians	-12.3572
▁heights	-12.358
▁bears	-12.3593
ered	-12.3593
v	-12.3595
ups	-12.3611
▁media	-12.3618
▁methods	-12.3621
5.	-12.364
▁cowards	-12.3646
▁passion	-12.3655
▁founded	-12.3672
▁lobster	-12.3673
▁boxer	-12.3674
▁stake	-12.368
▁museums	-12.3682
▁infection	-12.3686
▁restroom	-12.3687
▁seatbelt	-12.3691
▁hostage	-12.3699
▁crop	-12.3699
▁rats	-12.3707
▁donut	-12.3712
▁refer	-12.3713
▁oblig	-12.3716
▁froze	-12.3763
▁concept	-12.3776
▁spoil	-12.378
▁20,	-12.3781
▁exceed	-12.3785
▁asian	-12.3801
hand	-12.3806
▁estimate	-12.3813
▁congratulate	-12.3813
▁gather	-12.3817
▁wreck	-12.3822
▁employ	-12.3822
grandfather	-12.3826
afraid	-12.3826
▁flirt	-12.3827
?"	-12.3832
may	-12.3833
▁reception	-12.3834
▁diagnos	-12.3835
▁reflect	-12.3835
▁activities	-12.3835
▁adorable	-12.3835
▁auditorium	-12.3835
▁calculator	-12.3835
▁cereal	-12.3835
▁congratulations	-12.3835
▁disobedient	-12.3835
▁guidance	-12.3835
▁judging	-12.3835
▁kettle	-12.3835
▁liberal	-12.3835
▁obese	-12.3835
▁oysters	-12.3835
▁paralyzed	-12.3835
▁psychology	-12.3835
▁roast	-12.3835
▁sharing	-12.3835
▁sorrow	-12.3835
▁spontaneous	-12.3835
▁swept	-12.3835
▁territory	-12.3835
▁twitter	-12.3835
▁veteran	-12.3835
▁yokohama	-12.3835
▁8:00	-12.3835
▁fireworks	-12.3835
▁cocaine	-12.3835
▁grinned	-12.3835
▁pudding	-12.3835
▁variety	-12.3835
▁southern	-12.3835
▁nara	-12.3835
▁referee	-12.3835
▁revenge	-12.3835
▁latin	-12.3835
▁temptation	-12.3835
▁moderate	-12.3835
▁observant	-12.3835
▁republican	-12.3835
▁distant	-12.3835
▁banned	-12.3835
▁audition	-12.3835
▁breed	-12.3835
▁penny	-12.3835
▁exhibition	-12.3835
▁broom	-12.3835
▁courteous	-12.3835
▁communication	-12.3835
▁download	-12.3835
▁freezer	-12.3835
▁villagers	-12.3835
▁rudeness	-12.3836
▁deliberately	-12.3836
▁household	-12.3836
▁dazed	-12.3837
▁easygoing	-12.3837
▁permitting	-12.3837
▁adore	-12.3837
▁vest	-12.3837
▁wool	-12.3838
▁refill	-12.3838
▁x	-12.3839
▁whispering	-12.3839
▁decisive	-12.384
▁movement	-12.384
▁rocket	-12.3842
▁launched	-12.3843
▁resolved	-12.3846
▁humble	-12.3846
▁notify	-12.385
▁acknowledged	-12.385
▁torn	-12.3855
▁speechless	-12.3856
▁bass	-12.3857
▁sweating	-12.3857
▁abused	-12.3859
▁naturally	-12.3866
▁enjoyable	-12.3867
▁proven	-12.3868
▁forgets	-12.3868
▁kidnappers	-12.3873
▁opener	-12.388
▁leftovers	-12.3881
▁turtles	-12.3881
▁conditioning	-12.3884
▁bo	-12.3889
▁warmly	-12.3913
▁factors	-12.3915
▁examples	-12.3929
▁arguments	-12.3929
▁jack	-12.3944
▁cameras	-12.3946
▁san	-12.3948
▁80	-12.3958
▁rear	-12.3971
▁donuts	-12.3975
k	-12.3983
▁creatures	-12.3983
▁wh	-12.4017
▁tigers	-12.4017
▁lover	-12.4018
back	-12.4057
▁materials	-12.4086
ine	-12.4101
▁primar	-12.4106
▁ta	-12.4116
▁beautifully	-12.4131
z	-12.4145
▁skipp	-12.4151
▁uncles	-12.4153
▁fare	-12.4165
10,000	-12.417
▁contents	-12.4173
▁function	-12.4194
▁misunderstand	-12.4208
▁photographs	-12.4234
have	-12.4234
over	-12.4277
▁monster	-12.4278
▁conflict	-12.4278
▁ufo	-12.428
▁image	-12.4281
▁drum	-12.4297
▁beggar	-12.4306
▁pirate	-12.4306
▁reform	-12.4311
▁amateur	-12.4311
▁proverb	-12.4316
▁vehicle	-12.4316
▁dig	-12.4316
▁profit	-12.4321
▁mushroom	-12.4322
▁folk	-12.4323
▁needless	-12.4338
▁dispute	-12.4338
▁umbrellas	-12.436
▁owners	-12.4379
▁stones	-12.4384
▁korea	-12.4388
▁swears	-12.4401
▁riot	-12.4406
▁sock	-12.4408
we	-12.441
▁mini	-12.4423
▁planes	-12.4433
▁observe	-12.4437
▁explode	-12.4438
▁decline	-12.4438
▁involve	-12.4439
▁reward	-12.444
working	-12.4444
▁unlock	-12.4448
▁snap	-12.445
▁bully	-12.4453
▁rail	-12.4454
▁actual	-12.4455
▁intent	-12.4455
ological	-12.4456
▁sixteen	-12.446
clined	-12.446
▁10:00	-12.446
▁bilingual	-12.446
▁broccoli	-12.446
▁drowsy	-12.446
▁enthusiasm	-12.446
▁exercising	-12.446
▁fundamental	-12.446
▁garlic	-12.446
▁graduation	-12.446
▁happily	-12.446
▁harmonica	-12.446
▁horrified	-12.446
▁likable	-12.446
▁mysterious	-12.446
▁november	-12.446
▁oatmeal	-12.446
▁palace	-12.446
▁photogenic	-12.446
▁screwdriver	-12.446
▁supervisor	-12.446
▁symbol	-12.446
▁valley	-12.446
▁yacht	-12.446
▁casualties	-12.446
▁charismatic	-12.446
▁lettuce	-12.446
▁perspective	-12.446
▁snob	-12.446
▁clumsy	-12.446
▁prank	-12.446
▁shaving	-12.446
▁whereabouts	-12.446
▁uncommon	-12.446
▁recession	-12.446
▁hugging	-12.446
▁pony	-12.446
▁seventy	-12.446
▁tiptoe	-12.446
▁trailer	-12.446
▁hairstyle	-12.446
▁ballet	-12.446
▁detained	-12.446
▁firewood	-12.446
▁confession	-12.446
▁enable	-12.446
▁clueless	-12.4461
▁pump	-12.4461
▁bookcase	-12.4461
▁pension	-12.4461
▁stack	-12.4461
▁pry	-12.4461
▁rash	-12.4461
▁flea	-12.4461
▁intrigued	-12.4462
▁spill	-12.4462
▁elderly	-12.4462
▁losses	-12.4463
▁mince	-12.4463
▁easter	-12.4464
▁bushes	-12.4464
▁knot	-12.4464
▁yawning	-12.4465
▁recorder	-12.4465
▁confronted	-12.4465
▁euros	-12.4465
▁hood	-12.4465
▁neglected	-12.4465
▁seventh	-12.4467
▁tempted	-12.4467
▁pawn	-12.4467
▁smoothly	-12.4469
▁poke	-12.4469
▁swallowed	-12.4469
▁cautiously	-12.447
▁physically	-12.447
▁framed	-12.4472
▁faithful	-12.4472
▁chill	-12.4473
▁adjusted	-12.4474
▁vend	-12.4475
▁fairy	-12.4476
▁po	-12.4476
▁ban	-12.4479
▁surrendered	-12.448
▁darker	-12.4482
▁brushe	-12.4483
▁dozed	-12.4484
▁cheering	-12.4491
▁consulted	-12.4491
▁inconvenience	-12.4493
▁charm	-12.4494
▁ironing	-12.4495
▁partial	-12.4499
▁repairing	-12.45
▁dorm	-12.4505
▁pushing	-12.4507
▁diseases	-12.4517
▁muscles	-12.4518
▁bee	-12.453
▁alarmed	-12.4531
▁obeyed	-12.4533
▁associate	-12.4541
g	-12.455
tled	-12.4551
▁pigeons	-12.4554
▁protecting	-12.4569
▁heating	-12.4571
▁dive	-12.4588
▁relationships	-12.4589
▁vitamins	-12.4591
▁spin	-12.4594
▁profits	-12.46
▁strangely	-12.4611
▁touching	-12.464
▁respectful	-12.464
▁194	-12.4655
▁pose	-12.466
▁65	-12.4669
▁indians	-12.4672
▁talker	-12.4682
▁dash	-12.4698
▁rides	-12.4703
▁bites	-12.471
▁gi	-12.4714
▁sa	-12.473
▁pe	-12.4744
▁imitate	-12.4748
▁mop	-12.4748
▁gr	-12.4765
▁occasions	-12.4774
▁11	-12.4776
▁articles	-12.478
ably	-12.4796
▁telephoned	-12.4806
▁figures	-12.4847
▁nicely	-12.4854
▁partners	-12.4858
5	-12.4858
▁comics	-12.4867
▁bullets	-12.4876
▁rings	-12.4891
▁drawn	-12.4907
▁punche	-12.4936
▁league	-12.4944
▁cocktail	-12.4945
▁racist	-12.4945
▁survey	-12.4945
▁arrow	-12.4947
▁slack	-12.4965
▁superior	-12.4965
▁review	-12.4973
▁dealer	-12.4977
▁executive	-12.4979
▁rates	-12.4981
▁recommendation	-12.4981
▁suspicion	-12.4984
▁robot	-12.4985
▁balls	-12.4986
▁pearl	-12.4987
▁accusation	-12.4988
▁vitamin	-12.4989
▁relie	-12.5032
▁shops	-12.5039
▁attache	-12.5052
ism	-12.5077
▁fields	-12.5084
▁cease	-12.5103
▁decorate	-12.5105
▁determine	-12.5105
▁examine	-12.5106
▁labor	-12.5107
▁belts	-12.5111
▁reveal	-12.5115
▁wander	-12.5115
water	-12.5116
fashioned	-12.5117
defense	-12.5117
when	-12.5117
would	-12.5117
speaking	-12.5117
▁technical	-12.5121
▁definite	-12.5121
istic	-12.5125
assuming	-12.5125
▁plot	-12.5126
▁prettie	-12.5126
▁prior	-12.5126
▁bankrupt	-12.5126
▁apologizing	-12.5126
▁artificial	-12.5126
▁berlin	-12.5126
▁broadcast	-12.5126
▁chauffeur	-12.5126
▁columbus	-12.5126
▁continent	-12.5126
▁december	-12.5126
▁depression	-12.5126
▁drugstore	-12.5126
▁harbor	-12.5126
▁headphones	-12.5126
▁intriguing	-12.5126
▁microscope	-12.5126
▁nauseous	-12.5126
▁plausible	-12.5126
▁refrain	-12.5126
▁reunion	-12.5126
▁ribbon	-12.5126
▁salmon	-12.5126
▁sunshine	-12.5126
▁telegram	-12.5126
▁toothpaste	-12.5126
▁unavoidabl	-12.5126
▁unkind	-12.5126
▁vouch	-12.5126
▁imaginative	-12.5126
▁unrealistic	-12.5126
▁nonstop	-12.5126
▁curry	-12.5126
▁steel	-12.5126
▁loyalty	-12.5126
▁verify	-12.5126
▁tragedy	-12.5126
▁clapped	-12.5126
▁announcer	-12.5126
▁fancy	-12.5126
▁ridden	-12.5126
▁democracy	-12.5127
▁pole	-12.5127
▁countryside	-12.5127
▁cockroaches	-12.5127
▁raincoat	-12.5127
▁managing	-12.5127
▁peaches	-12.5127
▁violinist	-12.5127
▁oak	-12.5127
▁cardboard	-12.5127
▁evicted	-12.5127
▁undone	-12.5127
▁ninety	-12.5127
▁hallway	-12.5127
▁hangover	-12.5127
▁regardless	-12.5127
▁virtue	-12.5127
▁protective	-12.5127
▁collar	-12.5128
▁gambler	-12.5128
▁curly	-12.5128
▁diner	-12.5128
▁golden	-12.5128
▁predictable	-12.5128
▁untidy	-12.5128
▁allowance	-12.5129
▁soda	-12.5129
▁western	-12.5129
▁independence	-12.5129
▁evidently	-12.5129
▁allergies	-12.5129
▁phrase	-12.513
▁licked	-12.5131
▁slippers	-12.5132
▁blessing	-12.5132
▁composed	-12.5132
▁melted	-12.5133
▁pasta	-12.5134
▁chuckled	-12.5135
▁gathering	-12.5135
▁wandered	-12.5138
▁seized	-12.5138
▁consent	-12.5139
▁plates	-12.5141
▁polished	-12.5142
▁crawling	-12.5142
▁violated	-12.5143
▁appealed	-12.5145
▁equally	-12.5148
▁concealed	-12.5149
▁kisser	-12.515
▁pickpockets	-12.5151
▁coughed	-12.5151
▁withdraw	-12.5158
line	-12.5159
▁airplanes	-12.516
▁muslims	-12.516
▁cracked	-12.5163
▁pressing	-12.5168
▁wisely	-12.5171
▁balanced	-12.5172
ked	-12.5174
▁whistled	-12.5179
ham	-12.519
▁dieting	-12.5205
▁servants	-12.5218
▁soil	-12.5221
▁graduates	-12.5229
▁travelers	-12.523
▁gaze	-12.5236
▁j	-12.5237
ap	-12.524
▁benefits	-12.5247
▁colleagues	-12.5247
▁te	-12.5259
▁accusations	-12.5267
aking	-12.5275
▁exports	-12.5296
▁slaves	-12.5296
▁hanged	-12.5318
▁amounts	-12.5322
▁whales	-12.5325
▁clients	-12.5325
▁miracles	-12.5335
▁beginners	-12.5335
▁designate	-12.5344
▁chocolates	-12.5345
▁instruments	-12.5365
▁icy	-12.5376
▁medi	-12.5382
▁mar	-12.5417
▁gladly	-12.5417
ive	-12.5436
▁brains	-12.5453
▁sources	-12.5454
▁idiots	-12.5471
ant	-12.5475
▁continues	-12.5477
▁areas	-12.5508
▁forth	-12.551
▁pies	-12.5518
▁slices	-12.5559
▁sigh	-12.5606
ship	-12.5616
of	-12.563
▁sh	-12.5635
▁liter	-12.5638
2.	-12.5656
▁commitment	-12.566
▁attendant	-12.5661
▁printer	-12.5661
▁update	-12.5675
▁psychiatrist	-12.568
▁optimist	-12.5687
▁bump	-12.5692
▁niece	-12.5695
▁paramedic	-12.5696
▁sailor	-12.57
▁gains	-12.5709
▁skirts	-12.5713
box	-12.5728
▁crow	-12.5741
▁reader	-12.5743
arious	-12.5803
▁tow	-12.5804
ian	-12.5816
assigned	-12.582
▁dial	-12.5821
▁disappear	-12.5821
▁draft	-12.5827
▁distinguish	-12.5829
▁blackmail	-12.5829
▁flavor	-12.5831
▁satisfy	-12.5832
▁logic	-12.5834
▁prompt	-12.5835
▁alphabet	-12.5835
▁casual	-12.5835
▁blond	-12.5839
▁fasten	-12.5839
▁teenage	-12.584
▁frantic	-12.5841
▁resent	-12.5841
▁democrat	-12.5841
▁clarify	-12.5841
▁grammatical	-12.5841
▁believing	-12.5841
▁chef	-12.5841
▁clinic	-12.5841
▁compartment	-12.5841
▁controversial	-12.5841
▁cooperating	-12.5841
▁discontented	-12.5841
▁dissatisfied	-12.5841
▁easiest	-12.5841
▁francisco	-12.5841
▁gratitude	-12.5841
▁isolated	-12.5841
▁knapsack	-12.5841
▁liquor	-12.5841
▁microwave	-12.5841
▁narita	-12.5841
▁oboe	-12.5841
▁opposition	-12.5841
▁perplexed	-12.5841
▁refreshments	-12.5841
▁routine	-12.5841
▁scotland	-12.5841
▁sociable	-12.5841
▁spectacular	-12.5841
▁splendid	-12.5841
▁thermometer	-12.5841
▁tuxedo	-12.5841
▁vocabulary	-12.5841
▁vodka	-12.5841
▁whistling	-12.5841
▁acquitted	-12.5841
▁butterfly	-12.5841
▁existence	-12.5841
▁hesitation	-12.5841
▁landlord	-12.5841
▁studio	-12.5841
▁theories	-12.5841
▁inflation	-12.5841
▁comedian	-12.5841
▁foggy	-12.5841
▁annual	-12.5841
▁seaside	-12.5841
▁shuttle	-12.5841
▁magician	-12.5841
▁chairperson	-12.5841
▁administration	-12.5841
▁electrician	-12.5841
▁overconfident	-12.5841
▁typing	-12.5841
▁cellar	-12.5841
▁wholeheartedly	-12.5841
▁prescription	-12.5841
▁loaf	-12.5841
▁paycheck	-12.5841
▁affection	-12.5841
▁unicycle	-12.5841
▁airmail	-12.5841
▁unplugged	-12.5842
▁atlantic	-12.5842
▁aching	-12.5842
▁foxes	-12.5842
▁bail	-12.5842
▁ranch	-12.5842
▁norway	-12.5842
▁eighth	-12.5842
omic	-12.5842
▁unclear	-12.5843
▁terminal	-12.5843
▁devil	-12.5843
▁hay	-12.5843
▁presentation	-12.5843
▁heads	-12.5844
▁route	-12.5844
▁methodical	-12.5844
▁housework	-12.5844
▁roller	-12.5845
▁hectic	-12.5845
▁stumble	-12.5846
▁hopeful	-12.5846
▁server	-12.5846
▁centimeters	-12.5846
▁shoelaces	-12.5846
▁embraced	-12.5848
▁overdose	-12.5848
▁sealed	-12.5849
▁outraged	-12.5849
▁repeatedly	-12.585
▁relevant	-12.585
▁separately	-12.5853
▁passes	-12.5854
▁teased	-12.5856
▁briefly	-12.5857
▁banker	-12.586
▁spying	-12.5863
▁tortured	-12.5863
▁types	-12.5864
▁belly	-12.5869
▁australian	-12.5869
▁lifetime	-12.5873
▁winked	-12.5874
▁contented	-12.5876
ozy	-12.5877
▁backup	-12.588
▁islam	-12.5884
▁liver	-12.5885
▁learner	-12.5888
▁iphone	-12.5891
▁stirr	-12.5893
▁memorized	-12.5895
▁refugees	-12.5898
▁trainer	-12.5918
▁dump	-12.5941
▁bathing	-12.5948
▁seeds	-12.596
▁camels	-12.5971
▁grounded	-12.5972
she	-12.5978
▁obligat	-12.5987
▁locks	-12.6008
▁fund	-12.6009
▁hut	-12.6038
▁manufacture	-12.6039
▁bugs	-12.6056
▁sleeves	-12.6064
▁robbers	-12.6087
▁monthly	-12.6104
▁services	-12.6108
sh	-12.6117
▁marks	-12.613
▁grip	-12.6137
▁measures	-12.6137
▁boxing	-12.6139
▁remark	-12.6157
▁chatte	-12.6175
▁boats	-12.621
▁objections	-12.6215
▁wave	-12.6231
▁parted	-12.6269
▁roommates	-12.6281
ure	-12.6293
▁los	-12.6312
▁cuts	-12.6356
▁catche	-12.6371
▁puzzles	-12.6378
▁mat	-12.638
▁budge	-12.6396
board	-12.6405
▁fears	-12.641
▁burns	-12.6413
▁dislikes	-12.6421
son	-12.6425
▁commercial	-12.6429
▁tray	-12.643
▁motel	-12.643
▁swallow	-12.6437
▁lap	-12.6442
▁tool	-12.6448
▁pub	-12.6448
▁composer	-12.6449
▁development	-12.6454
▁kitten	-12.6457
▁resolution	-12.6461
▁grant	-12.6462
▁exhibit	-12.6464
▁sample	-12.6466
▁errand	-12.6469
▁prediction	-12.6471
▁colleague	-12.6471
▁benefit	-12.6471
▁ache	-12.6472
▁cheeks	-12.6476
pped	-12.6478
▁pill	-12.6482
uring	-12.6516
ee	-12.6535
▁needle	-12.654
▁mp	-12.6541
▁discussions	-12.6575
▁stocks	-12.6576
eye	-12.6577
▁mature	-12.6585
▁advertise	-12.6587
▁intimidate	-12.6588
▁torture	-12.6588
▁collapse	-12.6588
▁organize	-12.6589
▁fri	-12.6592
▁imagin	-12.6596
iest	-12.6596
▁assault	-12.6596
▁fulfill	-12.6596
▁drain	-12.6597
▁flush	-12.6598
▁y	-12.6598
▁peaceful	-12.6605
▁meter	-12.6606
▁widow	-12.6609
▁tragic	-12.661
▁transfer	-12.661
▁grandpa	-12.661
▁6:00	-12.661
▁ammunition	-12.661
▁behalf	-12.661
▁beneficial	-12.661
▁contributing	-12.661
▁cradle	-12.661
▁deceiving	-12.661
▁deck	-12.661
▁defensive	-12.661
▁disorder	-12.661
▁florida	-12.661
▁greasy	-12.661
▁invincible	-12.661
▁kimono	-12.661
▁marvelous	-12.661
▁measles	-12.661
▁outcast	-12.661
▁parallel	-12.661
▁peculiar	-12.661
▁playground	-12.661
▁pneumonia	-12.661
▁survival	-12.661
▁swollen	-12.661
▁transplant	-12.661
▁tribe	-12.661
▁twentieth	-12.661
▁ukulele	-12.661
▁undecided	-12.661
▁vanilla	-12.661
▁verdict	-12.661
▁voyage	-12.661
▁worship	-12.661
▁youtube	-12.661
▁comparison	-12.661
▁crowbar	-12.661
▁disneyland	-12.661
▁equi	-12.661
▁expedition	-12.661
▁karate	-12.661
▁proposition	-12.661
▁transportation	-12.661
▁whining	-12.661
▁1960	-12.661
▁affectionate	-12.661
▁laboratory	-12.661
▁liberty	-12.661
▁1980	-12.661
▁mysteries	-12.661
▁riddle	-12.661
▁sweetheart	-12.661
▁bulletproof	-12.661
▁conserve	-12.661
▁edition	-12.661
▁brutal	-12.661
▁seafood	-12.661
▁fame	-12.661
▁pharmacist	-12.661
▁multiple	-12.661
▁saint	-12.661
▁dropping	-12.661
▁sunlight	-12.661
▁weaknesses	-12.661
▁defendant	-12.661
▁quantity	-12.661
▁sexy	-12.661
▁dna	-12.661
▁stray	-12.661
▁biologist	-12.661
▁civilian	-12.661
▁harmful	-12.661
▁controlled	-12.661
▁rusty	-12.661
▁infected	-12.661
▁vision	-12.661
▁tension	-12.6611
▁20%	-12.6611
▁angeles	-12.6611
▁identified	-12.6611
▁firemen	-12.6611
▁racing	-12.6611
▁slump	-12.6611
▁emerged	-12.6611
▁sack	-12.6612
▁passage	-12.6612
▁pacing	-12.6612
▁forgiveness	-12.6612
▁furnished	-12.6612
▁toaster	-12.6612
▁firing	-12.6613
▁dice	-12.6614
▁daydreaming	-12.6614
▁hospitality	-12.6615
▁tripped	-12.6615
▁staggered	-12.6615
▁blisters	-12.6616
▁intently	-12.6617
▁luna	-12.6617
▁overlooked	-12.6617
▁nosy	-12.6619
▁flattered	-12.6619
▁anti	-12.662
▁aquarium	-12.662
▁beaches	-12.6623
▁significantly	-12.6624
▁cooler	-12.6624
▁rewarded	-12.6625
▁housewife	-12.6626
▁teens	-12.6627
▁ancestors	-12.6627
▁lyrics	-12.6627
▁evacuated	-12.6629
▁sincerely	-12.663
▁protested	-12.663
▁advertised	-12.6632
▁unexpectedly	-12.6633
▁barked	-12.6634
▁quarreling	-12.6635
▁financially	-12.6636
▁tenth	-12.6642
ouched	-12.6643
▁responding	-12.6644
▁dam	-12.6645
▁flooded	-12.6648
▁chin	-12.6651
▁fighter	-12.6652
rolled	-12.6653
▁range	-12.6654
▁circled	-12.6658
▁volunteering	-12.6666
▁existed	-12.6668
▁repairs	-12.6688
▁endure	-12.6689
▁remaining	-12.6692
iffe	-12.67
▁walker	-12.6706
▁calmly	-12.6709
oph	-12.671
▁pouring	-12.672
▁concentrated	-12.6721
▁scam	-12.6723
▁dolphins	-12.674
▁produces	-12.674
▁laps	-12.6751
▁ties	-12.6753
ard	-12.6755
▁rip	-12.6759
▁wit	-12.6777
ise	-12.6788
▁goats	-12.6794
▁antiques	-12.6808
▁flown	-12.6827
▁temples	-12.6842
▁standards	-12.6843
▁pile	-12.6863
▁hamburgers	-12.6865
▁squirrels	-12.6865
▁candidates	-12.6877
▁troubles	-12.6901
9.	-12.6918
8.	-12.6922
▁nightmares	-12.6923
▁sights	-12.6933
nterpreted	-12.6936
ia	-12.6954
▁beers	-12.6981
▁impartial	-12.7012
fi	-12.7032
▁du	-12.7054
▁forks	-12.7062
▁ge	-12.7069
▁rinse	-12.7076
am	-12.7079
▁70	-12.7104
absorbed	-12.7112
▁ab	-12.7132
▁camel	-12.7136
▁views	-12.7144
▁cds	-12.716
▁islands	-12.716
▁restrain	-12.7165
▁sweets	-12.7167
▁tables	-12.717
sure	-12.7174
ial	-12.7195
▁screams	-12.7205
hour	-12.7212
▁lu	-12.7216
▁sto	-12.7222
▁recycle	-12.7252
ball	-12.7258
▁demonstration	-12.7263
▁chemical	-12.7263
▁detectives	-12.7275
▁medications	-12.7275
▁produce	-12.7281
▁tractor	-12.7282
▁ruins	-12.7288
▁acid	-12.7289
▁bulb	-12.729
▁napkin	-12.729
▁spouse	-12.729
▁spirit	-12.7293
▁cigar	-12.7297
▁assumption	-12.7297
▁contribution	-12.7299
▁harass	-12.73
▁dolphin	-12.7304
▁cable	-12.7304
▁negotiation	-12.7307
▁insect	-12.7308
▁expense	-12.7308
▁cl	-12.7309
▁item	-12.7312
▁farms	-12.7312
▁ax	-12.7327
▁recording	-12.7334
▁accounts	-12.7334
▁host	-12.7336
▁warnings	-12.7359
ternal	-12.7362
▁machines	-12.7377
▁stir	-12.7383
▁dim	-12.739
▁bombs	-12.7397
harmed	-12.7402
down	-12.7412
▁swor	-12.742
▁denie	-12.7425
▁launch	-12.7432
point	-12.7432
conscious	-12.7433
▁exercises	-12.7433
founded	-12.7433
four	-12.7434
length	-12.7434
concerned	-12.7434
▁honk	-12.7436
▁unbelievabl	-12.7442
▁disco	-12.7442
▁eccentric	-12.7443
▁terrify	-12.7443
▁vietnam	-12.7443
;	-12.7443
▁aloud	-12.7443
▁arrogance	-12.7443
▁asylum	-12.7443
▁bizarre	-12.7443
▁bookshelf	-12.7443
▁certificate	-12.7443
▁cholesterol	-12.7443
▁commotion	-12.7443
▁context	-12.7443
▁curfew	-12.7443
▁disobey	-12.7443
▁escort	-12.7443
▁fierce	-12.7443
▁flustered	-12.7443
▁geography	-12.7443
▁george	-12.7443
▁glue	-12.7443
▁handicapped	-12.7443
▁handshake	-12.7443
▁hypocritical	-12.7443
▁impulsive	-12.7443
▁incurable	-12.7443
▁jesus	-12.7443
▁juggle	-12.7443
▁kyushu	-12.7443
▁mattress	-12.7443
▁mischievous	-12.7443
▁monroe	-12.7443
▁napoleon	-12.7443
▁necessity	-12.7443
▁nightclub	-12.7443
▁offense	-12.7443
▁penalty	-12.7443
▁physician	-12.7443
▁repay	-12.7443
▁representative	-12.7443
▁shanghai	-12.7443
▁stepfather	-12.7443
▁unanswered	-12.7443
▁unemployment	-12.7443
▁unenthusiastic	-12.7443
▁unhealthy	-12.7443
▁crane	-12.7443
▁devastating	-12.7443
▁journalism	-12.7443
▁kingdom	-12.7443
▁lemonade	-12.7443
▁stung	-12.7443
▁toyota	-12.7443
▁vegan	-12.7443
▁bassoon	-12.7443
▁delusional	-12.7443
▁bankruptcy	-12.7443
▁finance	-12.7443
▁patrol	-12.7443
▁outrageous	-12.7443
▁status	-12.7443
▁foul	-12.7443
▁8:30	-12.7443
▁agency	-12.7443
▁architecture	-12.7443
▁authorities	-12.7443
▁materialistic	-12.7443
▁yank	-12.7443
▁reckon	-12.7443
▁noticing	-12.7443
▁cancelled	-12.7443
▁tiring	-12.7443
▁courtroom	-12.7443
▁steadily	-12.7443
▁motivation	-12.7444
▁panicked	-12.7444
▁tailor	-12.7444
▁bedside	-12.7444
▁monk	-12.7444
▁wrestling	-12.7444
▁northern	-12.7444
▁humming	-12.7444
▁crook	-12.7444
▁barrel	-12.7444
▁virus	-12.7444
▁nomination	-12.7444
▁orbit	-12.7444
▁batter	-12.7444
▁moonlight	-12.7444
▁cupboard	-12.7445
▁mailman	-12.7445
▁shelves	-12.7445
▁snapped	-12.7445
▁bung	-12.7445
▁chilly	-12.7446
▁frowned	-12.7446
▁sneaky	-12.7446
▁waterproof	-12.7446
▁drought	-12.7446
▁scanne	-12.7446
▁heroes	-12.7447
▁pastor	-12.7447
▁pinch	-12.7447
▁unloaded	-12.7448
▁admirer	-12.7448
▁refreshing	-12.7448
▁twisted	-12.7449
▁skater	-12.7449
▁cuba	-12.745
▁statistics	-12.745
▁dreadful	-12.7451
▁rattled	-12.7451
▁consistent	-12.7451
▁faded	-12.7452
▁giggled	-12.7452
▁crate	-12.7452
skirts	-12.7453
▁tenor	-12.7453
▁doorway	-12.7453
▁assembled	-12.7454
▁beware	-12.7458
▁buyer	-12.7463
▁lame	-12.7463
▁choppe	-12.7464
▁moody	-12.7464
▁lunchtime	-12.7466
▁marked	-12.7467
▁produced	-12.747
▁dinosaurs	-12.7474
▁stretche	-12.7475
▁estimated	-12.7475
▁hasty	-12.7475
▁bandaged	-12.748
▁listener	-12.7482
▁stroll	-12.7482
▁roughly	-12.7482
▁buttons	-12.7483
▁span	-12.7483
hurt	-12.7486
▁obstacles	-12.7486
▁fr	-12.75
▁spra	-12.7505
▁creeps	-12.7511
▁dreamer	-12.7511
▁expires	-12.7511
▁sch	-12.7518
▁candid	-12.7519
▁substitute	-12.752
▁kit	-12.7523
▁donations	-12.7523
▁dragons	-12.7524
▁allegations	-12.7535
so	-12.7548
take	-12.7554
▁unpack	-12.7556
▁el	-12.7559
▁bull	-12.7572
▁drinker	-12.7576
▁net	-12.7579
▁predictions	-12.7597
▁fiddle	-12.7612
▁th	-12.7622
▁subjects	-12.7634
▁lightly	-12.7646
▁drops	-12.7652
▁europeans	-12.7659
off	-12.767
▁farther	-12.767
▁boils	-12.7672
▁strings	-12.7684
dding	-12.7687
um	-12.7687
▁submitt	-12.7688
▁advantages	-12.7702
▁damages	-12.7705
▁fatal	-12.7708
be	-12.7722
▁rack	-12.7729
▁booked	-12.7744
▁ironic	-12.7753
▁17	-12.7764
▁ke	-12.7787
▁skis	-12.7801
▁chase	-12.7804
▁rank	-12.7812
ring	-12.7818
ki	-12.782
▁hu	-12.7824
▁gut	-12.7826
as	-12.7836
▁hip	-12.7862
▁rubb	-12.788
rry	-12.7883
▁scratche	-12.7901
and	-12.7904
▁relieve	-12.7905
▁alternatives	-12.7912
▁min	-12.7915
▁chas	-12.7916
▁cha	-12.7918
▁bum	-12.7924
▁wheels	-12.7938
▁religions	-12.7951
▁beep	-12.7957
▁inter	-12.7984
▁situations	-12.7995
▁planets	-12.8033
▁sketch	-12.8037
going	-12.8053
▁harp	-12.8096
based	-12.8111
▁origin	-12.8142
test	-12.8144
▁plug	-12.8166
▁tan	-12.8172
▁parrot	-12.8173
▁disk	-12.8173
▁swing	-12.8176
1.	-12.8193
▁critic	-12.8194
▁spade	-12.8199
▁shadow	-12.8204
▁achievement	-12.8211
▁firefighter	-12.8211
▁tale	-12.8214
▁pigeon	-12.8214
▁prayer	-12.8215
▁instinct	-12.8215
▁thirtie	-12.8217
▁bond	-12.822
▁14	-12.8231
▁miner	-12.8231
▁trans	-12.8232
▁traveler	-12.8239
▁bend	-12.8256
til	-12.8312
▁zip	-12.8315
by	-12.8317
▁pier	-12.8325
▁manipulate	-12.8327
▁bedrooms	-12.8327
▁reschedule	-12.8328
▁intervene	-12.8329
▁evacuate	-12.833
▁blink	-12.8331
▁expose	-12.8331
▁distract	-12.8332
▁bless	-12.8335
▁funnie	-12.8337
proof	-12.8339
▁represent	-12.834
▁drama	-12.8341
wilder	-12.8341
▁surf	-12.8342
keeper	-12.8342
view	-12.8343
considerate	-12.8343
great	-12.8343
mouth	-12.8343
please	-12.8343
eight	-12.8343
▁strip	-12.8346
▁unsuccessful	-12.8346
▁limp	-12.8346
▁eloquent	-12.8346
▁vivid	-12.8347
▁hysterical	-12.8347
▁eag	-12.8352
▁multi	-12.8352
▁corrupt	-12.8352
▁meteor	-12.8352
▁amazon	-12.8352
▁chalk	-12.8352
▁delegat	-12.8352
▁dishwasher	-12.8352
▁jefferson	-12.8352
▁abducted	-12.8352
▁altogether	-12.8352
▁ambidextrous	-12.8352
▁autistic	-12.8352
▁binoculars	-12.8352
▁breeze	-12.8352
▁bundle	-12.8352
▁burden	-12.8352
▁caution	-12.8352
▁chaotic	-12.8352
▁confusion	-12.8352
▁encounter	-12.8352
▁episode	-12.8352
▁esperanto	-12.8352
▁fraud	-12.8352
▁glimpse	-12.8352
▁gravy	-12.8352
▁hoax	-12.8352
▁hollywood	-12.8352
▁inflexible	-12.8352
▁investigator	-12.8352
▁mandolin	-12.8352
▁mankind	-12.8352
▁nude	-12.8352
▁nutritious	-12.8352
▁outcome	-12.8352
▁policies	-12.8352
▁portrait	-12.8352
▁preoccupied	-12.8352
▁probation	-12.8352
▁remedy	-12.8352
▁revolt	-12.8352
▁seasick	-12.8352
▁snowstorm	-12.8352
▁summit	-12.8352
▁surviving	-12.8352
▁tackle	-12.8352
▁trivial	-12.8352
▁troubling	-12.8352
▁twenties	-12.8352
▁undependable	-12.8352
▁untrustworthy	-12.8352
▁welfare	-12.8352
▁farewell	-12.8352
▁irreplaceable	-12.8352
▁ponytail	-12.8352
▁slope	-12.8352
▁zone	-12.8352
▁editor	-12.8352
▁ferry	-12.8352
▁armchair	-12.8352
▁jaw	-12.8352
▁domestic	-12.8352
▁earliest	-12.8352
▁tissue	-12.8352
▁begging	-12.8352
▁jelly	-12.8352
▁autopsy	-12.8352
▁sloppy	-12.8352
▁spinning	-12.8352
▁kong	-12.8352
▁stitches	-12.8352
▁cheesecake	-12.8352
▁orphanage	-12.8352
▁protesters	-12.8352
▁squash	-12.8352
▁agriculture	-12.8353
▁fuse	-12.8353
▁astrology	-12.8353
▁colony	-12.8353
▁consultant	-12.8353
▁overhead	-12.8353
▁membership	-12.8353
▁articulate	-12.8353
▁drift	-12.8353
▁tide	-12.8353
▁enlisted	-12.8353
▁bodies	-12.8353
▁feedback	-12.8353
▁documentary	-12.8353
▁branches	-12.8353
▁visible	-12.8353
▁breast	-12.8354
▁keyboard	-12.8354
▁heroin	-12.8354
▁breakdown	-12.8354
▁hardware	-12.8354
▁unfolded	-12.8354
▁spotted	-12.8354
▁yea	-12.8354
▁handball	-12.8355
▁acknowledge	-12.8355
▁popularity	-12.8355
▁mock	-12.8355
▁exhausting	-12.8355
▁glared	-12.8356
▁hatred	-12.8356
▁entertaining	-12.8356
▁deprived	-12.8356
▁groaned	-12.8356
▁pine	-12.8356
▁unfi	-12.8357
▁tube	-12.8357
▁outspoken	-12.8357
▁cheapest	-12.8358
▁hail	-12.8358
▁darkness	-12.8358
▁sunburned	-12.8359
▁app	-12.8359
▁refreshed	-12.8359
▁frequent	-12.836
ro	-12.836
▁pickles	-12.836
▁linguistics	-12.836
▁accountable	-12.836
▁mustard	-12.8361
▁englishman	-12.8362
▁polluted	-12.8363
▁ranger	-12.8363
▁rung	-12.8364
▁proficient	-12.8365
▁attentively	-12.8366
▁explored	-12.8366
▁strongest	-12.8367
▁shortest	-12.8369
▁revealed	-12.8369
▁rebellion	-12.8369
▁restart	-12.837
▁attacks	-12.8371
▁thesis	-12.8371
▁maintained	-12.8372
▁ducked	-12.8375
ors	-12.8375
▁sharpening	-12.8379
▁ar	-12.8381
▁tad	-12.8387
▁bells	-12.8388
▁goof	-12.8391
ced	-12.8391
▁sticks	-12.8394
▁ongoing	-12.8394
▁senat	-12.8398
▁residents	-12.84
▁applicants	-12.84
▁convert	-12.8405
▁brightly	-12.8405
▁behaves	-12.8406
▁anxiously	-12.8418
▁suspiciously	-12.8418
▁bragg	-12.8427
▁coats	-12.8436
▁needy	-12.8436
▁pandas	-12.844
▁flames	-12.844
▁brat	-12.8448
▁internal	-12.8452
▁everest	-12.8453
▁prayers	-12.8495
▁tales	-12.8495
rely	-12.8498
▁fruits	-12.8512
▁33	-12.8514
▁poorly	-12.8518
▁150	-12.8523
▁swamp	-12.8526
▁disagrees	-12.8549
▁ca	-12.8549
▁doubled	-12.8553
▁dine	-12.8556
▁issued	-12.8577
▁shares	-12.8584
▁judged	-12.8586
▁elder	-12.86
▁thumbs	-12.8604
▁cultur	-12.8604
unk	-12.8619
▁economical	-12.8635
▁lungs	-12.8645
stating	-12.8646
▁mo	-12.8656
▁tucke	-12.8659
▁channels	-12.8659
tted	-12.8673
▁heal	-12.8675
▁newly	-12.8682
ied	-12.8699
▁scrap	-12.87
▁african	-12.8723
▁ga	-12.8728
▁beards	-12.8748
▁rag	-12.8752
na	-12.8762
▁bridges	-12.8768
▁snuggle	-12.8787
partially	-12.8787
▁taxis	-12.8787
▁elevators	-12.8792
▁licensed	-12.8807
▁l	-12.8808
▁appearances	-12.8855
▁fails	-12.8868
▁vegetarians	-12.8883
▁artists	-12.889
▁st	-12.8897
con	-12.8902
▁finishe	-12.8905
7.	-12.8913
▁interpret	-12.8938
▁nut	-12.8956
▁liars	-12.8984
▁22	-12.9015
ingly	-12.9022
ack	-12.9038
▁characters	-12.904
ah	-12.9059
▁dangers	-12.9062
▁dock	-12.9072
▁boo	-12.9095
▁handles	-12.9107
▁vowe	-12.913
▁wak	-12.9139
bo	-12.9154
most	-12.9162
▁troublemaker	-12.9173
▁stunt	-12.9174
▁moron	-12.9175
▁sneeze	-12.918
boyfriend	-12.919
▁autograph	-12.9192
▁clown	-12.9192
▁legend	-12.9192
girlfriend	-12.9197
▁christian	-12.9199
▁marine	-12.92
▁emotion	-12.9201
▁trend	-12.9203
▁industrial	-12.9203
▁competitor	-12.9204
▁migraine	-12.9204
▁classic	-12.9204
▁belief	-12.9208
io	-12.9211
▁servant	-12.9214
▁olympic	-12.9215
▁stink	-12.9215
▁factor	-12.9216
▁consequence	-12.9217
▁lip	-12.9217
▁classmate	-12.9218
▁principle	-12.9241
▁duff	-12.9245
▁digest	-12.9258
▁terrorist	-12.9276
hopped	-12.9293
mmed	-12.9317
eath	-12.9325
▁pun	-12.933
▁yawn	-12.9332
▁motorcycles	-12.9332
▁whisper	-12.9333
▁refus	-12.9333
▁warrant	-12.9336
ter	-12.9337
▁anticipat	-12.9339
▁flatter	-12.934
▁scold	-12.9341
mail	-12.9341
▁upload	-12.9342
rung	-12.9343
decisive	-12.9343
sincere	-12.9343
familiar	-12.9343
strong	-12.9343
▁skateboard	-12.9344
▁spots	-12.9345
▁bleed	-12.9345
▁terror	-12.9345
▁snowboard	-12.9346
does	-12.9349
▁blend	-12.935
▁thirst	-12.9351
▁auto	-12.9351
▁profession	-12.9352
▁volcano	-12.9352
▁applause	-12.9352
▁arithmetic	-12.9352
▁avenue	-12.9352
▁babbling	-12.9352
▁bacteria	-12.9352
▁challenging	-12.9352
▁concentration	-12.9352
▁council	-12.9352
▁cremated	-12.9352
▁cricket	-12.9352
▁delirious	-12.9352
▁dilemma	-12.9352
▁discrimination	-12.9352
▁distraught	-12.9352
▁dutch	-12.9352
▁dynamite	-12.9352
▁emigrate	-12.9352
▁empire	-12.9352
▁escaping	-12.9352
▁exaggeration	-12.9352
▁gravity	-12.9352
▁hairdresser	-12.9352
▁hypothesis	-12.9352
▁infinite	-12.9352
▁inseparable	-12.9352
▁interfering	-12.9352
▁lamb	-12.9352
▁legitimate	-12.9352
▁manuscript	-12.9352
▁masterpiece	-12.9352
▁okinawa	-12.9352
▁pamphlet	-12.9352
▁penniless	-12.9352
▁prescribed	-12.9352
▁privilege	-12.9352
▁sacred	-12.9352
▁session	-12.9352
▁skydiving	-12.9352
▁sophomore	-12.9352
▁steep	-12.9352
▁stranded	-12.9352
▁subscribe	-12.9352
▁syrup	-12.9352
▁tequila	-12.9352
▁treason	-12.9352
▁unnoticed	-12.9352
▁unsafe	-12.9352
▁unsociable	-12.9352
▁vacant	-12.9352
▁vaccine	-12.9352
▁whatsoever	-12.9352
▁workaholic	-12.9352
▁austria	-12.9352
▁barbershop	-12.9352
▁barricade	-12.9352
▁calories	-12.9352
▁fossil	-12.9352
▁grumbling	-12.9352
▁humiliating	-12.9352
▁manipulative	-12.9352
▁possessive	-12.9352
▁arabic	-12.9352
▁contrary	-12.9352
▁storage	-12.9352
▁uncor	-12.9352
▁compassionate	-12.9352
▁wicked	-12.9352
▁buddies	-12.9352
▁constructive	-12.9352
▁gangster	-12.9352
▁irish	-12.9352
▁thread	-12.9352
▁vigilant	-12.9352
esteem	-12.9352
▁bygones	-12.9352
▁filter	-12.9352
▁heartbreaking	-12.9352
▁misplace	-12.9352
▁toolbox	-12.9352
▁1990	-12.9352
▁graphic	-12.9352
▁define	-12.9352
▁impeccable	-12.9352
▁rowboat	-12.9352
▁scout	-12.9352
▁liking	-12.9352
▁encouragement	-12.9352
▁tuna	-12.9352
▁underwear	-12.9352
▁unsolved	-12.9352
▁$1,000	-12.9352
▁documentaries	-12.9352
▁grasp	-12.9352
▁hypocrite	-12.9352
▁tango	-12.9352
▁coke	-12.9352
▁dense	-12.9352
▁confidential	-12.9353
▁dormitory	-12.9353
▁whisky	-12.9353
▁cia	-12.9353
▁muggy	-12.9353
▁iceberg	-12.9353
▁27	-12.9353
▁extinguisher	-12.9353
▁1939	-12.9353
▁marble	-12.9353
▁kidney	-12.9353
▁tasty	-12.9353
onald	-12.9353
▁shortcut	-12.9353
▁crackers	-12.9353
▁mommy	-12.9353
▁ego	-12.9353
▁protein	-12.9353
▁100%	-12.9353
▁booth	-12.9353
▁mortal	-12.9353
▁drill	-12.9353
▁bold	-12.9353
▁worldwide	-12.9353
▁agony	-12.9353
terior	-12.9353
▁wrongdoing	-12.9354
▁amputated	-12.9354
▁horseback	-12.9354
▁prospect	-12.9354
▁prudent	-12.9354
▁disagreement	-12.9354
▁motionless	-12.9354
▁obtain	-12.9355
trip	-12.9355
▁suing	-12.9355
▁preferred	-12.9355
▁analysis	-12.9355
▁producer	-12.9355
▁hotter	-12.9355
▁checkers	-12.9356
▁maniac	-12.9356
▁invaded	-12.9356
▁cnn	-12.9356
▁dearly	-12.9356
▁distressed	-12.9357
▁meaningless	-12.9357
▁madman	-12.9357
▁underage	-12.9358
▁introverted	-12.9358
▁choked	-12.9358
▁brighter	-12.936
▁alphabetical	-12.936
▁tempting	-12.936
▁solo	-12.936
▁beatles	-12.9361
▁tricky	-12.9362
▁sensation	-12.9362
▁curve	-12.9362
▁simpler	-12.9362
▁weaker	-12.9363
▁brownies	-12.9363
▁passionately	-12.9364
▁blankly	-12.9366
▁foundation	-12.9367
▁tempt	-12.937
ley	-12.937
▁developing	-12.937
▁consented	-12.937
▁mowing	-12.9374
▁erase	-12.9375
▁shoveling	-12.9375
▁taxpayers	-12.9375
▁fingernails	-12.9375
▁steals	-12.9377
▁firmly	-12.9382
▁contradicted	-12.9382
▁bloody	-12.9382
viet	-12.9383
▁tender	-12.9388
▁surroundings	-12.939
▁judgement	-12.9397
▁honored	-12.9398
dental	-12.94
▁quarreled	-12.9401
nic	-12.9403
▁poster	-12.9405
▁rowing	-12.9406
▁foolishly	-12.9408
smarte	-12.9409
▁shoplift	-12.9412
▁193	-12.9412
▁dread	-12.9413
▁irres	-12.9413
▁spreading	-12.9414
▁ingredients	-12.942
▁references	-12.942
▁sirens	-12.942
▁zippe	-12.9421
▁engineers	-12.9422
▁advocate	-12.9424
legible	-12.943
▁pears	-12.9435
▁debated	-12.9438
▁marketing	-12.9448
▁braces	-12.9449
ug	-12.9454
▁worms	-12.9463
▁tuned	-12.9477
▁45	-12.9479
cy	-12.9485
▁principles	-12.9494
▁sufficient	-12.9495
▁stoned	-12.9505
▁finest	-12.9506
▁defuse	-12.9509
▁elections	-12.951
▁firefighters	-12.951
▁sadly	-12.9515
▁errands	-12.9541
▁aches	-12.9541
▁sets	-12.9549
▁sailors	-12.9556
wrapped	-12.9557
▁pearls	-12.9571
▁kne	-12.9583
▁signing	-12.9586
▁mc	-12.9604
fully	-12.9622
▁lemons	-12.9632
▁opponents	-12.9632
▁blues	-12.9636
▁incomplete	-12.9641
mposed	-12.9649
▁germans	-12.9678
▁testing	-12.9683
▁explanations	-12.9686
▁pat	-12.969
▁tonic	-12.9698
▁patte	-12.9715
▁insults	-12.9725
▁killers	-12.9728
▁joint	-12.974
▁divers	-12.9755
▁postcards	-12.9756
▁parks	-12.9767
▁masks	-12.9771
there	-12.9802
▁billions	-12.9803
ra	-12.9804
▁constitution	-12.9816
▁threats	-12.9818
serted	-12.9838
6.	-12.9851
▁holster	-12.9879
chi	-12.9883
▁rob	-12.9888
▁timer	-12.9891
▁reasoning	-12.9907
▁teams	-12.9908
▁ro	-12.9927
▁peppers	-12.9928
▁pigs	-12.9928
que	-12.9935
▁skates	-12.9944
▁athletes	-12.9944
▁trusting	-12.9949
00	-12.9958
▁girlfriends	-12.9999
▁clubs	-13.0003
dison	-13.0004
▁spoons	-13.0007
▁topics	-13.0023
▁carpenters	-13.0071
stalled	-13.0098
▁robe	-13.0127
▁submit	-13.0146
ating	-13.016
▁pizzas	-13.0174
▁brew	-13.0175
▁tattoos	-13.0185
▁spl	-13.0201
▁strikes	-13.025
▁mi	-13.0259
▁guitars	-13.0262
4	-13.0266
abbed	-13.0277
▁jo	-13.0278
▁commission	-13.0285
▁wrestler	-13.0285
▁frame	-13.0293
▁sail	-13.0298
▁cartoon	-13.0303
▁canal	-13.0311
▁vice	-13.0311
▁melon	-13.0311
▁giraffe	-13.0315
▁device	-13.0315
▁ballot	-13.0318
▁motive	-13.0319
▁rival	-13.0319
▁precaution	-13.0321
▁attacker	-13.0323
▁lifeguard	-13.0323
▁supplie	-13.0324
▁backward	-13.0331
▁ju	-13.0334
ities	-13.0341
▁seal	-13.04
▁sal	-13.041
▁da	-13.042
▁includ	-13.0436
▁preserve	-13.0438
▁drag	-13.0439
▁delete	-13.0442
▁capture	-13.0442
▁locate	-13.0442
▁resolve	-13.0444
▁disgust	-13.0444
▁drown	-13.0444
▁prevail	-13.045
employed	-13.0453
elected	-13.0454
▁wax	-13.0454
defeated	-13.0454
third	-13.0454
blood	-13.0455
judged	-13.0456
▁spil	-13.0456
stayed	-13.0456
▁apprehensive	-13.0457
▁rapid	-13.0458
▁apparent	-13.0458
▁loo	-13.0458
▁evident	-13.0459
▁unlike	-13.0459
▁flaw	-13.0462
▁suck	-13.0462
▁peach	-13.0463
▁visibl	-13.0463
▁brag	-13.0463
▁compass	-13.0463
▁recess	-13.0463
▁drastic	-13.0463
▁omelet	-13.0463
cussion	-13.0463
▁egypt	-13.0463
▁continual	-13.0463
▁abundant	-13.0463
▁admiring	-13.0463
▁extinct	-13.0463
▁taiwan	-13.0463
▁trop	-13.0463
▁5:00	-13.0463
▁9:00	-13.0463
▁beethoven	-13.0463
▁beijing	-13.0463
▁bipolar	-13.0463
▁caffeine	-13.0463
▁celsius	-13.0463
▁comprehend	-13.0463
▁continuing	-13.0463
▁crude	-13.0463
▁crutches	-13.0463
▁dignified	-13.0463
▁finicky	-13.0463
▁hybrid	-13.0463
▁ignition	-13.0463
▁impulse	-13.0463
▁inhabitants	-13.0463
▁invalid	-13.0463
▁ipod	-13.0463
▁irritating	-13.0463
▁kanji	-13.0463
▁karaoke	-13.0463
▁knob	-13.0463
▁lacrosse	-13.0463
▁leisure	-13.0463
▁maintenance	-13.0463
▁mislead	-13.0463
▁portuguese	-13.0463
▁psyched	-13.0463
▁pursue	-13.0463
▁pyramid	-13.0463
▁razor	-13.0463
▁replied	-13.0463
▁sausage	-13.0463
▁shinjuku	-13.0463
▁shrugged	-13.0463
▁simplicity	-13.0463
▁spacious	-13.0463
▁stunning	-13.0463
▁superficial	-13.0463
▁surveillance	-13.0463
▁swedish	-13.0463
▁tournament	-13.0463
▁trading	-13.0463
▁typist	-13.0463
▁unethical	-13.0463
▁unforgivable	-13.0463
▁untru	-13.0463
▁warehouse	-13.0463
▁wrinkled	-13.0463
violet	-13.0463
▁credible	-13.0463
▁disqualified	-13.0463
▁plague	-13.0463
▁qualities	-13.0463
▁wimp	-13.0463
▁dripping	-13.0463
▁drugged	-13.0463
▁proactive	-13.0463
▁automatically	-13.0463
▁devious	-13.0463
▁massive	-13.0463
▁temperamental	-13.0463
▁colorblind	-13.0463
▁guidebook	-13.0463
▁nun	-13.0463
▁thailand	-13.0463
▁investors	-13.0463
▁headquarters	-13.0463
▁bonus	-13.0464
▁bummed	-13.0464
▁publisher	-13.0464
▁1950	-13.0464
▁1970	-13.0464
▁interpretation	-13.0464
▁swig	-13.0464
▁formula	-13.0464
▁sobbing	-13.0464
▁soared	-13.0464
▁detest	-13.0464
▁mama	-13.0464
▁pantry	-13.0464
▁dj	-13.0464
▁mole	-13.0464
▁programming	-13.0464
▁chopin	-13.0464
▁60	-13.0464
▁vital	-13.0464
▁advertisement	-13.0464
▁jammed	-13.0464
▁edible	-13.0464
▁physicist	-13.0464
▁cellmate	-13.0464
▁google	-13.0464
▁adjustment	-13.0464
▁iceland	-13.0464
▁clogged	-13.0464
▁brainwashed	-13.0464
▁groom	-13.0464
▁brass	-13.0464
▁govern	-13.0464
▁accomplishment	-13.0464
▁pluck	-13.0464
▁swu	-13.0464
▁ireland	-13.0465
▁informal	-13.0465
▁confiscated	-13.0465
▁scrambled	-13.0465
▁consumer	-13.0465
▁conquer	-13.0465
▁scen	-13.0465
▁unbuttoned	-13.0466
▁grain	-13.0466
▁overwhelming	-13.0466
▁operating	-13.0466
▁satisfaction	-13.0466
▁bravery	-13.0466
▁productive	-13.0466
▁slob	-13.0467
vid	-13.0467
▁bubble	-13.0467
▁cringed	-13.0467
▁dishonor	-13.0468
▁brandy	-13.0468
▁willpower	-13.0468
▁5%	-13.0468
▁riser	-13.0468
▁endors	-13.0468
▁braver	-13.0468
▁overworked	-13.0468
▁hacked	-13.0468
▁academic	-13.0469
▁implying	-13.0469
▁fabric	-13.0469
▁steering	-13.047
▁disagreeable	-13.047
▁rep	-13.047
▁commander	-13.0471
▁concluded	-13.0471
▁fearless	-13.0471
▁bay	-13.0471
▁weirdo	-13.0472
▁melting	-13.0472
▁noodles	-13.0473
▁handcuffs	-13.0473
▁evasive	-13.0473
▁limping	-13.0473
▁historical	-13.0473
▁tightened	-13.0474
▁departed	-13.0474
▁retreat	-13.0475
▁scoot	-13.0475
▁waxed	-13.0475
▁grind	-13.0476
▁sailed	-13.0476
▁camper	-13.0476
▁insured	-13.0476
▁favorable	-13.0478
▁funding	-13.0478
▁disciplined	-13.0478
▁expired	-13.0478
▁blessed	-13.0478
▁elegant	-13.0479
▁pounding	-13.0479
▁provoked	-13.0479
▁comedy	-13.048
▁priceless	-13.0484
▁bitterly	-13.0484
▁tougher	-13.0485
▁meantime	-13.0485
▁goose	-13.0486
▁renewed	-13.0488
▁regulations	-13.0489
▁printed	-13.0489
▁illusion	-13.0491
▁poorer	-13.0492
▁gallon	-13.0492
▁comforting	-13.0493
▁upsetting	-13.0494
▁endless	-13.0494
▁gro	-13.0495
▁jealousy	-13.0496
▁businesses	-13.0498
▁leaking	-13.0499
▁dresser	-13.05
▁widely	-13.0501
▁reread	-13.0503
▁recalled	-13.0504
▁updated	-13.0505
▁agoniz	-13.0506
▁castles	-13.0513
▁values	-13.0516
▁poisoning	-13.052
▁sharply	-13.052
▁hitch	-13.052
▁indicate	-13.0522
▁measurements	-13.0523
▁ashes	-13.0525
▁professionally	-13.0526
▁bugg	-13.0527
▁mattered	-13.0533
▁input	-13.0535
cing	-13.0536
▁cucumbers	-13.0539
▁feathers	-13.0539
▁slo	-13.0539
▁pronounced	-13.055
▁competed	-13.055
▁sting	-13.0554
▁sleeper	-13.0555
▁progressing	-13.0564
▁pa	-13.057
▁noises	-13.0573
▁coaching	-13.0579
▁cured	-13.0589
▁initials	-13.059
▁raises	-13.059
co	-13.059
▁melt	-13.06
▁freelance	-13.0606
▁melts	-13.0607
▁pint	-13.061
▁mich	-13.0611
ch	-13.0616
▁sn	-13.0618
▁hostil	-13.0621
run	-13.0631
▁blinded	-13.064
▁achievements	-13.0641
▁feared	-13.0644
▁covers	-13.0653
▁renovat	-13.0664
▁mailed	-13.0673
erial	-13.0681
▁dill	-13.069
▁liters	-13.0694
▁cons	-13.0704
▁robots	-13.071
▁freed	-13.0734
▁raid	-13.0737
▁soundly	-13.0741
▁pressured	-13.0753
▁disapprove	-13.0763
▁natives	-13.0763
▁acquaintances	-13.0779
▁writers	-13.0789
▁freezes	-13.0796
▁snores	-13.0797
▁wing	-13.0804
▁fees	-13.0815
▁cleaners	-13.0818
▁sharks	-13.0831
▁exaggerates	-13.0848
ions	-13.0849
airy	-13.087
mashed	-13.0872
▁blondes	-13.0884
▁cube	-13.0903
ger	-13.0906
poster	-13.091
cal	-13.0927
men	-13.0935
▁runners	-13.0938
▁chi	-13.0941
▁retires	-13.0946
▁drawers	-13.0991
▁gar	-13.1015
▁listed	-13.102
ided	-13.103
oni	-13.1034
▁shuffle	-13.1077
▁pros	-13.108
punk	-13.1081
▁peru	-13.1082
▁knitt	-13.1089
▁winners	-13.1095
▁$1	-13.1097
▁rises	-13.1099
▁fetch	-13.1125
▁pipes	-13.1131
aid	-13.1139
▁ka	-13.1141
▁imitat	-13.1144
3.	-13.1149
ray	-13.1151
▁35	-13.1152
▁revolve	-13.1182
▁prizes	-13.1183
4.	-13.1199
▁levels	-13.1203
▁compar	-13.121
▁wi	-13.1215
▁wip	-13.1216
▁helmets	-13.1221
▁solutions	-13.1222
ler	-13.1233
▁sp	-13.1267
▁ce	-13.127
▁aids	-13.127
▁evenings	-13.1271
land	-13.1275
▁corners	-13.1283
dy	-13.1304
▁losers	-13.1316
▁passwords	-13.1349
▁rolls	-13.136
▁gul	-13.1366
▁mon	-13.1372
▁moves	-13.1437
iz	-13.1455
▁strengths	-13.1478
▁evolution	-13.1478
▁mu	-13.1481
▁clocks	-13.1489
▁diploma	-13.1489
ization	-13.1497
▁chop	-13.1503
▁griev	-13.1505
ory	-13.153
▁arrests	-13.1536
▁depart	-13.1539
▁rebel	-13.1542
word	-13.1543
▁via	-13.1548
▁pumpkin	-13.1553
▁brochure	-13.1553
▁scheme	-13.1553
▁necktie	-13.1553
▁mammal	-13.1561
▁cheeseburger	-13.1561
▁initial	-13.1566
▁souvenir	-13.1567
▁senator	-13.1568
▁yards	-13.1569
▁mineral	-13.1574
▁allegation	-13.1574
▁teammate	-13.1576
▁footprint	-13.1576
▁alien	-13.1577
▁earring	-13.1578
▁outsider	-13.1586
▁worm	-13.1591
▁palm	-13.1595
▁examinations	-13.1598
pe	-13.1614
▁blush	-13.1627
shed	-13.1641
▁converte	-13.1641
▁flip	-13.1661
▁slam	-13.1663
break	-13.1665
▁forbid	-13.1674
▁catalog	-13.1683
▁badge	-13.1684
▁era	-13.1684
door	-13.1684
▁enforce	-13.1686
▁consume	-13.1688
▁parole	-13.169
▁tremble	-13.1691
▁humiliate	-13.1692
▁connect	-13.1692
▁applaud	-13.1692
▁dedicate	-13.1692
▁amaze	-13.1692
▁overlook	-13.1695
▁ruth	-13.1695
cooked	-13.1699
▁violate	-13.17
put	-13.1701
▁repaint	-13.1701
▁mount	-13.1701
▁suppress	-13.1701
▁neglect	-13.1702
eaten	-13.1702
slaughter	-13.1703
right	-13.1703
bite	-13.1704
election	-13.1704
▁lively	-13.1704
statement	-13.1704
dollar	-13.1704
debt	-13.1704
english	-13.1704
wives	-13.1705
bridge	-13.1705
▁raft	-13.1705
▁overreact	-13.1706
▁tremendous	-13.1707
▁skillful	-13.1708
▁dear	-13.1709
▁lump	-13.1712
▁confide	-13.1712
▁detect	-13.1713
▁flunk	-13.1713
▁republic	-13.1713
▁fright	-13.1713
▁trail	-13.1713
▁nick	-13.1713
▁boast	-13.1713
▁compell	-13.1713
▁concrete	-13.1713
▁conform	-13.1713
▁frugal	-13.1713
▁reassuring	-13.1713
▁ultra	-13.1713
▁3:00	-13.1713
▁accumulate	-13.1713
▁activist	-13.1713
▁antibiotics	-13.1713
▁appalled	-13.1713
▁archaeologist	-13.1713
▁asthma	-13.1713
▁badminton	-13.1713
▁blizzard	-13.1713
▁casino	-13.1713
▁cassette	-13.1713
▁caviar	-13.1713
▁celebrity	-13.1713
▁coca	-13.1713
▁coerced	-13.1713
▁competing	-13.1713
▁condominium	-13.1713
▁consumption	-13.1713
▁contingency	-13.1713
▁deficit	-13.1713
▁dubious	-13.1713
▁eclipse	-13.1713
▁exhaled	-13.1713
▁goggles	-13.1713
▁harmony	-13.1713
▁hiroshima	-13.1713
▁homicide	-13.1713
▁housing	-13.1713
▁irrational	-13.1713
▁jupiter	-13.1713
▁koala	-13.1713
▁lenient	-13.1713
▁margarine	-13.1713
▁messenger	-13.1713
▁monument	-13.1713
▁mumbling	-13.1713
▁nagano	-13.1713
▁obesity	-13.1713
▁optimism	-13.1713
▁ordeal	-13.1713
▁overjoyed	-13.1713
▁parliament	-13.1713
▁philosopher	-13.1713
▁plowed	-13.1713
▁plunged	-13.1713
▁prefecture	-13.1713
▁premonition	-13.1713
▁presume	-13.1713
▁profusely	-13.1713
▁raisins	-13.1713
▁rehearsal	-13.1713
▁singapore	-13.1713
▁smallpox	-13.1713
▁stereo	-13.1713
▁subtle	-13.1713
▁tactful	-13.1713
▁temporarily	-13.1713
▁thames	-13.1713
▁thomas	-13.1713
▁tobacco	-13.1713
▁trembling	-13.1713
▁trophy	-13.1713
▁tuition	-13.1713
▁unforgettable	-13.1713
▁unimaginative	-13.1713
▁uninteresting	-13.1713
▁unsophisticated	-13.1713
▁username	-13.1713
▁wrinkles	-13.1713
▁crystal	-13.1713
▁negotiator	-13.1713
▁obama	-13.1713
▁sailboat	-13.1713
▁vicious	-13.1713
▁amusement	-13.1713
▁demoted	-13.1713
▁floss	-13.1713
▁hamster	-13.1713
▁utmost	-13.1713
▁accordion	-13.1713
▁assessment	-13.1713
▁backseat	-13.1713
▁banquet	-13.1713
▁envious	-13.1713
▁excessive	-13.1713
▁hungarian	-13.1713
▁introduction	-13.1713
▁patio	-13.1713
▁straightforward	-13.1713
▁quiz	-13.1713
▁capacity	-13.1713
▁drenched	-13.1713
▁gulp	-13.1713
▁reload	-13.1713
▁puff	-13.1713
▁gallery	-13.1714
▁prophecy	-13.1714
▁employment	-13.1714
▁christianity	-13.1714
▁pledge	-13.1714
▁unprepared	-13.1714
▁unscrupulous	-13.1714
▁addictive	-13.1714
▁premise	-13.1714
▁kenne	-13.1714
▁comfortably	-13.1714
▁petty	-13.1714
▁chili	-13.1714
▁corruption	-13.1714
▁imaginary	-13.1714
▁180	-13.1714
▁buddy	-13.1714
▁substantial	-13.1714
▁similarities	-13.1714
▁inspector	-13.1714
▁combine	-13.1714
▁cozy	-13.1714
▁mule	-13.1714
▁replacement	-13.1714
▁lounge	-13.1714
▁currency	-13.1714
▁lenses	-13.1714
▁zipper	-13.1714
▁eavesdropping	-13.1714
▁clint	-13.1714
▁decorating	-13.1714
▁compatible	-13.1714
▁gauge	-13.1714
▁distraction	-13.1714
▁swiss	-13.1714
▁accessible	-13.1714
▁mesmerized	-13.1714
▁plastered	-13.1714
▁gown	-13.1714
▁specialty	-13.1714
▁testified	-13.1714
▁squad	-13.1714
▁intentional	-13.1715
▁landscape	-13.1715
▁complexion	-13.1715
▁thrilling	-13.1715
▁waterfall	-13.1715
▁hitchhiker	-13.1715
▁sunk	-13.1715
▁heroic	-13.1715
▁mass	-13.1716
eval	-13.1716
▁windsurfing	-13.1716
▁selected	-13.1716
▁sustained	-13.1716
▁honorable	-13.1716
▁reasonably	-13.1717
▁cashier	-13.1717
▁dodge	-13.1717
▁pope	-13.1717
▁astonishing	-13.1718
▁busiest	-13.1718
▁fashionable	-13.1718
▁educational	-13.1718
▁knowledgeable	-13.1719
▁extinguished	-13.1719
▁pled	-13.1719
▁brightest	-13.1719
▁perfection	-13.172
▁handful	-13.172
▁hysterically	-13.1721
▁entertained	-13.1721
fire	-13.1721
▁burglary	-13.1722
▁network	-13.1722
▁curl	-13.1722
▁dwell	-13.1723
▁tighten	-13.1723
▁snowboarding	-13.1724
▁strangled	-13.1724
▁pupils	-13.1724
▁cling	-13.1725
▁suppressed	-13.1725
▁mounted	-13.1726
▁rebuild	-13.1726
seven	-13.1726
▁eliminated	-13.1727
▁bugged	-13.1727
▁successes	-13.1728
▁slide	-13.173
▁timetable	-13.173
▁bullying	-13.173
▁represented	-13.173
▁justify	-13.1731
▁fitting	-13.1731
▁upper	-13.1732
▁grim	-13.1732
▁sweeping	-13.1733
▁blackmailed	-13.1735
six	-13.1736
stepp	-13.1736
▁trembled	-13.1736
▁devou	-13.1736
think	-13.1737
2	-13.1738
▁ruler	-13.1738
▁cursed	-13.1739
▁insulting	-13.174
martial	-13.1741
▁prude	-13.1742
▁heir	-13.1743
▁hunted	-13.1746
▁13-	-13.1748
fourth	-13.1748
▁insight	-13.175
▁pardoned	-13.1751
▁accidental	-13.1755
▁idle	-13.1756
▁conducted	-13.1756
▁ni	-13.1756
▁lens	-13.1759
▁stained	-13.176
▁chained	-13.1761
▁reconsidered	-13.1763
anda	-13.1763
▁shameful	-13.1765
▁unz	-13.1766
▁unfairly	-13.1767
▁eagerly	-13.1772
▁soy	-13.1773
▁stuffy	-13.1774
▁interrogat	-13.1776
▁spelled	-13.1778
▁darts	-13.1781
▁inventor	-13.1783
▁hammered	-13.1788
▁dies	-13.1792
▁negotiated	-13.1797
▁ribs	-13.1801
▁tattooed	-13.1801
▁proposals	-13.1801
▁freshly	-13.1814
▁successfully	-13.1815
▁influenced	-13.1817
▁drying	-13.1817
term	-13.1824
▁reduced	-13.1824
▁bombed	-13.1825
ac	-13.1826
this	-13.1827
away	-13.1829
ling	-13.1829
▁creat	-13.186
▁ch	-13.1862
▁figur	-13.1866
▁harmed	-13.1867
▁desired	-13.187
ural	-13.1876
▁lifeguards	-13.1878
▁precautions	-13.1878
▁onion	-13.1879
▁keeper	-13.1886
▁recit	-13.1893
40	-13.1899
hal	-13.1905
▁undergo	-13.1909
rink	-13.1911
plugged	-13.1922
▁cruise	-13.1933
rate	-13.1943
▁actors	-13.1951
▁dared	-13.1985
▁suspicions	-13.1995
taking	-13.1999
▁digit	-13.1999
dies	-13.2001
stable	-13.2045
per	-13.2052
▁traditions	-13.2056
ko	-13.206
▁costly	-13.2062
don	-13.2063
▁mont	-13.207
▁generations	-13.2074
end	-13.2084
▁risen	-13.2093
▁frogs	-13.2094
▁na	-13.2126
lin	-13.2133
▁awards	-13.2135
▁reporters	-13.2139
▁participa	-13.2151
▁aback	-13.2154
ified	-13.2155
nel	-13.2193
▁floats	-13.2194
▁automobiles	-13.2194
▁adventures	-13.2214
▁pointing	-13.2223
ery	-13.2237
▁believer	-13.224
▁fists	-13.2253
▁bachelors	-13.2254
za	-13.2273
ana	-13.2282
▁packages	-13.2285
▁specifics	-13.2295
▁icon	-13.2305
▁90	-13.2309
▁ret	-13.2319
lung	-13.2341
vering	-13.2346
▁26	-13.2409
bel	-13.2434
▁billi	-13.2457
▁connections	-13.2459
▁dep	-13.2463
tible	-13.2477
teres	-13.2487
▁prune	-13.2487
ile	-13.249
▁199	-13.2495
▁ven	-13.2513
▁experiments	-13.2521
▁par	-13.2549
▁lon	-13.258
0.	-13.2582
▁requests	-13.2594
enched	-13.2622
20	-13.2627
▁li	-13.2636
edication	-13.2656
▁gra	-13.2666
ize	-13.267
▁unle	-13.2672
owing	-13.2734
▁bowls	-13.2765
▁186	-13.2773
wed	-13.2797
▁swa	-13.2799
▁showers	-13.2832
▁fashions	-13.2858
ey	-13.2859
ify	-13.2876
▁tents	-13.2877
uttered	-13.2879
worm	-13.2879
long	-13.2879
▁rio	-13.2886
▁tickle	-13.2887
ashed	-13.2887
ame	-13.2891
▁gaz	-13.2909
▁bon	-13.2909
▁films	-13.2923
▁dragon	-13.2937
▁minors	-13.2944
▁tease	-13.295
▁inspect	-13.2958
▁tablecloth	-13.2964
▁curse	-13.2967
▁expand	-13.2973
▁stool	-13.2982
▁roman	-13.2985
▁moist	-13.2986
▁zombie	-13.2989
▁communist	-13.2989
▁cheerleader	-13.2989
▁brick	-13.2993
▁scale	-13.2994
▁decade	-13.2996
▁chapter	-13.2998
▁owl	-13.2998
▁spun	-13.3001
▁panda	-13.3002
▁flame	-13.3002
▁muscle	-13.3004
▁brace	-13.3004
▁kilogram	-13.3006
▁impressions	-13.301
shirts	-13.3021
shaped	-13.3026
▁outdoor	-13.3031
▁donor	-13.3033
▁sub	-13.3035
▁moments	-13.3049
▁loa	-13.3052
▁winds	-13.3063
la	-13.3065
located	-13.3085
▁invent	-13.3087
▁ba	-13.3089
work	-13.3096
▁copie	-13.3098
▁grad	-13.3102
▁elect	-13.3108
▁overhear	-13.3112
▁intrude	-13.3114
▁mono	-13.3117
▁sympathize	-13.3118
▁explore	-13.3119
▁distinct	-13.312
▁alter	-13.312
▁pause	-13.312
▁discourage	-13.3121
▁seize	-13.3121
▁promote	-13.3121
▁hospitals	-13.3122
▁threaten	-13.3124
house	-13.3125
ographer	-13.3128
worthy	-13.3129
▁ambush	-13.313
▁display	-13.313
▁confront	-13.313
cola	-13.3132
written	-13.3133
hood	-13.3133
birth	-13.3133
crowded	-13.3133
brain	-13.3133
smoking	-13.3133
nothing	-13.3133
wrote	-13.3133
▁iraq	-13.3133
▁chart	-13.3134
▁tub	-13.3135
talking	-13.3135
▁immense	-13.3136
ogen	-13.3138
▁bro	-13.3138
▁federal	-13.3141
▁cockroach	-13.3142
rospect	-13.3142
ckon	-13.3142
▁patriot	-13.3142
▁remorse	-13.3142
▁frustrati	-13.3142
agnostic	-13.3142
▁grief	-13.3142
▁hawk	-13.3142
▁accommodate	-13.3142
▁accomplice	-13.3142
▁acupuncture	-13.3142
▁adjourned	-13.3142
▁alzheimer	-13.3142
▁ankara	-13.3142
▁anxiety	-13.3142
▁appreciation	-13.3142
▁ashtray	-13.3142
▁bathrobe	-13.3142
▁believable	-13.3142
▁breadwinner	-13.3142
▁brooch	-13.3142
▁buffalo	-13.3142
▁cherries	-13.3142
▁chirping	-13.3142
▁confine	-13.3142
▁corridor	-13.3142
▁counselor	-13.3142
▁courtesy	-13.3142
▁credibility	-13.3142
▁cycle	-13.3142
▁darwin	-13.3142
▁decency	-13.3142
▁decreasing	-13.3142
▁diabetes	-13.3142
▁discouraging	-13.3142
▁disloyal	-13.3142
▁duplicate	-13.3142
▁dvd	-13.3142
▁egotistical	-13.3142
▁einstein	-13.3142
▁extension	-13.3142
▁fantasy	-13.3142
▁flabbergasted	-13.3142
▁fugitive	-13.3142
▁gloomy	-13.3142
▁hogwash	-13.3142
▁identification	-13.3142
▁immortal	-13.3142
▁infallible	-13.3142
▁invisible	-13.3142
▁jittery	-13.3142
▁lasagna	-13.3142
▁malaysia	-13.3142
▁marshmallows	-13.3142
▁meditate	-13.3142
▁meditating	-13.3142
▁melody	-13.3142
▁momentarily	-13.3142
▁mortgage	-13.3142
▁nuisance	-13.3142
▁oneself	-13.3142
▁orchard	-13.3142
▁overcast	-13.3142
▁overemotional	-13.3142
▁persecuted	-13.3142
▁portugal	-13.3142
▁prognosis	-13.3142
▁puppies	-13.3142
▁rainforest	-13.3142
▁ransacked	-13.3142
▁reindeer	-13.3142
▁repetiti	-13.3142
▁rhetorical	-13.3142
▁rookie	-13.3142
▁satellite	-13.3142
▁shawl	-13.3142
▁shinano	-13.3142
▁skeleton	-13.3142
▁skull	-13.3142
▁stewardess	-13.3142
▁suicidal	-13.3142
▁sydney	-13.3142
▁tulips	-13.3142
▁twain	-13.3142
▁unarmed	-13.3142
▁uncontrollabl	-13.3142
▁underground	-13.3142
▁uninsured	-13.3142
▁universal	-13.3142
▁unprejudiced	-13.3142
▁vcr	-13.3142
▁vienna	-13.3142
▁vulgar	-13.3142
▁astonishment	-13.3142
▁backstage	-13.3142
▁botani	-13.3142
▁clipboard	-13.3142
▁intensive	-13.3142
▁lazie	-13.3142
▁limitations	-13.3142
▁parlor	-13.3142
▁sheriff	-13.3142
▁titanic	-13.3142
▁victorious	-13.3142
▁$10,000	-13.3142
▁geologist	-13.3142
▁kidnapping	-13.3142
▁oath	-13.3142
▁stoop	-13.3142
▁wavy	-13.3142
▁wilson	-13.3142
▁chestnut	-13.3142
▁smack	-13.3142
▁$3,000	-13.3142
▁convertible	-13.3142
▁pursuing	-13.3142
▁stapler	-13.3142
▁turkish	-13.3142
▁chainsaw	-13.3142
▁creek	-13.3142
▁lag	-13.3142
▁pennies	-13.3142
▁poland	-13.3142
▁pox	-13.3142
▁arose	-13.3142
▁cuff	-13.3142
▁cartoonist	-13.3142
▁foresee	-13.3142
▁suntan	-13.3142
▁1860	-13.3142
▁wrench	-13.3142
▁obsessive	-13.3142
▁anchor	-13.3142
▁immune	-13.3142
▁reverse	-13.3142
▁perfectionist	-13.3142
▁missionaries	-13.3142
▁disappearance	-13.3142
▁hamlet	-13.3142
▁disposal	-13.3142
▁judo	-13.3142
▁rioters	-13.3142
▁nile	-13.3142
▁william	-13.3142
▁dozing	-13.3142
▁misled	-13.3142
▁pester	-13.3142
▁flinch	-13.3142
▁pacifist	-13.3142
▁bunk	-13.3142
▁10:30	-13.3142
▁redneck	-13.3142
▁nonsmoker	-13.3142
▁phenomenal	-13.3142
▁astronomer	-13.3142
▁superb	-13.3142
▁miller	-13.3142
▁unrelated	-13.3142
▁humidity	-13.3142
▁preacher	-13.3142
▁drape	-13.3142
▁mortifie	-13.3142
▁personalities	-13.3142
▁imitation	-13.3142
▁superman	-13.3142
▁dement	-13.3143
▁resistance	-13.3143
▁intolerant	-13.3143
▁trimmed	-13.3143
▁thickheaded	-13.3143
▁119	-13.3143
▁sendai	-13.3143
▁conductor	-13.3143
▁$13	-13.3143
▁urban	-13.3143
▁hebrew	-13.3143
▁voluntarily	-13.3143
▁nationality	-13.3143
▁louis	-13.3143
▁tramp	-13.3143
▁streetcar	-13.3143
▁feverish	-13.3143
▁controlling	-13.3143
▁2009	-13.3143
▁luckiest	-13.3143
▁pastime	-13.3143
▁nerd	-13.3143
▁condone	-13.3143
▁profitable	-13.3144
▁decode	-13.3144
▁hitler	-13.3144
▁folder	-13.3144
▁debating	-13.3144
▁distributed	-13.3144
▁disclosed	-13.3144
▁passive	-13.3144
▁accelerated	-13.3145
▁stalling	-13.3145
▁statesman	-13.3145
▁chatting	-13.3145
▁wasteful	-13.3145
▁machinery	-13.3145
▁genetic	-13.3145
▁processor	-13.3146
▁publicity	-13.3146
▁sane	-13.3146
▁attraction	-13.3146
▁judgmental	-13.3146
▁underwater	-13.3146
▁hatch	-13.3146
▁disrespect	-13.3146
▁constructed	-13.3147
▁summoned	-13.3147
▁gasped	-13.3147
▁undressed	-13.3147
▁mower	-13.3147
▁hideous	-13.3147
▁cock	-13.3147
▁reassured	-13.3148
▁tanker	-13.3148
▁initially	-13.3148
▁evad	-13.3148
▁impressionable	-13.3148
inter	-13.3149
▁excluded	-13.3149
▁abolished	-13.3149
▁smith	-13.3149
▁smok	-13.3149
▁underway	-13.315
▁dragged	-13.315
▁steer	-13.3151
▁ph	-13.3151
▁blushing	-13.3152
yea	-13.3152
▁braid	-13.3152
▁sweaty	-13.3152
moral	-13.3152
▁contractor	-13.3153
▁dusty	-13.3153
▁neutral	-13.3153
▁skateboarding	-13.3154
▁displayed	-13.3154
▁stupidity	-13.3154
▁spectators	-13.3154
▁tariffs	-13.3154
▁headlines	-13.3155
▁bragging	-13.3155
▁blinking	-13.3155
▁butler	-13.3155
▁repainted	-13.3156
▁offline	-13.3156
▁bounced	-13.3157
▁charger	-13.3157
▁swallowing	-13.3158
▁hum	-13.3159
▁radical	-13.3159
▁analyzed	-13.3161
▁deeper	-13.3162
▁beforehand	-13.3162
▁analyst	-13.3163
▁healed	-13.3163
▁flushed	-13.3166
▁mac	-13.3168
▁investing	-13.3169
▁fastened	-13.3169
▁appealing	-13.317
▁blooming	-13.3172
▁rod	-13.3172
▁sticky	-13.3174
▁gracious	-13.3174
▁performing	-13.3175
▁disadvantages	-13.3176
▁eyebrows	-13.3176
▁muffins	-13.3176
▁scrubb	-13.3176
▁emphasize	-13.3181
▁carp	-13.3181
▁ko	-13.3183
▁stormy	-13.3185
▁howling	-13.3185
▁192	-13.3186
▁virtual	-13.3188
aged	-13.3191
▁aroused	-13.3191
▁ceased	-13.3193
▁pis	-13.3195
▁coping	-13.3196
▁observed	-13.3197
▁pad	-13.3197
reckles	-13.3197
▁rum	-13.3198
▁cracking	-13.3199
▁focusing	-13.3208
▁197	-13.3208
▁impatiently	-13.3214
▁agreeable	-13.3215
▁assign	-13.3216
▁touchy	-13.3218
agging	-13.3223
▁straighten	-13.3225
▁tolerated	-13.3243
▁olives	-13.3243
▁anyhow	-13.3247
▁contained	-13.325
▁rabi	-13.3259
▁enroll	-13.326
▁arts	-13.3261
vis	-13.3261
▁jewel	-13.3262
▁angles	-13.3266
▁subtitles	-13.3266
▁cele	-13.3268
▁failing	-13.3281
▁oversleep	-13.3281
▁lad	-13.3282
▁owls	-13.3288
▁chapters	-13.3288
▁romans	-13.3288
▁needles	-13.3295
▁interfered	-13.33
▁whip	-13.3304
rept	-13.3309
▁palms	-13.3311
▁minerals	-13.3311
▁donation	-13.3315
ud	-13.3319
▁mend	-13.332
ards	-13.3327
▁motives	-13.3333
▁rivals	-13.3333
▁generate	-13.3345
▁beliefs	-13.3356
hi	-13.3362
▁improves	-13.337
some	-13.3383
▁miners	-13.3386
▁mal	-13.3388
▁cables	-13.3402
▁contributions	-13.3402
▁returns	-13.3412
▁samples	-13.3425
▁attempts	-13.3431
ging	-13.3448
▁paramedics	-13.3448
▁bid	-13.3482
▁lac	-13.3482
▁ne	-13.3488
▁proverbs	-13.3494
▁vehicles	-13.3494
▁seatbelts	-13.3517
▁untied	-13.352
ike	-13.3521
▁mist	-13.3526
▁deadly	-13.3526
▁showered	-13.3532
all	-13.3547
▁payments	-13.3566
▁hills	-13.3568
▁sole	-13.3573
quet	-13.3585
▁assignments	-13.3587
▁suggests	-13.3597
▁fl	-13.3608
▁improvements	-13.361
▁surg	-13.362
lan	-13.3636
▁violat	-13.3645
▁basics	-13.3657
▁shorts	-13.3668
dog	-13.367
▁sacrifices	-13.368
▁kites	-13.3681
▁bribes	-13.3684
▁dressing	-13.3688
▁cents	-13.3695
▁lighting	-13.371
ada	-13.3714
▁sc	-13.3717
▁wrists	-13.3728
▁elbows	-13.3751
▁railroads	-13.3751
▁cel	-13.3761
▁costing	-13.3765
functional	-13.3781
ison	-13.379
▁si	-13.3814
▁coache	-13.3818
ca	-13.3822
▁cola	-13.3846
▁rake	-13.3848
▁guessing	-13.3853
ries	-13.3888
▁finaliz	-13.3895
▁organs	-13.3896
▁sta	-13.3914
▁costumes	-13.3919
replaceable	-13.3946
▁800	-13.3959
stand	-13.3973
ddy	-13.3976
used	-13.4021
van	-13.4029
den	-13.4037
ika	-13.4053
▁floods	-13.4066
▁tours	-13.4068
▁dances	-13.407
liable	-13.4086
▁markets	-13.4107
▁pri	-13.4108
▁hallucinat	-13.4123
oon	-13.4123
▁videos	-13.413
▁1.	-13.4136
ama	-13.4138
▁vi	-13.4141
ium	-13.4154
▁contacts	-13.4164
▁increases	-13.4166
ander	-13.4195
▁zi	-13.42
▁cord	-13.4235
▁taj	-13.4267
ok	-13.4272
▁carpets	-13.4287
ible	-13.4318
▁la	-13.4321
300,000	-13.433
▁magnet	-13.4359
ari	-13.439
correctly	-13.4426
vi	-13.4431
ide	-13.4456
rk	-13.4458
ual	-13.4466
▁emails	-13.4497
▁char	-13.4502
opping	-13.4533
▁scholar	-13.4549
american	-13.4556
▁ob	-13.4562
▁cro	-13.4566
il	-13.4567
bs	-13.4572
▁qual	-13.4578
ose	-13.4582
x	-13.4605
▁rivers	-13.4606
▁leopard	-13.4631
▁pineapple	-13.4631
▁ninja	-13.4631
▁fluid	-13.4631
▁adviser	-13.4637
ig	-13.4643
▁expire	-13.4646
▁doughnut	-13.4648
▁liquid	-13.4648
▁setback	-13.4651
▁coaster	-13.4653
▁granddaughter	-13.4656
▁burger	-13.4656
▁employer	-13.4658
▁beverage	-13.466
▁pear	-13.4664
▁subtitle	-13.4665
▁angle	-13.4665
▁creep	-13.4668
▁ru	-13.4669
▁intern	-13.467
▁refugee	-13.467
▁turtle	-13.4671
▁buck	-13.4671
▁mathematic	-13.4674
▁kilometer	-13.4674
ila	-13.4674
▁carrot	-13.4674
▁def	-13.4681
▁leftover	-13.4691
▁pla	-13.4698
owed	-13.4711
cial	-13.4716
▁overdo	-13.4719
priced	-13.4728
cover	-13.4728
▁slap	-13.4736
oc	-13.476
▁floors	-13.4764
her	-13.4767
▁professors	-13.4774
turn	-13.4777
lated	-13.478
▁overestimate	-13.4781
▁compensate	-13.4781
▁fle	-13.4784
▁disguise	-13.4787
▁analyze	-13.4788
▁assemble	-13.4789
wood	-13.4789
nounced	-13.4793
rected	-13.4795
▁introduc	-13.4796
▁roar	-13.4796
▁sunburn	-13.4797
▁twist	-13.4797
▁stagger	-13.4797
▁establish	-13.4797
schooled	-13.4797
guard	-13.4797
paid	-13.4798
tempered	-13.4798
▁acquire	-13.4798
rail	-13.4798
brother	-13.4799
threatening	-13.48
phrase	-13.48
capable	-13.48
earth	-13.48
control	-13.48
famous	-13.48
interested	-13.48
home	-13.48
▁contemplat	-13.48
page	-13.48
▁daydream	-13.4801
▁imply	-13.4802
▁profound	-13.4802
listed	-13.4803
▁criticiz	-13.4803
▁tab	-13.4805
▁hitchhike	-13.4806
▁195	-13.4807
▁bulk	-13.4807
▁extraordinar	-13.4807
▁crank	-13.4807
▁potter	-13.4808
▁lever	-13.4808
▁convention	-13.4808
▁phenomen	-13.4808
▁witch	-13.4808
▁ref	-13.4808
▁peas	-13.4808
▁prosecut	-13.4808
▁syn	-13.4808
▁startle	-13.4809
▁journal	-13.4809
▁kidnap	-13.4809
▁$100	-13.4809
▁transport	-13.4809
mpact	-13.4809
▁situat	-13.4809
▁excess	-13.4809
▁hydr	-13.4809
▁adjoin	-13.4809
▁enlighten	-13.4809
▁exhilarat	-13.4809
▁inferior	-13.4809
▁prenup	-13.4809
aternity	-13.4809
inflicted	-13.4809
▁11:00	-13.4809
▁abnormal	-13.4809
▁adequate	-13.4809
▁aggravat	-13.4809
▁aggression	-13.4809
▁allergy	-13.4809
▁antidote	-13.4809
▁apprentice	-13.4809
▁apron	-13.4809
▁assembly	-13.4809
▁auction	-13.4809
▁autobiography	-13.4809
▁bagpipes	-13.4809
▁ballerina	-13.4809
▁belgium	-13.4809
▁biography	-13.4809
▁bmw	-13.4809
▁boycott	-13.4809
▁ceremonies	-13.4809
▁chimpanzee	-13.4809
▁cholera	-13.4809
▁chorus	-13.4809
▁clutch	-13.4809
▁cocoa	-13.4809
▁coconut	-13.4809
▁column	-13.4809
▁compulsive	-13.4809
▁controversy	-13.4809
▁crucial	-13.4809
▁crybaby	-13.4809
▁detention	-13.4809
▁disbelie	-13.4809
▁discriminate	-13.4809
▁domineering	-13.4809
▁ecstatic	-13.4809
▁emphasis	-13.4809
▁excruciating	-13.4809
▁exploit	-13.4809
▁extensive	-13.4809
▁extravagant	-13.4809
▁famished	-13.4809
▁feasible	-13.4809
▁ferris	-13.4809
▁fishermen	-13.4809
▁fragile	-13.4809
▁gadget	-13.4809
▁graffiti	-13.4809
▁grapefruit	-13.4809
▁guinea	-13.4809
▁hammock	-13.4809
▁heartburn	-13.4809
▁hibernate	-13.4809
▁improbable	-13.4809
▁indispensable	-13.4809
▁ingenious	-13.4809
▁innovative	-13.4809
▁insensitive	-13.4809
▁integrity	-13.4809
▁intuition	-13.4809
▁irregular	-13.4809
▁jeep	-13.4809
▁judaism	-13.4809
▁kosher	-13.4809
▁leash	-13.4809
▁likelihood	-13.4809
▁mandatory	-13.4809
▁maximum	-13.4809
▁meadow	-13.4809
▁merchant	-13.4809
▁moaned	-13.4809
▁modifications	-13.4809
▁mourning	-13.4809
▁netherlands	-13.4809
▁nixon	-13.4809
▁nocturnal	-13.4809
▁observation	-13.4809
▁origami	-13.4809
▁paragraph	-13.4809
▁petition	-13.4809
▁pliers	-13.4809
▁plumbing	-13.4809
▁puzzling	-13.4809
▁queasy	-13.4809
▁queue	-13.4809
▁raffle	-13.4809
▁reagan	-13.4809
▁rehab	-13.4809
▁resilient	-13.4809
▁scribble	-13.4809
▁sedative	-13.4809
▁shaky	-13.4809
▁shrimp	-13.4809
▁sincerity	-13.4809
▁sluggish	-13.4809
▁snobbish	-13.4809
▁submarine	-13.4809
▁subtract	-13.4809
▁supreme	-13.4809
▁tamper	-13.4809
▁tangerines	-13.4809
▁tedious	-13.4809
▁transfusion	-13.4809
▁triathlon	-13.4809
▁tumor	-13.4809
▁typo	-13.4809
▁ukrain	-13.4809
▁ulcer	-13.4809
▁unambitious	-13.4809
▁unattended	-13.4809
▁understaffed	-13.4809
▁unimaginable	-13.4809
▁unimportant	-13.4809
▁unscrew	-13.4809
▁warrior	-13.4809
▁xylophone	-13.4809
▁yolks	-13.4809
▁appendix	-13.4809
▁binge	-13.4809
▁charles	-13.4809
▁choking	-13.4809
▁determination	-13.4809
▁finland	-13.4809
▁geology	-13.4809
▁hacksaw	-13.4809
▁juggling	-13.4809
▁limb	-13.4809
▁receding	-13.4809
▁shattered	-13.4809
▁tofu	-13.4809
▁acute	-13.4809
▁campsite	-13.4809
▁indignant	-13.4809
▁invaders	-13.4809
▁jellyfish	-13.4809
▁kabu	-13.4809
▁mastermind	-13.4809
▁neuro	-13.4809
▁opportunistic	-13.4809
▁pedal	-13.4809
▁suv	-13.4809
▁audio	-13.4809
▁cpr	-13.4809
▁delightful	-13.4809
▁operator	-13.4809
▁superstitious	-13.4809
centered	-13.4809
▁clapping	-13.4809
▁cobra	-13.4809
▁encyclopedia	-13.4809
▁magnif	-13.4809
▁potholes	-13.4809
▁prosperity	-13.4809
▁shellfish	-13.4809
▁molehill	-13.4809
▁motorboat	-13.4809
▁revive	-13.4809
▁soulmates	-13.4809
▁surfboard	-13.4809
▁valve	-13.4809
▁amazement	-13.4809
▁rummag	-13.4809
▁buff	-13.4809
▁institution	-13.4809
▁jumpsuit	-13.4809
▁panama	-13.4809
kko	-13.4809
▁croatia	-13.4809
▁nagging	-13.4809
▁germs	-13.4809
▁circulation	-13.4809
natured	-13.4809
▁browser	-13.4809
▁shoreline	-13.4809
good	-13.4809
▁hippopotamuses	-13.4809
▁crafty	-13.4809
▁alps	-13.4809
▁compassion	-13.4809
▁courthouse	-13.4809
▁distinction	-13.4809
▁perseverance	-13.4809
▁defect	-13.4809
▁brazilian	-13.4809
▁shotgun	-13.4809
▁1930	-13.4809
▁inheritance	-13.4809
▁1853	-13.4809
▁grudge	-13.4809
▁socialist	-13.4809
▁unnatural	-13.4809
▁bouncer	-13.4809
▁tuba	-13.4809
▁tux	-13.4809
▁stepbrother	-13.4809
▁violation	-13.4809
▁5:30	-13.4809
▁alright	-13.4809
▁itchy	-13.4809
▁allegedly	-13.4809
▁mugger	-13.4809
▁spoonful	-13.4809
▁fourteen	-13.4809
▁orient	-13.4809
▁receptionist	-13.4809
▁stepsister	-13.4809
▁conviction	-13.4809
▁anthem	-13.4809
▁burr	-13.4809
▁sponge	-13.4809
▁detector	-13.4809
▁vary	-13.4809
▁heartwarming	-13.4809
anus	-13.4809
▁purr	-13.4809
▁halt	-13.4809
▁selfie	-13.4809
▁moldy	-13.481
▁rhine	-13.481
▁2010	-13.481
▁ugl	-13.481
▁appreciative	-13.481
▁swerve	-13.481
▁viruses	-13.481
▁spear	-13.481
▁lumber	-13.481
▁speculate	-13.481
▁fiancée	-13.481
▁minority	-13.481
▁panicking	-13.481
▁apprehended	-13.481
▁wiggle	-13.481
▁nineteen	-13.481
▁truman	-13.481
▁gunfire	-13.481
▁unwise	-13.481
▁continuously	-13.481
▁diagnosis	-13.481
▁plotting	-13.481
▁30%	-13.481
▁growled	-13.481
▁97	-13.481
▁abstain	-13.481
▁humanity	-13.4811
▁weekdays	-13.4811
▁fluor	-13.4811
▁edo	-13.4811
▁discharged	-13.4811
▁scatter	-13.4811
▁eraser	-13.4811
▁unanimously	-13.4811
▁handstand	-13.4811
▁2008	-13.4811
▁berries	-13.4811
▁rays	-13.4811
minent	-13.4811
▁gasping	-13.4811
▁descend	-13.4811
▁insulated	-13.4811
▁milton	-13.4811
▁weakness	-13.4811
▁literally	-13.4811
▁classified	-13.4811
▁treasurer	-13.4812
▁86	-13.4812
▁sumo	-13.4812
▁unfounded	-13.4812
▁heroine	-13.4812
▁swelling	-13.4812
▁undressing	-13.4812
▁schoolteacher	-13.4812
▁deceased	-13.4813
▁soaked	-13.4813
witted	-13.4813
▁hairline	-13.4813
ury	-13.4814
▁anyplace	-13.4814
▁grader	-13.4814
▁buddhism	-13.4814
▁trim	-13.4814
▁daylight	-13.4815
▁administrati	-13.4815
▁disabled	-13.4815
▁fractured	-13.4815
▁tiles	-13.4815
▁overpriced	-13.4816
▁shivered	-13.4817
▁grams	-13.4817
▁rap	-13.4817
▁checkup	-13.4817
▁token	-13.4817
▁inexcusable	-13.4817
▁inquire	-13.4819
▁outlook	-13.4819
▁hedge	-13.4819
▁vomited	-13.4819
▁payday	-13.4819
▁vividly	-13.4819
▁exiled	-13.4819
▁weatherman	-13.4819
▁wept	-13.4819
▁tentative	-13.482
▁shipment	-13.482
▁illustrated	-13.482
yo	-13.4821
▁photography	-13.4821
39	-13.4821
▁inhaled	-13.4822
▁weirdest	-13.4822
▁technically	-13.4823
▁ambushed	-13.4823
▁altered	-13.4823
▁straightened	-13.4823
▁mittens	-13.4824
front	-13.4824
▁wipers	-13.4825
▁peep	-13.4825
▁delud	-13.4825
▁cape	-13.4825
▁healing	-13.4825
▁unpacking	-13.4826
dex	-13.4826
▁baker	-13.4827
▁decreased	-13.4828
▁ashore	-13.4828
▁disappearing	-13.4829
▁combat	-13.483
▁admitting	-13.4831
▁mango	-13.4831
▁freeway	-13.4831
marily	-13.4833
▁erupt	-13.4833
arks	-13.4833
▁restrained	-13.4835
▁reign	-13.4835
▁spark	-13.4836
▁gossiping	-13.4836
▁shutter	-13.4837
▁distinguished	-13.4839
▁sighed	-13.484
▁touches	-13.484
gas	-13.4842
▁charter	-13.4842
▁atoms	-13.4843
sake	-13.4846
▁sixth	-13.4848
▁sneezed	-13.4849
▁constellations	-13.4849
▁zebras	-13.4849
▁coworkers	-13.4849
▁explorers	-13.485
▁adams	-13.485
▁homemade	-13.485
bb	-13.4851
▁intervened	-13.4853
▁painless	-13.4854
▁scorpion	-13.4858
willed	-13.4863
com	-13.4864
▁sightsee	-13.4864
▁191	-13.4867
▁oddly	-13.487
eek	-13.4876
▁firearms	-13.4876
▁snails	-13.4876
▁penguins	-13.4876
▁snowflakes	-13.4876
▁corrections	-13.4877
aries	-13.4878
aimed	-13.4878
▁flatly	-13.4879
has	-13.4879
▁workman	-13.4888
▁authorize	-13.489
▁blo	-13.489
precedent	-13.4893
ckin	-13.4897
▁cupcakes	-13.4903
▁urgently	-13.4909
▁bribed	-13.4911
tious	-13.4911
▁187	-13.4913
▁photographed	-13.4915
▁lotion	-13.4918
!""	-13.492
▁calculations	-13.493
id	-13.493
▁seller	-13.4934
▁withered	-13.4941
done	-13.4943
ummy	-13.4946
▁abate	-13.4951
▁unde	-13.4953
▁miserabl	-13.4954
▁narrowed	-13.4963
▁fashioned	-13.4964
▁guaranteed	-13.4968
▁bou	-13.4977
▁cultured	-13.4977
tained	-13.4983
▁decades	-13.4984
igible	-13.5002
▁conve	-13.5004
▁souvenirs	-13.5011
▁senators	-13.5011
▁rebels	-13.5012
nine	-13.5023
▁publicly	-13.5033
▁ballots	-13.5038
▁sails	-13.5038
rus	-13.5039
▁coincidences	-13.5039
▁fo	-13.5051
mped	-13.5054
girlfriends	-13.5057
▁compromised	-13.5058
▁scraps	-13.5062
tial	-13.5064
cement	-13.5086
▁bonds	-13.5093
▁swimmers	-13.5093
ak	-13.5098
▁assumptions	-13.512
▁cigars	-13.512
▁gymnast	-13.5124
waiting	-13.5129
▁unsettl	-13.5131
▁gu	-13.5135
▁exhibits	-13.5148
▁chippe	-13.5151
▁sorted	-13.5153
▁airs	-13.5158
▁carded	-13.5161
▁roy	-13.5166
▁ponder	-13.5171
ka	-13.5173
▁op	-13.5175
▁nieces	-13.5176
▁updates	-13.5176
▁majors	-13.518
▁recommendations	-13.5203
ri	-13.521
barred	-13.5212
hok	-13.5214
ranged	-13.5222
▁tomboy	-13.524
▁asians	-13.5264
▁punches	-13.5264
▁jailed	-13.5277
▁wires	-13.5277
▁greeks	-13.5287
▁orphans	-13.5287
led	-13.5296
▁towed	-13.5299
ments	-13.53
pong	-13.5306
▁speculat	-13.5318
▁clash	-13.5333
▁ducks	-13.5344
▁iran	-13.5345
experienced	-13.5352
▁freely	-13.536
▁courses	-13.5362
iming	-13.5367
▁murders	-13.5389
▁angels	-13.54
▁protests	-13.5401
stract	-13.541
▁ja	-13.5443
▁engines	-13.5456
▁designers	-13.5457
shi	-13.5483
ma	-13.5493
pled	-13.5498
use	-13.5501
▁colorful	-13.5514
der	-13.5519
▁defian	-13.5525
▁184	-13.5527
▁ash	-13.5534
gy	-13.5537
▁hating	-13.5574
▁merc	-13.5581
▁gre	-13.5595
▁fla	-13.5599
▁spa	-13.5617
apping	-13.5624
▁horns	-13.5657
our	-13.5721
▁weep	-13.5735
ai	-13.5757
gan	-13.5766
▁sociologi	-13.5769
▁cub	-13.5771
▁journalists	-13.5776
▁ri	-13.5788
1	-13.579
▁scars	-13.5793
▁dispose	-13.5825
▁leaks	-13.5831
▁handkerchiefs	-13.5835
tion	-13.5887
▁jars	-13.5892
▁spells	-13.5926
ite	-13.5953
cation	-13.596
uch	-13.5992
ative	-13.6003
my	-13.6005
50,000	-13.6016
▁fridays	-13.602
▁rust	-13.6081
▁medic	-13.6083
▁doable	-13.6094
▁viola	-13.6097
▁painters	-13.6108
▁numbered	-13.6139
boy	-13.614
ze	-13.6141
▁seasons	-13.6143
ph	-13.6145
▁justifie	-13.6151
▁shifts	-13.6168
▁deliberate	-13.622
ux	-13.6223
▁essays	-13.6228
▁desires	-13.6232
▁moons	-13.6243
▁sizes	-13.6249
gue	-13.6271
▁camps	-13.6289
▁cult	-13.6295
▁chip	-13.6318
ran	-13.6329
val	-13.6346
uled	-13.6352
▁correspond	-13.6359
dded	-13.637
atch	-13.6401
▁sca	-13.6402
▁investigations	-13.6414
▁powers	-13.6415
star	-13.6416
▁spi	-13.6438
▁mor	-13.6506
▁sens	-13.6515
▁lo	-13.6526
▁bri	-13.6548
▁likeable	-13.6548
lifted	-13.6549
bone	-13.6551
▁companion	-13.6565
▁produc	-13.6571
read	-13.6574
lena	-13.6582
reading	-13.6591
for	-13.6616
peak	-13.6619
cake	-13.662
▁skeptic	-13.6628
▁incidents	-13.6632
▁economist	-13.6633
▁collector	-13.6635
▁bra	-13.6639
▁dime	-13.664
▁bolt	-13.6643
▁crocodile	-13.6649
▁misprint	-13.6649
▁wagon	-13.6649
▁possession	-13.6649
▁civilization	-13.6649
▁structure	-13.665
▁pedestrian	-13.6656
▁rescu	-13.6657
▁implication	-13.666
▁kangaroo	-13.666
▁thunderstorm	-13.666
▁spice	-13.666
▁sunflower	-13.6661
▁calculation	-13.6663
▁snowball	-13.6663
▁olive	-13.6665
▁container	-13.6666
kling	-13.6666
▁rib	-13.6666
▁cucumber	-13.6667
▁feather	-13.6668
▁ingredient	-13.6668
▁reference	-13.6668
▁siren	-13.667
▁kidnapper	-13.6671
▁preparation	-13.6671
▁giant	-13.6671
▁symptom	-13.6672
▁grape	-13.6673
▁atheist	-13.6679
▁plum	-13.6687
tta	-13.6693
▁bands	-13.6695
warming	-13.6702
top	-13.6725
▁fir	-13.6736
▁satur	-13.674
umbled	-13.6746
lined	-13.6764
j	-13.677
war	-13.6774
beat	-13.6777
lease	-13.6781
▁sabotage	-13.6783
▁decrease	-13.6786
▁eliminate	-13.6786
▁discipline	-13.6787
▁remodel	-13.6787
▁prejudice	-13.6787
▁provoke	-13.6787
▁entertain	-13.6788
▁embrace	-13.6788
▁devote	-13.6788
▁chuckle	-13.6788
▁pollute	-13.6788
ache	-13.6789
saw	-13.6792
boat	-13.6793
wise	-13.6793
▁grace	-13.6794
▁cal	-13.6795
▁experienc	-13.6795
▁vomit	-13.6796
vol	-13.6797
▁introvert	-13.6797
▁dismiss	-13.6797
▁unload	-13.6797
wide	-13.6798
writer	-13.6798
conclusi	-13.6798
happy	-13.6798
linked	-13.6799
bal	-13.6799
life	-13.6799
smith	-13.6799
easter	-13.6799
pronounce	-13.68
about	-13.68
efficient	-13.68
ability	-13.68
skate	-13.68
sung	-13.68
talented	-13.68
welcome	-13.68
grandmother	-13.68
could	-13.68
easily	-13.68
neither	-13.68
paying	-13.68
ahead	-13.68
pick	-13.68
two	-13.68
week	-13.68
path	-13.68
▁pic	-13.68
bedroom	-13.68
▁ox	-13.6801
▁bluff	-13.6801
tric	-13.6801
boiled	-13.6801
8,	-13.6802
▁slit	-13.6803
▁ultimate	-13.6803
udged	-13.6803
▁spray	-13.6804
ovation	-13.6806
went	-13.6806
▁confe	-13.6806
more	-13.6807
▁fiancé	-13.6807
▁chick	-13.6808
▁wrestle	-13.6808
▁volcan	-13.6808
▁hypocri	-13.6808
▁stab	-13.6808
▁err	-13.6808
escent	-13.6808
thetic	-13.6809
valent	-13.6809
,500	-13.6809
▁dictator	-13.6809
▁contempt	-13.6809
▁disconcert	-13.6809
▁incorr	-13.6809
▁retail	-13.6809
▁smirk	-13.6809
▁psycho	-13.6809
lexes	-13.6809
occasi	-13.6809
▁abominabl	-13.6809
▁accuracy	-13.6809
▁acrobat	-13.6809
▁afghanistan	-13.6809
▁aground	-13.6809
▁alaska	-13.6809
▁amsterdam	-13.6809
▁antenna	-13.6809
▁appalling	-13.6809
▁archaeology	-13.6809
▁authentic	-13.6809
▁autism	-13.6809
▁backgammon	-13.6809
▁banister	-13.6809
▁bashful	-13.6809
▁billionaire	-13.6809
▁bourbon	-13.6809
▁bureau	-13.6809
▁cabbage	-13.6809
▁catastrophe	-13.6809
▁category	-13.6809
▁cathedral	-13.6809
▁centigrade	-13.6809
▁cider	-13.6809
▁cinnamon	-13.6809
▁clubbing	-13.6809
▁collision	-13.6809
▁comply	-13.6809
▁concise	-13.6809
▁contaminated	-13.6809
▁corkscrew	-13.6809
▁corps	-13.6809
▁deceptive	-13.6809
▁denmark	-13.6809
▁destructive	-13.6809
▁deteriorated	-13.6809
▁deteriorating	-13.6809
▁disgruntled	-13.6809
▁dissolve	-13.6809
▁earphones	-13.6809
▁eggplant	-13.6809
▁epidemic	-13.6809
▁equator	-13.6809
▁evaluation	-13.6809
▁excursion	-13.6809
▁explicit	-13.6809
▁fahrenheit	-13.6809
▁fisherman	-13.6809
▁formidable	-13.6809
▁grappl	-13.6809
▁gunpowder	-13.6809
▁haiti	-13.6809
▁honolulu	-13.6809
▁horribly	-13.6809
▁hospitable	-13.6809
▁hymn	-13.6809
▁illogical	-13.6809
▁inadequate	-13.6809
▁inconvenient	-13.6809
▁indonesia	-13.6809
▁infectious	-13.6809
▁injustice	-13.6809
▁insinuating	-13.6809
▁insomnia	-13.6809
▁inspiring	-13.6809
▁intellectual	-13.6809
▁intimidating	-13.6809
▁invasion	-13.6809
▁leukemia	-13.6809
▁lieutenant	-13.6809
▁lightbulb	-13.6809
▁limo	-13.6809
▁limousine	-13.6809
▁lovable	-13.6809
▁ludicrous	-13.6809
▁lukewarm	-13.6809
▁malaria	-13.6809
▁mandarin	-13.6809
▁merchandise	-13.6809
▁meticulous	-13.6809
▁moscow	-13.6809
▁motorbike	-13.6809
▁mountaineering	-13.6809
▁mourne	-13.6809
▁naïve	-13.6809
▁newcomer	-13.6809
▁nitrogen	-13.6809
▁outnumbered	-13.6809
▁painkiller	-13.6809
▁penicillin	-13.6809
▁perceptive	-13.6809
▁perspir	-13.6809
▁petrified	-13.6809
▁phase	-13.6809
▁pocketknife	-13.6809
▁pompous	-13.6809
▁powder	-13.6809
▁probability	-13.6809
▁probable	-13.6809
▁prophet	-13.6809
▁psychological	-13.6809
▁puddle	-13.6809
▁reconfirm	-13.6809
▁reef	-13.6809
▁rehearse	-13.6809
▁repulsive	-13.6809
▁resemblance	-13.6809
▁revelation	-13.6809
▁ridicule	-13.6809
▁sapporo	-13.6809
▁schoolgirl	-13.6809
▁secrecy	-13.6809
▁seminar	-13.6809
▁sermon	-13.6809
▁shikoku	-13.6809
▁shizuoka	-13.6809
▁somersault	-13.6809
▁soprano	-13.6809
▁staircase	-13.6809
▁starvation	-13.6809
▁streak	-13.6809
▁suffocat	-13.6809
▁sukiyaki	-13.6809
▁swindle	-13.6809
▁tennessee	-13.6809
▁ticking	-13.6809
▁trifle	-13.6809
▁uninvited	-13.6809
▁universities	-13.6809
▁unpopular	-13.6809
▁unsatisfied	-13.6809
▁versatile	-13.6809
▁vinegar	-13.6809
▁volatile	-13.6809
▁walnut	-13.6809
▁widespread	-13.6809
▁wikipedia	-13.6809
▁yield	-13.6809
▁basque	-13.6809
▁diagram	-13.6809
▁eyewitness	-13.6809
▁flask	-13.6809
▁foster	-13.6809
▁hypnotized	-13.6809
▁micro	-13.6809
▁ostrich	-13.6809
▁recruit	-13.6809
▁relent	-13.6809
▁rematch	-13.6809
▁savage	-13.6809
▁slander	-13.6809
▁sniper	-13.6809
▁venice	-13.6809
▁vocal	-13.6809
▁biwa	-13.6809
▁contemptible	-13.6809
▁damaging	-13.6809
▁flabb	-13.6809
▁intermission	-13.6809
▁juliet	-13.6809
▁meddle	-13.6809
▁moderation	-13.6809
▁paddle	-13.6809
▁tornado	-13.6809
terminat	-13.6809
▁gliding	-13.6809
▁ransom	-13.6809
▁sexist	-13.6809
▁shepherd	-13.6809
▁strive	-13.6809
▁terminated	-13.6809
▁embroider	-13.6809
▁hydrant	-13.6809
▁jewish	-13.6809
▁torment	-13.6809
▁dioxide	-13.6809
▁hatchet	-13.6809
▁mosque	-13.6809
▁plaid	-13.6809
▁advisor	-13.6809
▁advisable	-13.6809
▁freight	-13.6809
▁stern	-13.6809
▁suspense	-13.6809
▁3:30.	-13.6809
▁calf	-13.6809
▁disability	-13.6809
▁colonies	-13.6809
▁crab	-13.6809
▁random	-13.6809
▁$2,000	-13.6809
▁clap	-13.6809
▁mahal	-13.6809
▁maze	-13.6809
cule	-13.6809
▁decay	-13.6809
▁glitter	-13.6809
▁logging	-13.6809
▁spokesman	-13.6809
▁digger	-13.6809
▁ethical	-13.6809
▁arson	-13.6809
▁conspiracy	-13.6809
▁admirable	-13.6809
▁madrid	-13.6809
▁drastically	-13.6809
▁radioactive	-13.6809
▁1964	-13.6809
▁saddle	-13.6809
▁patriotic	-13.6809
▁persever	-13.6809
▁paulo	-13.6809
▁lilies	-13.6809
▁uptight	-13.6809
▁frail	-13.6809
▁crazier	-13.6809
nighter	-13.6809
▁nineties	-13.6809
▁1997	-13.6809
▁corporation	-13.6809
▁teapot	-13.6809
▁unapproachable	-13.6809
▁blogger	-13.6809
▁sneakers	-13.6809
▁symphony	-13.6809
▁acres	-13.6809
▁123	-13.6809
▁shiny	-13.6809
▁shoebox	-13.6809
▁roadside	-13.6809
▁peasant	-13.6809
▁hippie	-13.6809
▁greenhouse	-13.6809
▁1975	-13.6809
▁ammo	-13.6809
▁1847	-13.6809
▁guardian	-13.6809
▁itches	-13.6809
▁recital	-13.6809
▁shipping	-13.6809
▁pep	-13.6809
▁unreal	-13.681
oline	-13.681
▁1998	-13.681
▁leadership	-13.681
▁pushups	-13.681
▁baggy	-13.681
▁publishing	-13.681
▁sunbathing	-13.681
▁humbling	-13.681
▁landline	-13.681
▁misery	-13.681
▁locket	-13.681
▁spaceship	-13.681
▁31	-13.681
▁forged	-13.681
▁snowfall	-13.681
▁lord	-13.681
▁ethnic	-13.681
▁friendlier	-13.681
▁nutrition	-13.681
▁2001	-13.681
▁hoot	-13.681
▁meaningful	-13.681
▁$300,000	-13.681
▁grin	-13.681
▁civilized	-13.681
▁crunch	-13.681
▁treehouse	-13.681
▁deeds	-13.681
▁booze	-13.6811
▁demolish	-13.6811
▁unpaid	-13.6811
▁humorous	-13.6811
▁rainfall	-13.6811
▁belch	-13.6811
▁imminent	-13.6811
▁contradiction	-13.6811
▁28	-13.6811
▁trespassing	-13.6812
▁regulated	-13.6812
▁warranty	-13.6812
▁businessmen	-13.6812
▁carpool	-13.6812
▁sucker	-13.6812
▁itching	-13.6813
▁workshop	-13.6813
▁litter	-13.6813
▁blender	-13.6813
▁condemned	-13.6813
▁envied	-13.6813
▁restricted	-13.6813
▁29	-13.6813
▁apes	-13.6813
▁brightened	-13.6813
▁assess	-13.6813
▁poop	-13.6813
▁publication	-13.6813
▁overstate	-13.6814
fall	-13.6814
▁downstream	-13.6814
▁ultimately	-13.6814
▁shaker	-13.6814
▁worsened	-13.6814
▁subsid	-13.6815
band	-13.6815
▁geniuses	-13.6815
▁limitless	-13.6815
▁blindfolded	-13.6816
▁imprisoned	-13.6816
▁realist	-13.6816
▁surfer	-13.6816
▁recharged	-13.6817
▁remodeling	-13.6817
▁sadness	-13.6817
▁handmade	-13.6817
▁latex	-13.6818
▁thicker	-13.6819
rated	-13.682
▁sled	-13.6821
▁squatte	-13.6821
▁sweetest	-13.6821
▁overcooked	-13.6822
▁cramm	-13.6823
▁flock	-13.6823
▁crosses	-13.6824
▁charg	-13.6824
▁roared	-13.6824
▁alternat	-13.6824
▁residential	-13.6825
yen	-13.6825
▁dryer	-13.6825
▁casually	-13.6825
leans	-13.6826
ounty	-13.6826
▁hatched	-13.6827
▁explosives	-13.6827
▁hijackers	-13.6827
▁misfortunes	-13.6827
▁qualifications	-13.6827
▁requirements	-13.6828
▁turnout	-13.6829
▁voters	-13.683
▁retreated	-13.6832
▁crum	-13.6832
▁paste	-13.6837
▁rewarding	-13.6838
▁respectable	-13.6839
▁pessimist	-13.6839
▁perish	-13.684
teen	-13.6842
▁drunkard	-13.6842
▁sympathized	-13.6843
▁proofreading	-13.6845
▁cheerfully	-13.6846
osis	-13.6846
▁paroled	-13.6848
▁consumed	-13.6848
▁hanger	-13.6849
▁scores	-13.6849
▁heartless	-13.6849
▁protesting	-13.6849
▁audit	-13.6851
▁nodding	-13.6852
▁rocky	-13.6853
cuba	-13.6853
▁fixes	-13.6853
▁mumble	-13.6855
agonize	-13.6857
died	-13.6859
alogue	-13.6859
▁affordable	-13.6859
▁panels	-13.6859
▁condolences	-13.6859
▁airlines	-13.6859
▁marking	-13.6861
ature	-13.6862
▁supporters	-13.6864
ella	-13.6864
▁presentable	-13.6865
▁combed	-13.6869
▁awarded	-13.6869
▁abs	-13.687
▁county	-13.6872
▁clearer	-13.6873
▁cooker	-13.688
▁realise	-13.6881
▁experimenting	-13.6885
▁saturn	-13.6888
nze	-13.689
▁wrapp	-13.6892
▁thorns	-13.6892
▁historians	-13.6892
▁catcher	-13.6892
▁tu	-13.6893
▁pilots	-13.6895
▁refresh	-13.6904
▁swarm	-13.6906
▁coll	-13.6907
▁rolling	-13.6907
▁abra	-13.6908
▁198	-13.6909
▁snored	-13.6913
▁frenchman	-13.6913
▁cuter	-13.6913
rine	-13.6917
▁ached	-13.6919
▁investigated	-13.6922
▁inca	-13.6922
▁pit	-13.6924
▁electronics	-13.6926
▁features	-13.6926
▁vampires	-13.6926
▁hiccups	-13.6926
▁carelessly	-13.6927
▁fil	-13.6928
▁models	-13.693
▁illegally	-13.6931
▁lodge	-13.6941
▁crashing	-13.6943
▁lis	-13.6943
▁shifted	-13.6943
▁fishy	-13.6956
▁shined	-13.6958
▁implications	-13.6959
▁kangaroos	-13.6959
▁spices	-13.6959
▁sunflowers	-13.6959
▁thunderstorms	-13.6959
▁snowballs	-13.696
▁snooze	-13.6963
▁console	-13.6965
▁replying	-13.6975
▁dragg	-13.699
▁beverages	-13.6993
▁purposely	-13.7003
▁goodness	-13.7005
6	-13.7014
▁packs	-13.7016
cited	-13.7024
▁bricks	-13.7027
▁scales	-13.7027
making	-13.7031
▁husbands	-13.7031
▁guarded	-13.7035
▁moistur	-13.7038
ics	-13.7044
▁crown	-13.7048
aft	-13.7054
▁shyly	-13.7056
▁clipp	-13.7058
▁mentioning	-13.7061
▁kicking	-13.7064
▁accounting	-13.7066
▁outlaw	-13.7067
▁classy	-13.7067
▁21	-13.7081
mary	-13.7083
▁weaken	-13.7084
ow	-13.709
▁transmit	-13.7092
logged	-13.7094
▁devices	-13.7095
▁giraffes	-13.7095
▁frames	-13.7095
ces	-13.7097
▁dire	-13.712
▁mos	-13.7123
▁prospects	-13.7126
dium	-13.7127
▁operations	-13.7127
▁pleasures	-13.7128
▁competitors	-13.7129
▁migraines	-13.7129
▁sneezes	-13.713
mplied	-13.713
▁trends	-13.713
▁inhal	-13.7133
but	-13.7135
▁specialize	-13.7145
itis	-13.7159
▁organi	-13.716
nsils	-13.716
▁shadows	-13.7163
▁critics	-13.7164
▁goner	-13.7167
▁1,	-13.7174
▁rut	-13.7186
▁boot	-13.7198
▁prohibit	-13.7205
mba	-13.7232
▁resolutions	-13.7232
▁spared	-13.7245
ested	-13.7247
▁48	-13.7296
▁stat	-13.7297
▁maps	-13.7301
▁executives	-13.7302
▁$30,	-13.7304
▁supervisi	-13.731
▁fre	-13.7331
ament	-13.7332
▁reforms	-13.7337
▁amateurs	-13.7337
pounded	-13.7348
▁paged	-13.7349
▁forests	-13.7361
▁oceans	-13.7365
rimmed	-13.7365
▁til	-13.7365
▁restrooms	-13.7372
▁infections	-13.7372
▁nutt	-13.738
gi	-13.739
▁bu	-13.7393
backs	-13.7401
skinned	-13.7403
ese	-13.7407
▁settings	-13.7407
▁inf	-13.7416
▁finals	-13.7443
▁hunters	-13.7443
air	-13.7454
▁sna	-13.7454
ture	-13.7457
▁hermit	-13.747
▁sites	-13.7471
▁longing	-13.7484
ists	-13.7492
powered	-13.7495
▁nav	-13.7501
▁yo	-13.7513
▁fuels	-13.7514
30.	-13.7518
▁procedures	-13.755
▁gums	-13.7557
ping	-13.7565
▁ordering	-13.7585
▁han	-13.7617
▁blanks	-13.7623
▁mob	-13.7636
ator	-13.7645
▁cavit	-13.7657
▁balloons	-13.7658
thanks	-13.7716
▁em	-13.7719
▁inmate	-13.7762
hered	-13.7789
▁frankl	-13.7793
▁chains	-13.7803
▁investments	-13.7804
▁expressions	-13.7805
▁failures	-13.7819
▁shells	-13.7828
▁196	-13.7833
▁underestimat	-13.7858
▁metals	-13.7875
rous	-13.7878
pointed	-13.7883
▁libra	-13.7912
▁cu	-13.796
rome	-13.7968
▁wan	-13.8004
▁scrape	-13.801
ens	-13.8017
▁springs	-13.8017
▁await	-13.802
▁bloodsh	-13.8023
porter	-13.8031
ik	-13.804
▁vacations	-13.8043
▁judges	-13.8048
▁3,	-13.805
▁quarrels	-13.806
▁freaks	-13.8063
▁sho	-13.8066
▁overthink	-13.8085
▁crowds	-13.8102
▁millionaires	-13.8103
severance	-13.8106
▁hagg	-13.8118
▁indulge	-13.8126
tude	-13.815
▁fasting	-13.8174
▁bikes	-13.8178
▁reli	-13.8217
▁smo	-13.8238
ula	-13.8266
▁defi	-13.8268
ami	-13.827
post	-13.8277
▁ki	-13.8293
ened	-13.8307
▁assert	-13.8326
▁disasters	-13.8334
44	-13.8338
▁diver	-13.836
tter	-13.838
▁pools	-13.8399
oo	-13.8406
15	-13.8426
▁pr	-13.8436
▁corpora	-13.8442
ue	-13.8473
wi	-13.8487
▁statements	-13.8491
un	-13.8516
tale	-13.852
residential	-13.8548
ill	-13.8551
mother	-13.8559
▁manufactur	-13.8565
ima	-13.8576
▁dan	-13.8583
▁bun	-13.8613
▁q	-13.8621
ba	-13.8636
▁impose	-13.864
▁lectures	-13.8652
▁sam	-13.8666
▁prisons	-13.8672
▁chape	-13.8675
▁poets	-13.873
▁23	-13.8744
▁unwrap	-13.8755
rew	-13.8821
core	-13.8826
▁jew	-13.8844
▁prod	-13.8859
▁dancers	-13.8861
duct	-13.8866
▁thr	-13.8872
hou	-13.8875
ening	-13.8911
uz	-13.8928
mates	-13.8943
▁fig	-13.897
ick	-13.9003
ligible	-13.9014
ho	-13.9035
▁pal	-13.9045
▁caps	-13.9069
ckered	-13.9078
▁shou	-13.9091
pol	-13.9104
here	-13.9106
▁negligen	-13.9115
▁182	-13.912
▁scor	-13.9127
▁groan	-13.9128
rage	-13.9128
▁cardiologist	-13.9132
▁endeavor	-13.9132
▁script	-13.9132
ette	-13.9132
▁shiver	-13.9136
▁mic	-13.9139
▁bikini	-13.9149
▁revenue	-13.9149
▁fiber	-13.9149
▁shrine	-13.9149
▁interruption	-13.9151
▁hiccup	-13.9152
▁communicat	-13.9155
▁miniskirt	-13.9156
▁blossom	-13.9158
▁vampire	-13.916
▁electronic	-13.9161
▁feature	-13.9161
bar	-13.9163
uckle	-13.9164
▁cupcake	-13.9165
like	-13.9167
▁measurement	-13.9168
▁beast	-13.9168
▁applicant	-13.9169
▁obstacle	-13.9169
▁muslim	-13.9171
▁resident	-13.9171
▁immigrant	-13.9171
▁bla	-13.918
eller	-13.9189
iable	-13.9201
▁memo	-13.9202
▁rec	-13.9204
▁hop	-13.9205
▁250	-13.9205
▁examin	-13.9215
abid	-13.922
prints	-13.9221
▁sleepless	-13.9228
▁scorpio	-13.9232
conditioned	-13.9235
came	-13.9237
emphasized	-13.9238
educti	-13.9253
▁dy	-13.9253
body	-13.9257
▁shi	-13.9257
▁arise	-13.9263
▁resid	-13.9265
atched	-13.9266
▁disc	-13.9269
light	-13.9269
▁verb	-13.9269
▁postpon	-13.927
book	-13.927
▁ste	-13.927
intende	-13.9271
▁str	-13.9273
sleeve	-13.9275
face	-13.9276
cut	-13.9276
▁tau	-13.9282
▁fatigue	-13.9283
hold	-13.9284
▁bud	-13.9284
▁historic	-13.9285
▁restore	-13.9285
▁strangle	-13.9286
respect	-13.9286
jack	-13.9287
▁fascinate	-13.9287
▁rattle	-13.9287
▁engage	-13.9287
▁relate	-13.9287
▁basin	-13.9288
▁complicate	-13.9288
heart	-13.9288
▁exhaust	-13.9289
▁bounce	-13.929
craft	-13.9291
▁hack	-13.9293
yard	-13.9293
▁manipulat	-13.9294
style	-13.9294
▁strain	-13.9295
stream	-13.9295
▁approv	-13.9295
▁cramp	-13.9295
▁monitor	-13.9295
▁extinguish	-13.9296
▁persuad	-13.9296
▁pronounc	-13.9296
▁abolish	-13.9297
▁distress	-13.9297
▁lick	-13.9297
▁appoint	-13.9297
just	-13.9298
sister	-13.9299
fitting	-13.9299
maniac	-13.9299
trained	-13.9299
food	-13.9299
faithful	-13.9299
regarded	-13.93
educated	-13.93
help	-13.93
millionaire	-13.93
divided	-13.93
security	-13.93
deep	-13.93
professional	-13.93
distance	-13.93
grateful	-13.93
injured	-13.93
jar	-13.93
people	-13.93
high	-13.93
scene	-13.93
through	-13.93
rich	-13.93
bump	-13.93
held	-13.93
discreet	-13.93
▁convict	-13.9301
▁shorthand	-13.9301
awa	-13.9301
pin	-13.9303
▁abrupt	-13.9303
▁flee	-13.9303
▁rev	-13.9303
loving	-13.9303
▁giggl	-13.9304
certainly	-13.9304
▁industri	-13.9306
▁coop	-13.9306
▁bathe	-13.9306
:	-13.9307
▁grouch	-13.9307
sippi	-13.9308
▁appetiz	-13.9308
▁squi	-13.9308
▁villa	-13.9308
▁crazie	-13.9308
obbing	-13.9308
▁atlanti	-13.9308
ecutive	-13.9308
▁grandchild	-13.9308
▁christ	-13.9309
▁$20	-13.9309
▁$5	-13.9309
▁recogni	-13.9309
▁charisma	-13.9309
▁ambiguit	-13.9309
▁immaculate	-13.9309
▁traumati	-13.9309
jointed	-13.9309
retriev	-13.9309
sburg	-13.9309
ã	-13.9309
▁abhor	-13.9309
▁aerobics	-13.9309
▁akita	-13.9309
▁alligator	-13.9309
▁altitude	-13.9309
▁ambiguous	-13.9309
▁anorexic	-13.9309
▁antarctic	-13.9309
▁atlanta	-13.9309
▁beehive	-13.9309
▁biscuit	-13.9309
▁bodybuilder	-13.9309
▁bongos	-13.9309
▁brunch	-13.9309
▁burrito	-13.9309
▁campground	-13.9309
▁carburetor	-13.9309
▁catastrophic	-13.9309
▁celebrities	-13.9309
▁centuries	-13.9309
▁cheetah	-13.9309
▁chemotherapy	-13.9309
▁coherent	-13.9309
▁complacent	-13.9309
▁complement	-13.9309
▁conceive	-13.9309
▁congest	-13.9309
▁conspicuous	-13.9309
▁contend	-13.9309
▁coordinator	-13.9309
▁coroner	-13.9309
▁counseling	-13.9309
▁cuckoo	-13.9309
▁cuisine	-13.9309
▁cushion	-13.9309
▁cyclist	-13.9309
▁deceitful	-13.9309
▁deputy	-13.9309
▁desperation	-13.9309
▁destruction	-13.9309
▁detergent	-13.9309
▁detour	-13.9309
▁dipper	-13.9309
▁disillusioned	-13.9309
▁distribution	-13.9309
▁domain	-13.9309
▁dyslexic	-13.9309
▁earplugs	-13.9309
▁emperor	-13.9309
▁endanger	-13.9309
▁evaluate	-13.9309
▁excel	-13.9309
▁exclusive	-13.9309
▁exuberant	-13.9309
▁florence	-13.9309
▁florist	-13.9309
▁foggiest	-13.9309
▁fragments	-13.9309
▁friction	-13.9309
▁frisbee	-13.9309
▁fundrais	-13.9309
▁geneva	-13.9309
▁gourmet	-13.9309
▁granola	-13.9309
▁guinness	-13.9309
▁holland	-13.9309
▁honshu	-13.9309
▁hyperactive	-13.9309
▁igloo	-13.9309
▁impostor	-13.9309
▁inclination	-13.9309
▁indisputable	-13.9309
▁ineffective	-13.9309
▁instructed	-13.9309
▁involuntary	-13.9309
▁janeiro	-13.9309
▁javascript	-13.9309
▁jiff	-13.9309
▁juvenile	-13.9309
▁karuizawa	-13.9309
▁kerosene	-13.9309
▁lavatory	-13.9309
▁lavish	-13.9309
▁laziness	-13.9309
▁linux	-13.9309
▁lizard	-13.9309
▁loneliness	-13.9309
▁loophole	-13.9309
▁malarkey	-13.9309
▁margarita	-13.9309
▁margin	-13.9309
▁marijuana	-13.9309
▁matsuyama	-13.9309
▁mediterranean	-13.9309
▁militia	-13.9309
▁moustache	-13.9309
▁mumps	-13.9309
▁muscular	-13.9309
▁muttering	-13.9309
▁nagasaki	-13.9309
▁nintendo	-13.9309
▁nitpick	-13.9309
▁nostalgic	-13.9309
▁oblivious	-13.9309
▁obstruct	-13.9309
▁orchids	-13.9309
▁oxford	-13.9309
▁pacemaker	-13.9309
▁pakistan	-13.9309
▁pavement	-13.9309
▁peck	-13.9309
▁pedicure	-13.9309
▁persistence	-13.9309
▁pioneer	-13.9309
▁plowing	-13.9309
▁podcast	-13.9309
▁preschool	-13.9309
▁presumptuous	-13.9309
▁prioritize	-13.9309
▁procrastinating	-13.9309
▁proposing	-13.9309
▁province	-13.9309
▁punctuation	-13.9309
▁puncture	-13.9309
▁quad	-13.9309
▁quaker	-13.9309
▁questionnaire	-13.9309
▁rambling	-13.9309
▁rattlesnake	-13.9309
▁redecorate	-13.9309
▁reduction	-13.9309
▁refined	-13.9309
▁reggae	-13.9309
▁rejoi	-13.9309
▁reluctance	-13.9309
▁resuscitat	-13.9309
▁salesgirl	-13.9309
▁sanction	-13.9309
▁scowl	-13.9309
▁scrawny	-13.9309
▁sergeant	-13.9309
▁shabby	-13.9309
▁siberia	-13.9309
▁significance	-13.9309
▁simultaneous	-13.9309
▁skunk	-13.9309
▁smuggling	-13.9309
▁sniffed	-13.9309
▁snorkel	-13.9309
▁specimen	-13.9309
▁squealed	-13.9309
▁stradivarius	-13.9309
▁subscription	-13.9309
▁surplus	-13.9309
▁sweden	-13.9309
▁synonym	-13.9309
▁syria	-13.9309
▁telepathic	-13.9309
▁texan	-13.9309
▁theoretical	-13.9309
▁threshold	-13.9309
▁toddler	-13.9309
▁tuberculosis	-13.9309
▁tyrann	-13.9309
▁umpire	-13.9309
▁unbuckle	-13.9309
▁unconvincing	-13.9309
▁unintelligent	-13.9309
▁unstoppable	-13.9309
▁vaccinated	-13.9309
▁visual	-13.9309
▁waltz	-13.9309
▁wildflowers	-13.9309
siege	-13.9309
▁bleach	-13.9309
▁coincidental	-13.9309
▁illuminat	-13.9309
▁inflammat	-13.9309
▁integra	-13.9309
▁metaphor	-13.9309
▁racism	-13.9309
▁skydive	-13.9309
▁tactic	-13.9309
/	-13.9309
▁149	-13.9309
▁airtight	-13.9309
▁anime	-13.9309
▁cartwheel	-13.9309
▁clarifi	-13.9309
▁cloning	-13.9309
▁copilot	-13.9309
▁fertilizer	-13.9309
▁feud	-13.9309
▁fingertip	-13.9309
▁hollow	-13.9309
▁lonesome	-13.9309
▁lucid	-13.9309
▁massacre	-13.9309
▁nasa	-13.9309
▁ninth	-13.9309
▁occurrence	-13.9309
▁peephole	-13.9309
▁sedan	-13.9309
▁spree	-13.9309
▁stamina	-13.9309
▁stylish	-13.9309
▁traumatized	-13.9309
▁waffles	-13.9309
▁calculating	-13.9309
▁chamber	-13.9309
▁iowa	-13.9309
▁jackpot	-13.9309
▁nursing	-13.9309
▁abusive	-13.9309
▁dusk	-13.9309
▁odor	-13.9309
▁salaries	-13.9309
▁shrank	-13.9309
▁syllable	-13.9309
▁battlefield	-13.9309
▁brook	-13.9309
▁cordial	-13.9309
▁initiati	-13.9309
▁sedated	-13.9309
▁cpa	-13.9309
▁encore	-13.9309
▁floorboards	-13.9309
▁forklift	-13.9309
▁pricing	-13.9309
▁retract	-13.9309
▁salute	-13.9309
▁88	-13.9309
▁colonel	-13.9309
▁defective	-13.9309
▁entertainment	-13.9309
▁seashore	-13.9309
▁1,500	-13.9309
▁banner	-13.9309
▁disney	-13.9309
▁immigration	-13.9309
▁minimal	-13.9309
derate	-13.9309
▁candlestick	-13.9309
▁inventive	-13.9309
▁sax	-13.9309
▁gomez	-13.9309
▁paintbrush	-13.9309
▁sinner	-13.9309
▁supervising	-13.9309
▁1908	-13.9309
▁alex	-13.9309
▁graveyard	-13.9309
▁pigsty	-13.9309
▁radiation	-13.9309
▁sculpture	-13.9309
▁kilt	-13.9309
▁$500	-13.9309
▁abdom	-13.9309
▁teetotaler	-13.9309
▁compact	-13.9309
▁decoration	-13.9309
▁cork	-13.9309
▁hillside	-13.9309
▁nickel	-13.9309
▁chapped	-13.9309
▁botch	-13.9309
▁confrontation	-13.9309
▁madonna	-13.9309
▁goatee	-13.9309
▁alumin	-13.9309
▁preview	-13.9309
▁daunting	-13.9309
▁analogy	-13.9309
▁dough	-13.9309
▁marina	-13.9309
▁pluto	-13.9309
▁spooky	-13.9309
▁capsized	-13.9309
▁facial	-13.9309
▁lining	-13.9309
▁quibble	-13.9309
66	-13.9309
▁hostel	-13.9309
▁60%	-13.9309
▁capri	-13.9309
▁curveball	-13.9309
▁prosecutor	-13.9309
▁doomed	-13.9309
▁polka	-13.9309
▁1962	-13.9309
▁bassist	-13.9309
▁bellboy	-13.9309
▁escalator	-13.9309
▁futon	-13.9309
▁hairbrush	-13.9309
▁wildlife	-13.9309
▁1957	-13.9309
▁hardships	-13.9309
▁villain	-13.9309
▁diesel	-13.9309
▁1603	-13.9309
▁frantically	-13.9309
▁blueberries	-13.9309
▁hog	-13.9309
▁ohio	-13.9309
▁paved	-13.9309
▁rhythm	-13.9309
▁info	-13.9309
▁lanes	-13.9309
▁rewritten	-13.9309
▁cultivate	-13.9309
▁holler	-13.9309
inium	-13.9309
▁feast	-13.9309
▁110	-13.9309
▁luis	-13.9309
▁installation	-13.9309
▁negotiating	-13.9309
▁maria	-13.9309
▁negotia	-13.9309
▁cleanliness	-13.9309
▁twig	-13.9309
▁polyg	-13.9309
▁babe	-13.9309
▁1955	-13.9309
▁1995	-13.9309
▁impractical	-13.9309
▁paperweight	-13.9309
▁mangoes	-13.9309
▁1968	-13.9309
▁gagged	-13.9309
▁martini	-13.9309
▁76	-13.9309
▁hummingbird	-13.9309
▁keyhole	-13.931
▁tryouts	-13.931
▁selection	-13.931
▁skype	-13.931
▁hustle	-13.931
▁freshmen	-13.931
▁birthrate	-13.931
▁wobbly	-13.931
▁inspection	-13.931
▁athens	-13.931
▁viewpoint	-13.931
▁overqualified	-13.931
▁cookbook	-13.931
▁refusal	-13.931
▁hawaiian	-13.931
▁enterprising	-13.931
▁faking	-13.931
▁volcanoes	-13.931
▁stripes	-13.931
▁widened	-13.931
▁42	-13.931
▁swans	-13.931
▁proportion	-13.931
▁knockout	-13.931
▁scotch	-13.931
▁almonds	-13.931
▁reputable	-13.931
▁unjust	-13.931
▁subjective	-13.9311
annibal	-13.9311
▁overwork	-13.9311
▁lawsuit	-13.9311
▁indicted	-13.9311
▁saddened	-13.9311
▁averted	-13.9311
▁expressway	-13.9311
▁selfishness	-13.9311
▁mold	-13.9311
▁prematurely	-13.9311
▁luxurious	-13.9311
▁widower	-13.9311
▁54	-13.9312
▁pasture	-13.9312
▁bookshop	-13.9312
▁bodi	-13.9312
▁newsworthy	-13.9312
▁newsstand	-13.9312
▁hayes	-13.9312
▁36	-13.9312
izer	-13.9312
▁bio	-13.9312
▁hungri	-13.9312
▁himalaya	-13.9312
▁fad	-13.9312
▁considerably	-13.9312
▁leverage	-13.9312
▁shredded	-13.9312
▁sling	-13.9313
▁foolishness	-13.9313
arius	-13.9313
best	-13.9313
▁goofy	-13.9313
▁blade	-13.9313
▁yearbook	-13.9313
nsistent	-13.9313
▁developer	-13.9313
▁dipping	-13.9313
struck	-13.9314
▁squeak	-13.9314
▁dehydrated	-13.9314
▁stumped	-13.9314
▁kansa	-13.9314
▁magical	-13.9314
▁abruptly	-13.9314
▁idiotic	-13.9314
▁patronizing	-13.9315
▁frowning	-13.9315
▁bumper	-13.9315
▁autobiographi	-13.9315
▁slash	-13.9315
▁veil	-13.9315
▁disconnect	-13.9315
▁spike	-13.9316
▁anarchy	-13.9316
▁finalist	-13.9316
▁outrage	-13.9316
▁verse	-13.9316
▁choosy	-13.9316
▁deliberating	-13.9316
role	-13.9316
▁hives	-13.9316
▁latch	-13.9317
▁recycling	-13.9317
▁regrettable	-13.9317
terred	-13.9317
▁receiver	-13.9317
▁shameless	-13.9317
▁dries	-13.9317
▁hiccuping	-13.9317
▁gritt	-13.9318
▁spanking	-13.9318
▁extroverted	-13.9318
▁bled	-13.9318
▁poach	-13.9318
▁coordinated	-13.9319
▁assassinated	-13.9319
cent	-13.9319
oh	-13.932
▁parad	-13.932
▁extract	-13.9321
▁meddling	-13.9321
▁strained	-13.9322
▁contemplating	-13.9322
hower	-13.9322
▁emergenc	-13.9322
faced	-13.9324
▁bomber	-13.9324
▁tenderly	-13.9324
due	-13.9325
▁overhearing	-13.9325
▁fin	-13.9325
▁bolted	-13.9325
▁tasteless	-13.9326
▁benches	-13.9327
▁magni	-13.9327
▁connecting	-13.9327
▁markedly	-13.9327
▁archer	-13.9328
sex	-13.9328
▁graceful	-13.9328
▁bamb	-13.9329
▁trainee	-13.933
▁slaughter	-13.933
dling	-13.9332
▁restored	-13.9333
▁lifeboats	-13.9333
▁carols	-13.9333
▁clogs	-13.9333
▁substances	-13.9333
▁videogames	-13.9333
▁spank	-13.9334
▁gases	-13.9334
▁distracting	-13.9335
▁dart	-13.9335
▁quitter	-13.9336
▁sno	-13.9337
▁minu	-13.9338
itch	-13.9338
▁livi	-13.9338
▁38	-13.9339
▁distrust	-13.9339
▁beaver	-13.934
▁clamp	-13.934
heartedly	-13.9341
▁nest	-13.9341
rench	-13.9342
tiles	-13.9342
▁activat	-13.9343
▁uploaded	-13.9344
▁yawned	-13.9344
▁rental	-13.9346
▁weirder	-13.9346
▁jumpy	-13.9347
▁takeoff	-13.9347
▁addresses	-13.9348
lut	-13.9352
ished	-13.9354
▁drained	-13.9355
▁pap	-13.9356
organizing	-13.9362
▁doorman	-13.9362
▁potentially	-13.9363
▁canoeing	-13.9364
▁bal	-13.9365
death	-13.9365
▁violently	-13.9368
▁truthfully	-13.9369
handedly	-13.937
▁proves	-13.9371
▁letdown	-13.9371
revi	-13.9374
▁chords	-13.9376
▁mormons	-13.9376
▁falsely	-13.9378
tlers	-13.9378
amine	-13.9379
▁layer	-13.938
sight	-13.938
iness	-13.9381
▁rescheduled	-13.9381
monger	-13.9385
ky	-13.9387
▁memoriz	-13.9387
▁researcher	-13.9388
▁arisen	-13.9389
▁callous	-13.939
▁unsol	-13.9393
ney	-13.9395
▁dispos	-13.9395
▁mill	-13.9398
mple	-13.94
▁circulat	-13.9401
▁dais	-13.9401
▁crus	-13.9402
▁mowed	-13.9403
▁medium	-13.9403
▁pac	-13.9403
eyed	-13.9404
▁alerted	-13.9406
▁flooding	-13.9408
▁branded	-13.9408
missions	-13.9409
▁biker	-13.9411
native	-13.9416
▁177	-13.9417
▁aspects	-13.9419
▁youngsters	-13.9419
▁complications	-13.9419
▁rituals	-13.9419
▁graz	-13.9426
aro	-13.9427
▁workout	-13.9448
▁astound	-13.945
well	-13.945
▁curs	-13.9452
▁avenge	-13.9453
▁nests	-13.9454
▁rushing	-13.9456
▁nearer	-13.9458
▁picke	-13.946
▁miniskirts	-13.9463
▁shivers	-13.9464
ad	-13.9464
▁briefed	-13.947
▁$50	-13.9471
only	-13.9477
▁bombing	-13.9478
▁originate	-13.9479
▁stocking	-13.9481
▁scott	-13.9491
▁quoted	-13.9493
▁pigg	-13.9493
tologist	-13.9506
▁ivy	-13.9506
▁pedestrians	-13.9508
▁plums	-13.9508
▁bolts	-13.9508
▁fut	-13.9508
▁questionable	-13.9509
▁containers	-13.9509
▁spoils	-13.9514
boys	-13.9518
▁curt	-13.9522
▁disagreeing	-13.9524
1,	-13.9529
▁babysitt	-13.9541
▁burgers	-13.9552
▁granddaughters	-13.9552
▁employers	-13.9553
▁22.	-13.9555
labber	-13.956
▁negligent	-13.9563
▁cam	-13.9567
▁drinkable	-13.9567
▁evaporate	-13.9582
▁aspire	-13.9585
▁quot	-13.9596
▁communists	-13.9597
▁zombies	-13.9597
▁cheerleaders	-13.9597
▁curses	-13.9598
▁insure	-13.96
izes	-13.9601
▁daytime	-13.9605
tory	-13.9609
▁barg	-13.9614
ria	-13.9614
▁scenes	-13.9621
ingle	-13.9623
▁mammals	-13.9643
▁cheeseburgers	-13.9643
▁departs	-13.9643
▁farming	-13.9644
▁chops	-13.9646
▁aces	-13.9653
▁inbox	-13.9657
ron	-13.9681
▁vices	-13.9687
authorized	-13.9688
▁melons	-13.9688
▁nets	-13.9689
xi	-13.969
▁attackers	-13.9691
sanity	-13.9703
▁progressed	-13.9703
mologist	-13.9704
▁ros	-13.9714
▁wonderfully	-13.9725
boyfriends	-13.9726
▁reminding	-13.9732
▁marines	-13.9733
▁christians	-13.9735
▁ya	-13.9757
▁spades	-13.9779
▁origins	-13.9783
▁sor	-13.9785
hit	-13.9795
▁agreements	-13.9797
ruff	-13.9797
▁heals	-13.9806
iate	-13.9812
▁spouses	-13.9826
▁bulbs	-13.9826
▁napkins	-13.9826
▁untie	-13.9835
3,	-13.9836
▁4,	-13.9847
▁vene	-13.985
▁kn	-13.9852
▁passports	-13.9857
▁kittens	-13.9872
▁swallows	-13.9873
▁buyers	-13.9891
lusive	-13.9896
▁stifle	-13.9912
50	-13.9914
▁deb	-13.9914
▁cherish	-13.9919
▁optimists	-13.9919
ants	-13.993
fa	-13.9931
▁stimulat	-13.9932
wine	-13.9937
▁swi	-13.994
▁minimize	-13.9942
▁lan	-13.9944
▁recycl	-13.9952
▁inning	-13.9952
▁reviews	-13.9965
▁preache	-13.9967
sk	-14
▁backfire	-14.0011
▁pirates	-14.0012
▁beggars	-14.0013
gus	-14.0017
▁vent	-14.0021
▁units	-14.0025
ons	-14.0034
nce	-14.0038
▁renting	-14.0046
11	-14.0062
▁stakes	-14.0066
if	-14.0073
▁varie	-14.0088
▁zu	-14.0089
▁deliberat	-14.0102
▁champions	-14.0107
les	-14.0111
ership	-14.0152
▁regions	-14.0155
▁bandages	-14.0158
▁canyon	-14.02
▁links	-14.0202
▁shortages	-14.0204
▁gardeners	-14.0211
tro	-14.0219
dication	-14.022
ag	-14.0222
▁picnics	-14.0231
▁cur	-14.0242
▁cooled	-14.0248
▁collaborate	-14.0251
93	-14.0275
asking	-14.0277
▁texts	-14.028
▁sketche	-14.0283
▁bas	-14.0313
lded	-14.0316
▁morals	-14.0336
ssen	-14.0348
ris	-14.0348
▁smokers	-14.0357
nched	-14.0362
ang	-14.0363
▁las	-14.0395
▁purchases	-14.0402
bon	-14.0415
sized	-14.0417
clutter	-14.042
▁websites	-14.0434
sitting	-14.0455
▁compile	-14.0468
▁bur	-14.0472
▁hurrying	-14.0477
▁pon	-14.0495
▁inventions	-14.0498
▁clues	-14.0499
agit	-14.0522
▁remarkabl	-14.0527
rger	-14.0532
raved	-14.0533
▁goodbyes	-14.0533
▁elements	-14.0547
▁brands	-14.0549
cked	-14.0577
ded	-14.059
zed	-14.0614
ua	-14.0634
▁prun	-14.0646
og	-14.0659
▁lib	-14.0661
axed	-14.068
▁pes	-14.0683
ayed	-14.0686
fetched	-14.0698
▁grat	-14.0712
▁dow	-14.0715
▁indulgen	-14.0728
°	-14.0734
▁oppos	-14.0741
▁diar	-14.0757
▁pu	-14.0759
leaning	-14.0766
▁marriages	-14.0769
shin	-14.077
pending	-14.0795
holstered	-14.0836
▁logs	-14.0843
▁alcoholics	-14.0853
pers	-14.0859
▁improvise	-14.0878
ently	-14.088
▁souls	-14.0888
▁teller	-14.0895
▁cultures	-14.0911
ouri	-14.0923
▁hips	-14.093
▁va	-14.0939
▁diss	-14.0989
njam	-14.0994
▁honors	-14.1012
▁delays	-14.1018
▁strap	-14.1018
ff	-14.1052
▁weddings	-14.1097
▁blaz	-14.1127
ering	-14.1128
ency	-14.113
▁merci	-14.1136
▁receipts	-14.1168
reaked	-14.1187
chu	-14.119
covered	-14.1201
▁181	-14.1217
▁lakes	-14.1238
ul	-14.1255
▁barbe	-14.1257
ically	-14.1261
▁careers	-14.1263
▁bustl	-14.1273
▁ankles	-14.1277
▁chap	-14.1297
ha	-14.1302
▁skille	-14.1337
5%	-14.1342
▁vil	-14.1356
▁escapes	-14.137
▁cy	-14.1401
▁collaborat	-14.1453
eel	-14.1459
hose	-14.1469
opped	-14.1473
▁sur	-14.1497
▁cracks	-14.1502
▁tags	-14.1512
racking	-14.1515
▁prop	-14.155
▁translations	-14.155
nts	-14.1554
fish	-14.1557
▁debi	-14.1565
referred	-14.157
git	-14.1578
ru	-14.1604
▁speculati	-14.1613
▁189	-14.1637
▁qui	-14.165
uck	-14.1666
▁aims	-14.1672
lit	-14.17
op	-14.1706
▁trades	-14.1717
▁drumme	-14.1745
his	-14.1749
ster	-14.1766
etary	-14.1771
ologist	-14.178
nder	-14.1825
▁steaks	-14.1833
▁stimulate	-14.1835
▁bounds	-14.1838
ital	-14.1839
logist	-14.1848
▁cherishe	-14.185
lly	-14.1889
ward	-14.1905
oyal	-14.1916
▁fe	-14.1936
pit	-14.1942
▁throats	-14.1943
▁opposites	-14.1947
▁treatments	-14.1947
▁boyfriends	-14.1954
▁rem	-14.1976
oma	-14.198
▁gymnas	-14.1988
▁insufficient	-14.1991
▁renovate	-14.2
▁cruis	-14.2016
▁168	-14.2034
aved	-14.2048
▁55	-14.2065
port	-14.2068
nctua	-14.2089
▁implie	-14.2092
becoming	-14.2094
fol	-14.2101
89	-14.2114
mitted	-14.2139
▁greene	-14.2172
▁compos	-14.2173
▁albums	-14.2179
ome	-14.219
bag	-14.2192
▁div	-14.2198
▁axe	-14.2198
ept	-14.2226
zer	-14.223
▁plu	-14.224
corn	-14.2242
▁fu	-14.2267
ndered	-14.2291
ight	-14.2309
da	-14.232
▁attain	-14.232
rential	-14.2321
▁su	-14.2339
any	-14.2341
quality	-14.2346
▁miser	-14.2349
▁masters	-14.2363
rogator	-14.2374
▁expresse	-14.238
hill	-14.2386
owner	-14.2387
ware	-14.2393
▁scot	-14.2394
▁duet	-14.2394
orous	-14.2398
strac	-14.2411
hur	-14.2418
▁rabbi	-14.242
wig	-14.2432
itive	-14.2433
▁terroris	-14.2439
▁scum	-14.2442
bird	-14.2458
mad	-14.2462
oid	-14.2464
▁eyelid	-14.2466
▁persimmon	-14.2466
▁seagull	-14.2466
▁windmill	-14.2467
mission	-14.2481
▁neighbour	-14.2483
▁puppet	-14.2483
▁portion	-14.2485
ometer	-14.2485
icle	-14.2486
sleeved	-14.2487
▁pickpocket	-14.2489
▁ritual	-14.249
▁complication	-14.249
▁aspect	-14.249
▁patron	-14.2492
▁youngster	-14.2494
▁historian	-14.2494
▁thorn	-14.2495
▁penguin	-14.2497
▁snowflake	-14.2497
▁snail	-14.2497
▁firearm	-14.2497
▁dar	-14.25
▁climber	-14.2501
▁flick	-14.2503
▁dinosaur	-14.2503
▁handout	-14.2504
▁kilo	-14.2506
▁resource	-14.2507
tracked	-14.2509
▁surrounding	-14.2511
▁correction	-14.2512
▁eavesdrop	-14.2515
informed	-14.2515
achi	-14.2523
eodor	-14.2524
▁acknowledg	-14.2531
ori	-14.2536
yp	-14.2537
inal	-14.2538
▁dishe	-14.2543
tha	-14.2551
aki	-14.2554
jury	-14.2555
▁specif	-14.2555
person	-14.256
step	-14.2562
▁fili	-14.2563
▁cells	-14.2565
perated	-14.2565
cluded	-14.257
▁sham	-14.2576
mended	-14.2576
tune	-14.2577
▁enthusiast	-14.2578
zo	-14.2578
▁blu	-14.2581
parked	-14.2583
▁possess	-14.2584
rched	-14.2584
onia	-14.2587
behaved	-14.2587
▁hub	-14.259
▁aquariu	-14.259
▁irre	-14.2593
trusted	-14.2594
dish	-14.2595
figure	-14.2595
look	-14.2597
check	-14.2602
▁calcul	-14.2606
mes	-14.2607
▁pag	-14.2608
place	-14.2608
▁evasi	-14.261
spoken	-14.2613
▁supervise	-14.2614
▁tang	-14.2615
▁twinkle	-14.2616
▁buzz	-14.2617
▁buckle	-14.2617
leas	-14.2618
orch	-14.2619
ub	-14.2619
▁illustrate	-14.2619
▁choke	-14.262
▁execute	-14.2621
▁depresse	-14.2621
▁aunts	-14.2621
▁furnish	-14.2621
▁exile	-14.2622
▁frown	-14.2622
▁undress	-14.2622
▁surround	-14.2622
▁mag	-14.2622
ban	-14.2622
▁fade	-14.2622
▁pierce	-14.2622
▁conclude	-14.2623
▁saf	-14.2623
rawl	-14.2624
▁tech	-14.2624
teacher	-14.2625
▁separat	-14.2625
certain	-14.2626
opportun	-14.2626
moto	-14.2627
▁tak	-14.2627
▁knight	-14.2627
base	-14.2628
▁desir	-14.2628
cla	-14.2628
minated	-14.2628
▁inhabit	-14.2629
▁burp	-14.2629
▁declar	-14.2629
case	-14.2629
▁complet	-14.2629
▁seiz	-14.2629
▁extrovert	-14.2629
▁bubbl	-14.2629
▁imprison	-14.263
▁blindfold	-14.263
▁construct	-14.263
▁occupie	-14.263
▁summon	-14.263
paw	-14.263
▁smash	-14.263
▁acquaint	-14.2631
▁reject	-14.2631
▁mode	-14.2631
keep	-14.2631
▁delight	-14.2631
▁scru	-14.2631
bow	-14.2631
shooter	-14.2631
scope	-14.2631
sickness	-14.2632
mini	-14.2632
quoted	-14.2632
hole	-14.2632
pan	-14.2632
deceased	-14.2632
productive	-14.2633
satisfaction	-14.2633
wax	-14.2633
chief	-14.2633
▁edit	-14.2633
devil	-14.2633
▁gene	-14.2633
collar	-14.2633
drops	-14.2633
born	-14.2633
songwriter	-14.2633
action	-14.2633
protected	-14.2633
attentive	-14.2633
iographies	-14.2633
click	-14.2633
doubted	-14.2633
▁twirl	-14.2633
fiction	-14.2633
thirties	-14.2633
collection	-14.2633
closed	-14.2633
cooperative	-14.2633
alcoholic	-14.2633
refund	-14.2633
degree	-14.2633
sauce	-14.2633
daughter	-14.2633
called	-14.2633
graduate	-14.2633
apart	-14.2633
grown	-14.2633
reported	-14.2633
hello	-14.2633
actually	-14.2633
afternoon	-14.2633
country	-14.2633
different	-14.2633
taught	-14.2633
woman	-14.2633
kick	-14.2633
three	-14.2634
speed	-14.2634
▁wil	-14.2634
▁windsurf	-14.2634
▁swell	-14.2634
▁compose	-14.2634
past	-14.2635
angel	-14.2635
meter	-14.2635
ader	-14.2635
▁insur	-14.2636
opened	-14.2636
crossed	-14.2636
▁unanimous	-14.2637
▁amuse	-14.2638
▁luxuri	-14.2638
▁literal	-14.2639
pitche	-14.264
▁giggle	-14.264
▁practi	-14.264
▁hone	-14.264
▁wobbl	-14.2641
▁futur	-14.2641
▁unbearabl	-14.2641
▁currenc	-14.2641
▁glow	-14.2641
▁quantit	-14.2641
▁colon	-14.2641
▁energ	-14.2641
▁interact	-14.2641
▁martin	-14.2641
berg	-14.2641
▁spong	-14.2641
cold	-14.2641
▁sprinkle	-14.2642
▁polk	-14.2642
▁stitch	-14.2642
▁paul	-14.2642
▁avail	-14.2642
▁160	-14.2642
▁permissi	-14.2642
stigated	-14.2642
▁nep	-14.2642
▁prosper	-14.2642
▁trait	-14.2642
cades	-14.2642
raph	-14.2642
▁apologetic	-14.2642
▁champ	-14.2642
nstructive	-14.2642
izab	-14.2642
▁embroi	-14.2642
▁graph	-14.2642
▁pursui	-14.2642
turbed	-14.2642
▁inflat	-14.2642
▁1-800-	-14.2642
▁aristocra	-14.2642
▁juli	-14.2642
▁rheumat	-14.2642
entials	-14.2642
▁fertil	-14.2642
▁turk	-14.2642
analyzing	-14.2642
anesthesiologist	-14.2642
caffein	-14.2642
consuming	-14.2642
depressants	-14.2642
dynamic	-14.2642
focals	-14.2642
fragmented	-14.2642
nplu	-14.2642
ountable	-14.2642
rhea	-14.2642
sleigh	-14.2642
talkie	-14.2642
tatoeba	-14.2642
▁2:00	-14.2642
▁abortion	-14.2642
▁achievable	-14.2642
▁achille	-14.2642
▁adverb	-14.2642
▁algebra	-14.2642
▁algeria	-14.2642
▁alumnus	-14.2642
▁anchovies	-14.2642
▁anthropology	-14.2642
▁archaic	-14.2642
▁archeology	-14.2642
▁arthritis	-14.2642
▁asphalt	-14.2642
▁aspirations	-14.2642
▁avalanche	-14.2642
▁barbarian	-14.2642
▁barbaric	-14.2642
▁barcelona	-14.2642
▁bartending	-14.2642
▁bedridden	-14.2642
▁bickering	-14.2642
▁bliss	-14.2642
▁botany	-14.2642
▁caesar	-14.2642
▁café	-14.2642
▁cambodia	-14.2642
▁camouflage	-14.2642
▁cantaloupe	-14.2642
▁caribbean	-14.2642
▁carpentry	-14.2642
▁carriage	-14.2642
▁caterpillar	-14.2642
▁cauliflower	-14.2642
▁chauvinist	-14.2642
▁chiropractor	-14.2642
▁cinderella	-14.2642
▁civic	-14.2642
▁coalition	-14.2642
▁colombia	-14.2642
▁coordination	-14.2642
▁cosmetic	-14.2642
▁coyotes	-14.2642
▁cunning	-14.2642
▁custodian	-14.2642
▁dangling	-14.2642
▁deactivate	-14.2642
▁declining	-14.2642
▁delhi	-14.2642
▁delicacy	-14.2642
▁density	-14.2642
▁dentures	-14.2642
▁discomfort	-14.2642
▁dismount	-14.2642
▁dispatche	-14.2642
▁ebay	-14.2642
▁electrocut	-14.2642
▁electrons	-14.2642
▁elitist	-14.2642
▁empathy	-14.2642
▁encrypt	-14.2642
▁enhance	-14.2642
▁enlarge	-14.2642
▁equation	-14.2642
▁eternity	-14.2642
▁ethiopia	-14.2642
▁evolve	-14.2642
▁exploring	-14.2642
▁extremist	-14.2642
▁eyepatch	-14.2642
▁fedora	-14.2642
▁feminine	-14.2642
▁ferocious	-14.2642
▁fiasco	-14.2642
▁fidget	-14.2642
▁fifties	-14.2642
▁firefox	-14.2642
▁flexibility	-14.2642
▁forearm	-14.2642
▁forewarned	-14.2642
▁fragran	-14.2642
▁galileo	-14.2642
▁gallop	-14.2642
▁generator	-14.2642
▁generosity	-14.2642
▁georgia	-14.2642
▁gigantic	-14.2642
▁glaciers	-14.2642
▁googling	-14.2642
▁gorilla	-14.2642
▁grandkids	-14.2642
▁gregarious	-14.2642
▁harajuku	-14.2642
▁harpsichord	-14.2642
▁heathrow	-14.2642
▁hemisphere	-14.2642
▁hippo	-14.2642
▁hitchhiking	-14.2642
▁hoarse	-14.2642
▁horrendous	-14.2642
▁horrifying	-14.2642
▁humility	-14.2642
▁hypothermia	-14.2642
▁imposing	-14.2642
▁indefinitely	-14.2642
▁insignificant	-14.2642
▁intercepted	-14.2642
▁intruding	-14.2642
▁invoice	-14.2642
▁irritable	-14.2642
▁istanbul	-14.2642
▁jeopardize	-14.2642
▁juicy	-14.2642
▁jurisdiction	-14.2642
▁kendo	-14.2642
▁kleenex	-14.2642
▁kuwait	-14.2642
▁lavender	-14.2642
▁licorice	-14.2642
▁lindbergh	-14.2642
▁malfunction	-14.2642
▁mantelpiece	-14.2642
▁marmalade	-14.2642
▁masculine	-14.2642
▁massachusetts	-14.2642
▁melodramatic	-14.2642
▁microsoft	-14.2642
▁midterms	-14.2642
▁midwest	-14.2642
▁migrate	-14.2642
▁miraculous	-14.2642
▁miscalculat	-14.2642
▁misspelled	-14.2642
▁moaning	-14.2642
▁mohammed	-14.2642
▁mongolia	-14.2642
▁montgomery	-14.2642
▁multilingual	-14.2642
▁mumbai	-14.2642
▁nanny	-14.2642
▁nauseat	-14.2642
▁necessities	-14.2642
▁obedience	-14.2642
▁ointment	-14.2642
▁oklahoma	-14.2642
▁oslo	-14.2642
▁ounce	-14.2642
▁overdramatic	-14.2642
▁overpopulation	-14.2642
▁ozone	-14.2642
▁parasol	-14.2642
▁peacock	-14.2642
▁pelican	-14.2642
▁penmanship	-14.2642
▁penpal	-14.2642
▁perception	-14.2642
▁pertinent	-14.2642
▁perverse	-14.2642
▁pesticides	-14.2642
▁pheasant	-14.2642
▁pigtails	-14.2642
▁pizzeria	-14.2642
▁plaintiff	-14.2642
▁pomegranate	-14.2642
▁potassium	-14.2642
▁poultry	-14.2642
▁pragmatic	-14.2642
▁pregnancy	-14.2642
▁presidency	-14.2642
▁presley	-14.2642
▁pulp	-14.2642
▁quintet	-14.2642
▁recaptured	-14.2642
▁reconstruct	-14.2642
▁redundant	-14.2642
▁rehearsing	-14.2642
▁reinforce	-14.2642
▁reiterate	-14.2642
▁repulse	-14.2642
▁reservoir	-14.2642
▁retarded	-14.2642
▁samurai	-14.2642
▁sarcasm	-14.2642
▁sashimi	-14.2642
▁sauna	-14.2642
▁savior	-14.2642
▁scenario	-14.2642
▁schnapps	-14.2642
▁scoffed	-14.2642
▁screech	-14.2642
▁scroll	-14.2642
▁semicolon	-14.2642
▁serbia	-14.2642
▁shibuya	-14.2642
▁shield	-14.2642
▁shrunk	-14.2642
▁sideburns	-14.2642
▁sinister	-14.2642
▁skyscraper	-14.2642
▁snickering	-14.2642
▁sonata	-14.2642
▁soothing	-14.2642
▁sponsor	-14.2642
▁steroids	-14.2642
▁strenuous	-14.2642
▁striking	-14.2642
▁strumm	-14.2642
▁subordinate	-14.2642
▁subpoena	-14.2642
▁swift	-14.2642
▁sympathies	-14.2642
▁synchronize	-14.2642
▁tantrum	-14.2642
▁technician	-14.2642
▁telegraph	-14.2642
▁tempura	-14.2642
▁territories	-14.2642
▁thermostat	-14.2642
▁thwart	-14.2642
▁tightrope	-14.2642
▁toenails	-14.2642
▁tortoise	-14.2642
▁tranquilizer	-14.2642
▁transform	-14.2642
▁triumph	-14.2642
▁trophies	-14.2642
▁tsunami	-14.2642
▁ueno	-14.2642
▁unattractive	-14.2642
▁unavailable	-14.2642
▁uncanny	-14.2642
▁unconventional	-14.2642
▁unemotional	-14.2642
▁unfazed	-14.2642
▁unhappiness	-14.2642
▁unmanageable	-14.2642
▁unorthodox	-14.2642
▁unquestionabl	-14.2642
▁unsuitable	-14.2642
▁upbringing	-14.2642
▁uranus	-14.2642
▁vacancies	-14.2642
▁vacancy	-14.2642
▁vaccination	-14.2642
▁vessel	-14.2642
▁virtuoso	-14.2642
▁voluntary	-14.2642
▁wardrobe	-14.2642
▁wheelbarrow	-14.2642
▁whirl	-14.2642
▁wizard	-14.2642
▁wriggle	-14.2642
▁wristwatch	-14.2642
▁zucchini	-14.2642
:45	-14.2642
▁arctic	-14.2642
▁dexter	-14.2642
▁gratify	-14.2642
▁icky	-14.2642
▁inquiries	-14.2642
▁ivory	-14.2642
▁luncheon	-14.2642
▁natto	-14.2642
▁philosophical	-14.2642
▁platter	-14.2642
▁turbulence	-14.2642
▁unwanted	-14.2642
▁wholesale	-14.2642
▁4:00	-14.2642
▁coloss	-14.2642
▁communism	-14.2642
▁conjuncti	-14.2642
▁doodling	-14.2642
▁fattening	-14.2642
▁fusion	-14.2642
▁gaga	-14.2642
▁glum	-14.2642
▁librarian	-14.2642
▁nevertheless	-14.2642
▁pediatrician	-14.2642
▁pendant	-14.2642
▁porc	-14.2642
▁residence	-14.2642
▁snickered	-14.2642
▁tavern	-14.2642
▁tolerance	-14.2642
▁turtleneck	-14.2642
▁tutor	-14.2642
▁vertical	-14.2642
pecked	-14.2642
▁atrocious	-14.2642
▁combustion	-14.2642
▁denial	-14.2642
▁inquiring	-14.2642
▁legislation	-14.2642
▁radar	-14.2642
▁soothe	-14.2642
▁subdue	-14.2642
▁webcam	-14.2642
▁disarm	-14.2642
▁entail	-14.2642
▁lagoon	-14.2642
▁radiant	-14.2642
▁simmer	-14.2642
▁transition	-14.2642
kaido	-14.2642
uela	-14.2642
▁$7	-14.2642
▁anderson	-14.2642
▁aroma	-14.2642
▁bulgaria	-14.2642
▁captive	-14.2642
▁forgery	-14.2642
▁galaxies	-14.2642
▁guidelines	-14.2642
▁knead	-14.2642
▁snapshot	-14.2642
▁sprout	-14.2642
▁stairway	-14.2642
▁taboo	-14.2642
▁urgency	-14.2642
▁8:	-14.2642
▁hotdogs	-14.2642
▁sitcoms	-14.2642
▁1986	-14.2642
▁divine	-14.2642
▁jones	-14.2642
▁khan	-14.2642
▁meteorite	-14.2642
▁occupation	-14.2642
▁quench	-14.2642
▁reopen	-14.2642
▁strait	-14.2642
▁aisle	-14.2642
▁asparagus	-14.2642
▁automatic	-14.2642
▁christie	-14.2642
▁dubbed	-14.2642
▁giddy	-14.2642
▁lifespan	-14.2642
▁llama	-14.2642
▁packaging	-14.2642
▁recreation	-14.2642
▁ruling	-14.2642
▁versa	-14.2642
▁adversity	-14.2642
▁dictatorship	-14.2642
perative	-14.2642
▁1903	-14.2642
▁crib	-14.2642
▁helium	-14.2642
▁horizontal	-14.2642
▁wilderness	-14.2642
▁brainstorm	-14.2642
▁slipping	-14.2642
▁eccentricities	-14.2642
▁embar	-14.2642
▁foxhole	-14.2642
▁mastercard	-14.2642
▁jig	-14.2642
▁ballpark	-14.2642
▁clippers	-14.2642
▁hoops	-14.2642
▁oscar	-14.2642
▁zealous	-14.2642
▁41	-14.2642
▁mystified	-14.2642
▁oats	-14.2642
▁quotation	-14.2642
▁throne	-14.2642
▁aimlessly	-14.2642
▁censu	-14.2642
▁landmine	-14.2642
▁pathologist	-14.2642
▁rechecked	-14.2642
▁vibrating	-14.2642
▁birthmark	-14.2642
▁definition	-14.2642
▁evacuation	-14.2642
ulation	-14.2642
▁clunker	-14.2642
▁prosperous	-14.2642
▁stenographer	-14.2642
▁dashboard	-14.2642
▁remorseful	-14.2642
▁basis	-14.2642
▁mischief	-14.2642
▁yale	-14.2642
▁$200	-14.2642
▁$33	-14.2642
▁fluency	-14.2642
▁claws	-14.2642
▁coupon	-14.2642
▁rejection	-14.2642
▁uncertainty	-14.2642
▁viral	-14.2642
▁electrif	-14.2642
▁sash	-14.2642
acity	-14.2642
▁reborn	-14.2642
▁videotape	-14.2642
▁sentimental	-14.2642
▁verified	-14.2642
izzy	-14.2642
▁teaspoon	-14.2642
▁riverbank	-14.2642
▁2014	-14.2642
▁monopolies	-14.2642
▁torpedoes	-14.2642
▁omelette	-14.2642
▁polar	-14.2642
▁speakerphone	-14.2642
▁$100,000	-14.2642
▁hygiene	-14.2642
▁salesmen	-14.2642
▁virgin	-14.2642
▁woodwind	-14.2642
▁1963	-14.2642
▁earshot	-14.2642
▁preference	-14.2642
▁craving	-14.2642
tician	-14.2642
▁kawa	-14.2642
thology	-14.2642
▁1989	-14.2642
▁diversity	-14.2642
▁glider	-14.2642
▁idleness	-14.2642
▁recognizable	-14.2642
▁knack	-14.2642
hap	-14.2642
▁deci	-14.2642
▁embarrassment	-14.2642
▁chatty	-14.2642
▁155	-14.2642
▁chanting	-14.2642
arium	-14.2642
▁goldfish	-14.2642
▁clarinetist	-14.2643
▁napping	-14.2643
▁cranberr	-14.2643
▁uneven	-14.2643
▁legendary	-14.2643
▁salva	-14.2643
▁vig	-14.2643
▁tourism	-14.2643
▁1954	-14.2643
▁1971	-14.2643
▁tragically	-14.2643
▁1864	-14.2643
achiever	-14.2643
▁unlatch	-14.2643
▁repaid	-14.2643
▁1999	-14.2643
▁shoppers	-14.2643
acent	-14.2643
ayama	-14.2643
▁smear	-14.2643
▁weightlift	-14.2643
▁industries	-14.2643
▁lili	-14.2643
▁adj	-14.2643
▁clay	-14.2643
▁bland	-14.2643
▁buzzer	-14.2643
▁godmother	-14.2643
▁habitual	-14.2643
▁reelection	-14.2643
▁tripod	-14.2643
▁1979	-14.2643
▁felony	-14.2643
▁sonnet	-14.2643
▁vip	-14.2643
▁unwa	-14.2643
▁descent	-14.2643
▁tortur	-14.2643
▁birdhouse	-14.2643
▁lifejacket	-14.2643
▁1983	-14.2643
▁unturned	-14.2643
▁entry	-14.2643
▁congressman	-14.2643
▁intruder	-14.2643
▁appetizer	-14.2643
hara	-14.2643
▁exemp	-14.2643
▁settlement	-14.2643
▁socialize	-14.2643
▁expectantly	-14.2643
▁6%	-14.2643
▁fortress	-14.2643
▁instinctively	-14.2643
▁confirmation	-14.2643
▁greenland	-14.2643
▁entertainer	-14.2643
▁aircraft	-14.2643
▁discoveries	-14.2644
▁emph	-14.2644
▁blanc	-14.2644
▁smuggler	-14.2644
phy	-14.2644
▁indige	-14.2644
▁marsh	-14.2644
▁1951	-14.2644
voked	-14.2644
▁powerpoint	-14.2644
▁blunt	-14.2644
▁limber	-14.2644
▁overheat	-14.2644
▁progressive	-14.2644
▁addiction	-14.2644
▁henhouse	-14.2644
▁piggy	-14.2644
▁rotate	-14.2644
▁nearsighted	-14.2644
▁caroling	-14.2644
▁drier	-14.2644
▁1920	-14.2644
▁witches	-14.2644
▁launder	-14.2644
▁triangle	-14.2644
▁censor	-14.2644
▁lantern	-14.2644
▁sledding	-14.2644
▁persist	-14.2644
▁automat	-14.2645
▁closure	-14.2645
car	-14.2645
▁hornet	-14.2645
▁hummer	-14.2645
▁unrest	-14.2645
▁countdown	-14.2645
▁intens	-14.2645
▁radium	-14.2645
▁runny	-14.2645
▁copyrighted	-14.2645
▁misinterpreted	-14.2645
▁incarcerated	-14.2645
▁mistreated	-14.2645
▁slurred	-14.2645
▁spooked	-14.2645
▁candor	-14.2645
▁attachment	-14.2645
▁bulky	-14.2645
▁growling	-14.2645
▁pottery	-14.2645
▁euphemistic	-14.2645
▁lighthouse	-14.2645
burton	-14.2646
holding	-14.2646
▁58	-14.2646
▁saucer	-14.2646
▁overeat	-14.2646
▁matsu	-14.2646
▁madison	-14.2646
▁munch	-14.2646
▁sickened	-14.2647
▁nursery	-14.2647
▁100,000	-14.2647
▁overdressed	-14.2647
▁drone	-14.2647
▁merciless	-14.2647
▁ramen	-14.2647
▁rally	-14.2647
▁layout	-14.2647
position	-14.2647
▁soundproof	-14.2648
▁reimbursed	-14.2648
▁exonerated	-14.2648
▁revised	-14.2648
▁grumbled	-14.2648
▁glide	-14.2648
▁snoop	-14.2648
▁downside	-14.2648
▁undertaking	-14.2648
▁modifi	-14.2648
▁familiarity	-14.2649
▁bulletin	-14.2649
▁worsening	-14.2649
▁workload	-14.2649
▁stepson	-14.265
▁comprehensive	-14.265
▁overflowed	-14.265
▁stammered	-14.265
▁roam	-14.265
▁fingerprinted	-14.265
▁standstill	-14.265
eman	-14.265
wled	-14.265
lept	-14.2651
▁bumpy	-14.2651
▁sniffl	-14.2651
▁bullfight	-14.2651
▁glowing	-14.2651
▁twirling	-14.2651
▁furnishing	-14.2651
▁premier	-14.2651
eebie	-14.2652
▁simpl	-14.2652
wall	-14.2652
▁octo	-14.2653
▁axis	-14.2653
▁missile	-14.2653
▁hideout	-14.2654
▁multipli	-14.2654
▁scanner	-14.2654
▁cursing	-14.2654
oxide	-14.2655
▁battl	-14.2655
▁upgrade	-14.2655
▁groaning	-14.2655
sighted	-14.2655
▁freshen	-14.2655
▁sex	-14.2655
▁inhabited	-14.2655
▁burped	-14.2656
list	-14.2656
▁directory	-14.2656
▁sideline	-14.2656
▁cameraman	-14.2657
▁idolize	-14.2657
▁awareness	-14.2657
▁graciously	-14.2657
▁immensely	-14.2657
▁falsif	-14.2657
▁astrolog	-14.2658
▁spraying	-14.2658
▁supplier	-14.2659
▁mitt	-14.2659
▁evenly	-14.2659
▁riders	-14.266
▁tremendously	-14.266
▁skillfully	-14.266
▁legit	-14.266
▁monitored	-14.2661
▁cramped	-14.2661
▁homeschool	-14.2661
▁conclusi	-14.2661
▁flawless	-14.2662
assed	-14.2662
▁injection	-14.2663
[...]
