<unk>	0
<s>	0
</s>	0
.	-2.30246
'	-3.12806
▁tom	-3.18957
▁i	-3.26917
▁to	-3.47561
▁you	-3.71286
▁the	-3.80464
t	-3.84506
▁a	-4.06714
?	-4.06774
▁that	-4.24841
▁is	-4.34348
s	-4.36695
▁do	-4.62271
▁was	-4.70247
▁he	-4.71681
▁it	-4.81333
▁mary	-4.8685
▁in	-4.89978
▁we	-4.93799
▁of	-4.98693
n	-4.98826
▁me	-5.0184
,	-5.02337
▁did	-5.02759
▁be	-5.05885
▁this	-5.09442
▁have	-5.10415
▁what	-5.15661
▁for	-5.184
▁don	-5.24207
m	-5.30761
▁can	-5.33019
▁my	-5.40043
▁and	-5.47918
▁know	-5.48645
▁his	-5.50731
▁are	-5.51319
▁with	-5.5382
▁on	-5.57777
▁want	-5.57841
▁	-5.59511
▁not	-5.62284
▁think	-5.64285
▁like	-5.70275
re	-5.71586
▁your	-5.7294
▁has	-5.74459
ve	-5.79615
ll	-5.83507
▁how	-5.85542
▁go	-5.85691
▁going	-5.88312
▁at	-5.88698
▁here	-5.93296
▁there	-5.93667
▁about	-5.95539
▁would	-5.96505
▁she	-5.9831
▁very	-5.99609
▁will	-6.0625
▁had	-6.07662
▁get	-6.08744
▁time	-6.09785
▁all	-6.10099
▁should	-6.10923
▁said	-6.1402
▁they	-6.14489
d	-6.14929
▁why	-6.17806
▁out	-6.2194
▁been	-6.2389
▁as	-6.24126
▁who	-6.26879
▁him	-6.27147
▁one	-6.28031
▁were	-6.28482
▁just	-6.2939
▁need	-6.31843
▁tell	-6.3193
▁boston	-6.33795
▁help	-6.34005
▁up	-6.34358
▁isn	-6.35586
▁if	-6.3559
▁doesn	-6.35609
▁us	-6.36238
▁really	-6.36948
▁told	-6.37056
▁let	-6.39876
▁good	-6.39981
▁never	-6.42969
▁could	-6.46979
▁no	-6.47787
▁now	-6.49223
▁when	-6.49262
▁from	-6.5308
▁by	-6.5372
▁her	-6.5619
▁see	-6.58997
▁an	-6.60305
▁got	-6.61749
▁so	-6.63505
▁where	-6.64594
▁much	-6.67959
▁come	-6.68749
▁something	-6.69548
▁doing	-6.71593
▁still	-6.73296
▁thought	-6.75257
▁some	-6.75926
▁than	-6.76131
▁home	-6.79706
▁more	-6.80141
▁back	-6.80645
▁take	-6.8182
▁won	-6.81894
▁french	-6.84546
▁too	-6.85217
▁anything	-6.86994
ed	-6.87442
▁but	-6.88467
▁work	-6.89814
▁last	-6.89816
▁wanted	-6.89992
▁any	-6.90834
▁right	-6.90888
▁please	-6.91517
▁three	-6.93194
▁lot	-6.9368
▁does	-6.94915
▁money	-6.97024
▁today	-6.97806
▁sure	-6.99474
▁make	-7.00358
▁car	-7.0205
▁day	-7.05008
▁our	-7.05078
▁only	-7.05841
▁people	-7.06237
▁say	-7.07495
▁talk	-7.08784
▁better	-7.10052
▁always	-7.10633
▁asked	-7.14267
▁give	-7.14583
▁way	-7.1587
▁again	-7.16118
▁done	-7.16669
▁long	-7.16814
▁eat	-7.19091
▁many	-7.19402
▁school	-7.19738
▁went	-7.19977
▁made	-7.20129
▁house	-7.20277
▁look	-7.21928
▁leave	-7.22769
▁well	-7.2285
▁before	-7.23881
ing	-7.25269
▁buy	-7.26448
▁tomorrow	-7.26624
▁stay	-7.29834
▁over	-7.30729
▁must	-7.31433
▁find	-7.31533
▁knew	-7.31988
▁aren	-7.32748
▁new	-7.3324
▁room	-7.34264
▁job	-7.35528
▁left	-7.36192
▁next	-7.37038
▁ever	-7.37114
▁put	-7.37233
▁everything	-7.37901
▁into	-7.38563
-	-7.38983
▁used	-7.40704
▁off	-7.41562
▁happened	-7.41966
▁night	-7.42998
▁little	-7.43689
▁couldn	-7.44232
▁down	-7.44388
▁might	-7.44759
▁other	-7.44996
▁speak	-7.45176
▁happy	-7.47343
▁love	-7.47542
▁problem	-7.48461
▁hard	-7.49566
▁both	-7.50652
▁ask	-7.51808
▁may	-7.52258
▁wants	-7.52364
▁able	-7.5251
▁knows	-7.52819
▁after	-7.53723
▁old	-7.53792
▁believe	-7.54119
▁every	-7.54826
▁yet	-7.56219
▁or	-7.56829
▁already	-7.57159
▁try	-7.58126
▁yesterday	-7.58419
▁book	-7.58724
▁things	-7.58755
▁hope	-7.58811
▁years	-7.58894
▁late	-7.58904
▁saw	-7.6026
▁wish	-7.61178
▁nothing	-7.61716
▁says	-7.62176
▁enough	-7.62768
▁live	-7.63758
▁these	-7.64006
▁first	-7.64165
▁am	-7.64233
▁probably	-7.64518
▁father	-7.65386
▁feel	-7.65473
▁took	-7.65617
▁wrong	-7.6567
▁came	-7.65788
▁happen	-7.66459
▁away	-7.66705
▁busy	-7.66925
▁soon	-7.67059
▁two	-7.67524
▁man	-7.67624
▁play	-7.6775
▁week	-7.68532
▁stop	-7.68544
▁everyone	-7.69597
▁children	-7.69771
▁party	-7.69927
▁often	-7.70786
▁call	-7.70826
▁friends	-7.71163
▁even	-7.71243
▁wait	-7.72807
▁anyone	-7.73139
▁thing	-7.73385
▁gave	-7.74026
▁heard	-7.74079
▁pretty	-7.74198
ly	-7.74361
▁wonder	-7.7453
▁understand	-7.74589
▁together	-7.75389
▁himself	-7.75505
▁else	-7.76751
▁idea	-7.76758
▁door	-7.77969
▁bad	-7.78695
▁seems	-7.78887
▁morning	-7.78935
▁read	-7.79686
▁looking	-7.79711
▁anymore	-7.80972
▁haven	-7.81468
l	-7.81876
▁keep	-7.82548
▁their	-7.82919
▁same	-7.8321
▁looked	-7.84019
▁alone	-7.84282
▁looks	-7.84335
▁tried	-7.84781
▁plan	-7.85005
▁year	-7.85226
▁them	-7.85249
▁being	-7.85316
▁dog	-7.85787
▁name	-7.86898
▁found	-7.87141
▁kind	-7.87493
▁life	-7.88209
▁seem	-7.88364
▁bought	-7.9102
▁remember	-7.92592
▁trying	-7.92739
▁seen	-7.93346
▁best	-7.93523
▁few	-7.93566
▁married	-7.93889
▁without	-7.94232
▁around	-7.9424
▁getting	-7.94868
▁someone	-7.95203
▁win	-7.95324
▁mother	-7.96288
▁hear	-7.97089
▁afraid	-7.9818
▁early	-7.98493
▁mind	-7.98598
▁care	-7.98605
▁ready	-7.99793
▁needs	-7.99866
▁big	-8.00487
▁lost	-8.01186
▁drink	-8.0196
▁tired	-8.02204
▁each	-8.02387
▁while	-8.03044
▁place	-8.0486
▁talking	-8.04919
▁great	-8.05411
▁person	-8.06864
▁working	-8.07841
quite	-8.08272
▁waiting	-8.08395
▁teacher	-8.08939
▁another	-8.1004
▁tonight	-8.10185
▁food	-8.10924
▁john	-8.12181
▁water	-8.13182
▁meeting	-8.13288
▁nice	-8.13805
▁parents	-8.14313
▁since	-8.14419
▁dinner	-8.14472
▁australia	-8.14567
▁coming	-8.14662
▁myself	-8.14773
▁almo	-8.1489
▁supposed	-8.14906
▁monday	-8.15145
▁meet	-8.15773
▁days	-8.16304
▁likely	-8.16498
▁answer	-8.16842
▁likes	-8.17425
▁friend	-8.17486
▁change	-8.17582
e	-8.17841
cause	-8.18259
▁use	-8.18332
▁cold	-8.18933
▁those	-8.19658
▁started	-8.19716
▁pay	-8.1982
▁usually	-8.20277
▁coffee	-8.20807
▁everybody	-8.21081
▁most	-8.21585
▁decided	-8.22079
▁fun	-8.22558
▁sleep	-8.22772
▁walk	-8.22834
▁easy	-8.23264
▁own	-8.24327
▁family	-8.24762
▁open	-8.24778
▁hungry	-8.2552
▁needed	-8.2584
▁study	-8.25981
▁question	-8.26013
▁nobody	-8.26289
▁truth	-8.26386
▁sorry	-8.26607
▁ago	-8.26667
▁maybe	-8.26736
▁seemed	-8.27189
▁show	-8.27267
▁hours	-8.27519
▁watch	-8.27729
▁office	-8.29104
▁unti	-8.29122
▁police	-8.29375
▁drive	-8.29723
▁bed	-8.29751
▁2	-8.29946
▁died	-8.30514
▁true	-8.30653
▁young	-8.32216
▁having	-8.3261
▁train	-8.32711
▁swim	-8.3285
▁angry	-8.3293
▁bus	-8.33433
▁lunch	-8.33464
▁difficult	-8.33562
▁hurt	-8.3395
▁doctor	-8.33952
▁chance	-8.34213
▁boy	-8.34319
▁beautiful	-8.35012
▁brother	-8.35385
▁called	-8.35826
▁yourself	-8.35901
▁sick	-8.36242
▁once	-8.36333
▁english	-8.3662
▁phone	-8.36783
▁gone	-8.38017
▁matter	-8.38352
▁afternoon	-8.38566
▁such	-8.39548
▁anybody	-8.39679
▁hate	-8.39775
▁trouble	-8.40016
▁felt	-8.40713
▁girl	-8.41056
▁learn	-8.41482
▁sing	-8.41665
▁wearing	-8.41873
▁surprised	-8.42408
▁longer	-8.42519
▁books	-8.42983
▁letter	-8.43438
▁which	-8.4361
▁exactly	-8.4361
▁enjoy	-8.43634
▁start	-8.44363
▁important	-8.45081
▁finished	-8.46184
▁accident	-8.46771
▁times	-8.46857
▁wife	-8.47241
▁lives	-8.47458
▁bit	-8.47491
▁later	-8.47561
ther	-8.48011
▁park	-8.48344
30.	-8.4841
▁rain	-8.48809
▁playing	-8.48982
▁planning	-8.49347
▁class	-8.49655
▁minutes	-8.50065
▁questions	-8.5038
▁glad	-8.50416
st	-8.51476
▁high	-8.51499
▁far	-8.51634
▁living	-8.52134
▁world	-8.52581
▁write	-8.52592
▁""	-8.52698
▁thirty	-8.52949
▁forget	-8.53175
▁turn	-8.53447
▁visit	-8.55222
▁movie	-8.55629
▁tv	-8.55899
▁stupid	-8.56011
▁favorite	-8.56413
▁thinks	-8.56526
▁mistake	-8.57192
▁interested	-8.57239
▁agree	-8.57708
▁hand	-8.58277
▁music	-8.58726
▁table	-8.5906
▁quit	-8.59133
▁makes	-8.5997
▁broke	-8.60552
▁ok	-8.6084
▁picture	-8.61231
▁thank	-8.61298
▁station	-8.6158
▁actually	-8.62542
▁guy	-8.62976
"""	-8.63027
▁expect	-8.63141
▁trust	-8.6422
▁fast	-8.64643
▁summer	-8.65712
▁son	-8.65833
▁helped	-8.66021
▁eating	-8.66081
▁met	-8.66171
▁near	-8.67105
▁run	-8.67648
▁sit	-8.67717
▁under	-8.679
▁worried	-8.68004
▁month	-8.68026
▁lived	-8.68515
▁problems	-8.68723
▁sister	-8.68737
▁safe	-8.6875
▁hair	-8.68949
▁story	-8.69359
▁interesting	-8.69367
▁team	-8.69507
▁possible	-8.69528
▁different	-8.70019
▁ten	-8.70023
▁fire	-8.70622
▁town	-8.70742
▁mean	-8.71356
▁taking	-8.71584
▁small	-8.71747
▁"""	-8.71763
▁ate	-8.71811
▁homework	-8.71898
▁finish	-8.72057
▁un	-8.72138
▁close	-8.72491
▁caught	-8.72919
▁tennis	-8.73267
y	-8.73477
▁window	-8.73549
▁hospital	-8.73755
▁turned	-8.7376
▁through	-8.74159
▁reason	-8.74186
▁paid	-8.74524
▁deal	-8.74823
▁street	-8.74864
▁walked	-8.75186
▁listen	-8.75333
▁sat	-8.75432
▁students	-8.75818
▁game	-8.76258
▁business	-8.76431
▁ran	-8.76617
▁thinking	-8.76874
▁kept	-8.77003
▁reading	-8.77061
▁killed	-8.77275
▁outside	-8.77411
▁arrived	-8.77493
▁stayed	-8.77803
▁spent	-8.78695
▁eyes	-8.78763
▁making	-8.78856
▁worry	-8.793
▁talked	-8.79358
▁shoes	-8.79569
▁child	-8.79746
▁front	-8.79777
▁forgot	-8.79882
▁swimming	-8.79937
▁spend	-8.8009
▁mine	-8.80146
▁face	-8.80504
▁hot	-8.81102
▁careful	-8.81407
▁wear	-8.81953
▁works	-8.81983
▁feeling	-8.8229
i	-8.82699
▁behind	-8.82962
▁along	-8.83043
▁watching	-8.83682
▁goes	-8.84118
▁studying	-8.84851
▁rich	-8.85029
▁kids	-8.85607
▁become	-8.85977
▁song	-8.85987
▁guess	-8.86103
▁scared	-8.86134
▁whe	-8.8653
▁changed	-8.86564
▁fell	-8.86924
▁company	-8.87084
▁number	-8.8752
▁became	-8.87749
▁real	-8.87754
▁stopped	-8.88095
▁expected	-8.88216
▁free	-8.88255
▁hands	-8.88374
▁worked	-8.88579
▁bicycle	-8.88678
▁woman	-8.88913
▁weather	-8.88994
▁word	-8.89176
▁dollars	-8.89471
▁japan	-8.8951
▁advice	-8.8972
▁news	-8.90087
▁clothes	-8.90347
▁country	-8.90354
▁guys	-8.90364
▁hour	-8.90778
▁moment	-8.9126
▁wine	-8.91298
▁student	-8.91492
▁lose	-8.91683
▁asleep	-8.91692
▁quickly	-8.91803
▁city	-8.91807
▁sometimes	-8.91921
▁christmas	-8.92428
▁d	-8.92446
▁bring	-8.92595
▁cat	-8.92783
▁breakfast	-8.92851
▁explain	-8.93181
▁birthday	-8.93489
▁clean	-8.93569
▁miss	-8.94053
▁telling	-8.94588
▁wrote	-8.9459
▁move	-8.94874
▁liked	-8.951
▁box	-8.95141
▁baby	-8.95309
▁weekend	-8.95448
▁evening	-8.95623
▁drunk	-8.95677
▁whole	-8.95714
▁gets	-8.96143
▁decision	-8.96749
▁cut	-8.97094
▁began	-8.97187
▁choice	-8.97212
▁five	-8.97818
▁finally	-8.9808
▁end	-8.98285
▁serious	-8.98716
▁lie	-8.98741
▁lucky	-8.98781
▁saying	-8.98836
▁catch	-8.98975
▁somebody	-8.98984
▁situation	-8.99117
▁plans	-8.9913
▁promised	-8.99192
▁cost	-8.99219
▁part	-8.99667
▁cry	-9.00276
▁break	-9.00752
▁leaving	-9.00798
▁fine	-9.01267
▁older	-9.01347
▁head	-9.01828
▁kiss	-9.01953
▁dark	-9.02368
▁die	-9.02458
▁hotel	-9.02551
▁store	-9.03075
▁pain	-9.03245
▁sitting	-9.0338
▁red	-9.0342
▁fish	-9.03951
▁hit	-9.04079
▁dead	-9.04583
▁opened	-9.04999
▁computer	-9.05365
▁rest	-9.06093
▁restaurant	-9.06097
▁promise	-9.06299
▁large	-9.06351
▁beer	-9.06702
▁upset	-9.06948
ought	-9.06976
▁happening	-9.07035
▁river	-9.0725
▁strange	-9.07364
▁expensive	-9.07443
▁fight	-9.07646
▁sound	-9.07922
▁severa	-9.08026
▁closed	-9.08036
▁quiet	-9.08123
▁full	-9.08159
▁couple	-9.08175
▁milk	-9.08181
▁either	-9.08218
▁against	-9.08317
▁hurry	-9.08322
▁daughter	-9.08581
▁trip	-9.08761
▁light	-9.08834
▁cup	-9.09104
▁eaten	-9.09107
▁umbrella	-9.09154
▁death	-9.09652
▁report	-9.09741
▁guitar	-9.10199
▁lying	-9.10222
▁key	-9.10592
▁secret	-9.10723
▁tree	-9.10792
▁20	-9.11213
▁driver	-9.11258
▁dangerous	-9.11407
▁nervous	-9.11923
?""	-9.12423
▁age	-9.12931
▁attention	-9.13004
▁months	-9.13166
▁also	-9.13252
▁dress	-9.1329
▁showed	-9.13467
▁stand	-9.13511
▁snow	-9.13698
▁college	-9.13827
▁baseball	-9.1403
▁flowers	-9.14049
▁building	-9.14298
▁dance	-9.14607
o	-9.14681
▁thanks	-9.15371
▁girlfriend	-9.15466
▁agreed	-9.15506
▁tea	-9.16262
▁comes	-9.16369
▁short	-9.16475
▁cook	-9.16854
▁played	-9.17117
▁brought	-9.17227
▁minute	-9.17274
▁sense	-9.17526
▁second	-9.18054
▁japanese	-9.18055
▁fix	-9.18381
▁mad	-9.18458
▁blame	-9.18648
▁piano	-9.18861
▁born	-9.18915
▁war	-9.19351
▁worth	-9.19637
▁speaking	-9.19682
▁order	-9.1973
▁certainly	-9.20022
▁loves	-9.20074
▁cake	-9.20304
▁weeks	-9.20317
▁point	-9.20405
▁somewhere	-9.20588
▁smoking	-9.20844
▁half	-9.21648
▁crying	-9.21746
▁kill	-9.2194
▁hat	-9.22009
▁mistakes	-9.22115
▁between	-9.22226
▁test	-9.22479
▁happens	-9.22595
▁allowed	-9.22891
▁least	-9.23111
▁list	-9.23287
▁pass	-9.23312
▁sent	-9.23625
▁loved	-9.23869
▁desk	-9.23875
▁concert	-9.24108
▁funny	-9.24232
▁helping	-9.24248
▁coat	-9.24282
▁willing	-9.24699
▁sell	-9.24729
▁clear	-9.24866
▁bag	-9.25141
▁present	-9.25392
▁proud	-9.25691
▁join	-9.25971
▁paper	-9.26089
▁waited	-9.26144
▁crazy	-9.26282
▁doubt	-9.26292
▁pick	-9.26689
▁strong	-9.26876
▁forward	-9.26895
▁learned	-9.27108
▁inside	-9.2731
▁plane	-9.27445
▁send	-9.27504
▁floor	-9.27713
▁weight	-9.27789
▁invited	-9.27881
▁check	-9.28076
▁known	-9.28228
▁road	-9.28278
▁driving	-9.28384
▁definitely	-9.28385
▁whatever	-9.28524
▁language	-9.28769
▁taken	-9.28868
▁glass	-9.28988
▁completely	-9.29007
▁teach	-9.29226
▁given	-9.29384
▁white	-9.29691
▁touch	-9.29736
▁kissed	-9.30031
▁bank	-9.30041
▁black	-9.30053
▁speaks	-9.30184
▁asking	-9.30196
▁kid	-9.30672
▁prison	-9.30772
▁air	-9.308
▁t	-9.31367
▁famous	-9.31808
▁spoke	-9.31822
▁side	-9.31861
▁younger	-9.31926
▁staying	-9.32052
▁gun	-9.32108
▁offer	-9.32381
▁suspect	-9.32795
▁running	-9.33027
▁kitchen	-9.33342
▁boss	-9.33407
▁broken	-9.33617
▁shopping	-9.33672
▁lawyer	-9.3418
▁beach	-9.34313
▁shirt	-9.34317
▁moved	-9.34326
▁ice	-9.34487
▁shot	-9.34802
▁travel	-9.34875
▁drinking	-9.35572
▁dream	-9.35606
▁others	-9.35714
▁missed	-9.35757
0	-9.36128
er	-9.36132
▁neither	-9.36277
▁vacation	-9.36284
▁arrive	-9.36464
▁women	-9.36573
▁sounds	-9.36761
▁price	-9.3694
▁terrible	-9.37569
▁figure	-9.37584
▁six	-9.37587
▁advised	-9.37618
▁october	-9.37895
▁borrow	-9.38138
▁uncle	-9.38163
▁afford	-9.38555
▁refused	-9.3865
▁poor	-9.3885
a	-9.39096
▁taught	-9.39268
▁pictures	-9.39353
▁ride	-9.39528
▁enjoyed	-9.40159
▁opinion	-9.40171
▁library	-9.40252
▁shut	-9.40401
▁stuff	-9.40424
▁earlier	-9.40936
▁extreme	-9.40968
▁tall	-9.40989
▁anywhere	-9.41011
▁sleeping	-9.41211
▁injured	-9.41324
▁heart	-9.42118
▁noticed	-9.42185
▁difference	-9.42295
▁written	-9.4236
▁lied	-9.42435
▁alive	-9.42607
▁medicine	-9.4265
▁glasses	-9.42703
▁hold	-9.43095
▁garden	-9.43259
▁disappointed	-9.43385
▁convince	-9.43491
▁blue	-9.4369
▁return	-9.43705
▁certain	-9.43715
▁bother	-9.43716
▁arrested	-9.4374
▁surprise	-9.43985
▁seeing	-9.44068
▁prefer	-9.44469
▁save	-9.44663
▁suggest	-9.44878
▁realize	-9.44915
▁seat	-9.45058
▁perhaps	-9.45506
▁fired	-9.45656
▁dogs	-9.45713
▁wash	-9.45787
▁camera	-9.45877
▁pretend	-9.45906
r	-9.46041
▁accept	-9.46121
▁perfect	-9.46186
▁heavy	-9.46219
▁studied	-9.46222
▁message	-9.46563
▁hoping	-9.46589
▁information	-9.46596
▁fishing	-9.46718
▁raining	-9.46833
▁discuss	-9.47252
▁health	-9.47263
▁sleepy	-9.47521
▁waste	-9.47633
▁fault	-9.47695
▁across	-9.47721
▁noise	-9.47753
▁decide	-9.47813
▁solve	-9.47914
▁husband	-9.47942
▁passed	-9.4817
▁apartment	-9.48238
▁allow	-9.48333
▁ra	-9.48456
▁men	-9.48579
▁takes	-9.48617
▁necessary	-9.48796
▁writing	-9.48801
▁listening	-9.4895
▁tie	-9.49155
▁singing	-9.49368
▁set	-9.49658
▁convinced	-9.49784
▁recently	-9.49906
▁rules	-9.50186
▁visited	-9.5052
▁traffic	-9.50666
▁worse	-9.50745
▁walking	-9.50954
▁jackson	-9.51073
▁future	-9.51418
▁smart	-9.5142
▁herself	-9.51442
▁canadian	-9.51447
▁immediately	-9.5181
▁bread	-9.52974
▁harder	-9.53093
▁knife	-9.53336
▁notice	-9.53419
▁handle	-9.53605
▁keys	-9.5388
▁meat	-9.54174
▁sad	-9.54353
▁movies	-9.54363
▁o	-9.54583
▁boys	-9.55057
▁realized	-9.55561
▁sign	-9.55568
▁horse	-9.55816
▁follow	-9.55963
▁boyfriend	-9.56051
▁dictionary	-9.56096
▁consider	-9.56259
▁apologize	-9.56266
▁expecting	-9.56298
▁means	-9.56326
▁though	-9.56469
▁rent	-9.56495
▁ship	-9.5652
▁carefully	-9.56565
▁picked	-9.5662
▁wall	-9.56743
▁support	-9.56767
▁excited	-9.56896
▁regret	-9.57018
▁hundred	-9.57021
▁assume	-9.57056
▁experience	-9.57191
▁speech	-9.57275
▁past	-9.57661
▁girls	-9.58073
▁confused	-9.58129
▁address	-9.58698
▁impressed	-9.58809
▁airport	-9.58896
▁drank	-9.58928
▁prepared	-9.59014
▁begin	-9.59036
▁words	-9.59068
▁easily	-9.59375
▁gotten	-9.59828
▁case	-9.60042
▁intend	-9.60237
▁laughed	-9.60259
▁lend	-9.60284
▁tokyo	-9.60605
▁four	-9.60665
▁standing	-9.60742
▁winter	-9.60906
▁eye	-9.61227
▁eggs	-9.61292
▁wedding	-9.61337
▁twice	-9.61421
▁impossible	-9.61444
▁danger	-9.61504
▁truck	-9.62226
▁b	-9.62319
▁cooking	-9.62395
▁apple	-9.62427
▁ticket	-9.62438
▁chair	-9.62441
▁marry	-9.62447
▁appreciate	-9.62471
▁laugh	-9.63045
▁control	-9.63088
▁patient	-9.6332
▁taxi	-9.63375
▁aware	-9.63424
▁excuse	-9.63499
▁sunday	-9.63722
clock	-9.63724
▁arm	-9.63865
▁seldom	-9.6398
▁stole	-9.64261
▁church	-9.64413
▁watched	-9.64795
▁abroad	-9.64867
▁line	-9.6496
▁suggested	-9.64966
▁date	-9.64973
▁voice	-9.65067
▁attend	-9.65206
▁player	-9.65209
▁special	-9.65292
▁grew	-9.65723
▁obviously	-9.65744
▁ourselves	-9.65754
▁stood	-9.65774
▁gift	-9.66305
▁concerned	-9.66744
▁tough	-9.66956
▁held	-9.66984
▁stolen	-9.67206
▁ahead	-9.67214
▁bottle	-9.6728
▁smell	-9.67292
▁missing	-9.67664
▁less	-9.67829
▁warm	-9.68341
▁popular	-9.68397
▁meant	-9.68728
▁pulled	-9.68896
▁nor	-9.692
▁none	-9.69218
▁sugar	-9.69301
▁slept	-9.69307
▁bored	-9.69326
3.	-9.69525
▁exam	-9.69654
▁honest	-9.69671
▁pen	-9.69718
▁joke	-9.69866
▁bill	-9.69972
th	-9.69977
▁suitcase	-9.70009
▁wake	-9.70099
▁wonderful	-9.70188
▁hide	-9.70452
▁cool	-9.70578
▁absolutely	-9.70687
▁eats	-9.70782
▁empty	-9.71163
▁telephone	-9.71363
▁carry	-9.71672
▁grandfather	-9.71822
▁success	-9.72023
▁golf	-9.72068
▁awake	-9.72137
▁hang	-9.72165
▁cream	-9.72233
▁simple	-9.72496
▁calm	-9.72796
▁wh	-9.73117
▁al	-9.73503
▁president	-9.73593
▁america	-9.73782
▁guilty	-9.7397
▁yours	-9.74265
▁public	-9.74415
▁faster	-9.74504
in	-9.74568
▁piece	-9.74766
▁charge	-9.74942
▁seriously	-9.74993
▁handed	-9.75157
▁common	-9.75434
▁smoke	-9.7642
▁smile	-9.76467
▁built	-9.76478
▁learning	-9.76691
▁tickets	-9.76701
▁sun	-9.7671
▁newspaper	-9.76729
▁suppose	-9.77126
▁chess	-9.77379
▁reached	-9.77447
▁locked	-9.77499
▁risk	-9.77718
▁suddenly	-9.77868
able	-9.77901
▁wallet	-9.7814
00	-9.78169
on	-9.78184
▁forgive	-9.78464
▁sooner	-9.78522
▁failed	-9.78902
▁dressed	-9.7908
▁race	-9.79172
▁fat	-9.79214
▁drinks	-9.79377
▁law	-9.7956
▁apples	-9.79715
▁beginning	-9.79868
▁unhappy	-9.79868
▁correct	-9.80252
▁lonely	-9.80371
▁dishes	-9.80409
▁single	-9.8046
▁fall	-9.8047
▁named	-9.80477
▁pleased	-9.80692
▁protect	-9.81209
▁radio	-9.81563
▁deserve	-9.81565
▁cats	-9.81661
▁machine	-9.81849
▁thirteen	-9.81912
▁dropped	-9.81913
▁offered	-9.82068
▁throw	-9.82176
▁hey	-9.82287
▁spoken	-9.82402
▁unlikely	-9.82432
▁healthy	-9.82519
▁mouth	-9.83068
▁beat	-9.83177
▁plays	-9.83234
▁except	-9.8347
▁satisfied	-9.8348
▁admit	-9.83505
▁buying	-9.8399
▁drove	-9.84
▁taller	-9.84027
▁received	-9.84081
▁owe	-9.84377
▁mountain	-9.84458
▁shop	-9.84768
▁color	-9.84875
▁license	-9.84933
al	-9.84999
▁succeed	-9.85103
▁blood	-9.85118
ether	-9.85128
▁sports	-9.85486
▁animals	-9.85536
▁followed	-9.85724
ever	-9.85857
▁answered	-9.86112
▁respect	-9.86316
▁friendly	-9.86335
▁jail	-9.86577
▁understood	-9.86687
▁ball	-9.86926
uring	-9.87053
▁basketball	-9.87218
▁moving	-9.87246
▁hiding	-9.87279
▁american	-9.87468
▁eventually	-9.87765
▁leg	-9.87909
▁r	-9.88004
▁slow	-9.88025
▁paint	-9.88238
▁amazing	-9.88316
▁grandmother	-9.88367
▁storm	-9.88463
▁painting	-9.88958
▁singer	-9.88963
▁bar	-9.89135
▁dating	-9.89445
▁shower	-9.89459
▁count	-9.89464
giving	-9.89469
▁entered	-9.8949
▁choose	-9.89527
▁sold	-9.89789
▁pizza	-9.90018
▁cute	-9.90054
es	-9.90297
▁sandwich	-9.90522
▁dirty	-9.90548
▁earth	-9.90613
▁suit	-9.90827
▁recognize	-9.90878
▁jealous	-9.91036
▁permission	-9.91108
▁slowly	-9.91134
▁foot	-9.91536
est	-9.91646
▁absent	-9.91693
▁painted	-9.91797
▁returned	-9.9183
▁plenty	-9.92244
▁calling	-9.92403
▁ordered	-9.9245
▁ring	-9.92451
most	-9.92692
▁bath	-9.92693
▁details	-9.92732
▁forgotten	-9.92853
▁shy	-9.93011
▁keeps	-9.93053
▁television	-9.93074
▁trees	-9.93393
till	-9.93985
▁instead	-9.93988
▁club	-9.94073
▁brothers	-9.94142
▁feed	-9.94224
▁results	-9.94258
▁step	-9.94262
▁novel	-9.9461
▁solution	-9.94672
▁laughing	-9.94674
▁totally	-9.94692
▁pool	-9.94734
▁huge	-9.94739
30	-9.94742
▁hopes	-9.94768
idn	-9.94799
▁feet	-9.94822
▁top	-9.94973
▁favor	-9.95014
at	-9.9516
▁history	-9.95163
▁contact	-9.95177
▁fool	-9.95257
▁post	-9.95281
not	-9.95651
▁schedule	-9.95876
▁escape	-9.96206
▁fair	-9.96281
▁soccer	-9.96338
▁spring	-9.9642
▁pair	-9.96549
▁feels	-9.96576
ather	-9.96578
▁songs	-9.96585
▁reach	-9.96741
▁then	-9.97004
▁vote	-9.9727
▁states	-9.97318
▁duty	-9.97536
▁ideas	-9.97752
▁dad	-9.97818
▁bike	-9.9809
▁involved	-9.98174
▁luck	-9.98415
▁continue	-9.98597
▁hid	-9.986
▁cried	-9.98763
▁fact	-9.98848
▁boat	-9.99159
""	-9.99257
▁pocket	-9.99364
▁middle	-9.99383
▁smiled	-9.99663
▁jacket	-9.99667
▁mood	-9.99701
▁appear	-9.998
▁starting	-9.99816
to	-9.99869
▁feelings	-9.99919
▁fighting	-10.0021
▁admitted	-10.0058
▁lake	-10.0066
▁deep	-10.008
▁bridge	-10.0086
▁clearly	-10.013
▁seven	-10.0135
▁retired	-10.0137
▁eight	-10.0142
se	-10.02
▁rule	-10.0205
▁wears	-10.0206
less	-10.0221
▁chinese	-10.0252
▁yen	-10.0253
▁prices	-10.0274
▁explained	-10.0278
▁crowd	-10.0323
▁third	-10.0323
▁group	-10.033
▁appointment	-10.0331
▁pour	-10.0339
▁gas	-10.0348
▁avoid	-10.036
▁fairly	-10.0381
▁believed	-10.0411
▁saved	-10.0414
▁sight	-10.042
▁figured	-10.0425
▁foreign	-10.044
▁football	-10.0442
▁responsible	-10.0443
is	-10.0446
▁normal	-10.0504
▁mom	-10.0508
▁policeman	-10.0508
▁neighbors	-10.0532
▁fit	-10.0533
▁goodbye	-10.0535
▁awful	-10.0537
▁persuade	-10.0549
▁weird	-10.057
▁comfortable	-10.0576
▁woke	-10.0586
▁practice	-10.0649
▁government	-10.0667
▁languages	-10.0686
▁remind	-10.0688
▁usual	-10.0702
▁body	-10.0702
▁share	-10.071
▁chocolate	-10.0726
▁speaker	-10.0755
▁leaves	-10.076
▁particular	-10.0771
▁warned	-10.0779
▁accepted	-10.0788
▁caused	-10.0797
▁unite	-10.081
▁complain	-10.0829
▁neighborhood	-10.0838
▁grow	-10.0854
▁soup	-10.0857
▁flight	-10.0862
▁breath	-10.0862
▁act	-10.0872
▁innocent	-10.0908
▁project	-10.0938
▁parked	-10.0957
▁dancing	-10.0974
▁paying	-10.1034
▁boring	-10.1044
▁rarely	-10.1044
▁anyway	-10.106
▁"	-10.1066
▁windows	-10.1068
▁lights	-10.1069
▁explanation	-10.107
▁picnic	-10.1076
▁course	-10.1078
▁lots	-10.1101
▁straight	-10.1101
▁teeth	-10.1111
▁crime	-10.1139
▁subject	-10.1139
▁lock	-10.114
▁recommend	-10.1171
▁cookies	-10.1175
▁manager	-10.1184
▁listened	-10.1218
▁native	-10.1218
▁imagine	-10.123
▁m	-10.1233
▁purpose	-10.1247
▁depressed	-10.1251
▁green	-10.1257
▁murder	-10.1263
▁drop	-10.1273
▁relax	-10.1276
▁washed	-10.1279
▁stuck	-10.132
▁jokes	-10.1351
▁mess	-10.1383
▁enemy	-10.1391
▁embarrassed	-10.1393
▁loud	-10.1395
▁skiing	-10.1396
▁card	-10.141
▁low	-10.1455
▁sort	-10.1455
▁obvious	-10.146
▁university	-10.1463
▁raise	-10.1468
▁cause	-10.1475
▁considered	-10.148
tom	-10.1527
▁attack	-10.1554
▁type	-10.1575
▁talks	-10.1578
▁supermarket	-10.1608
▁upstairs	-10.1608
▁planned	-10.1609
▁accused	-10.1612
▁hoped	-10.1633
▁fruit	-10.1643
▁major	-10.1647
.""	-10.1649
▁possibly	-10.1681
▁jumped	-10.1686
he	-10.1716
▁cash	-10.1739
▁ground	-10.1748
▁cars	-10.1751
▁london	-10.1754
▁midnight	-10.1754
▁shocked	-10.176
▁managed	-10.1774
▁rice	-10.1774
▁sea	-10.1786
▁passport	-10.18
▁garage	-10.1828
▁thirsty	-10.1828
▁map	-10.1829
▁sang	-10.1832
▁covered	-10.1843
▁continued	-10.1858
▁yes	-10.1859
▁badly	-10.1861
▁invite	-10.188
▁easier	-10.1902
▁denied	-10.1904
▁rid	-10.1946
▁sometime	-10.1962
▁classroom	-10.1979
▁rude	-10.1979
▁punished	-10.198
▁hated	-10.1984
▁fixed	-10.2005
▁cleaning	-10.2006
▁stick	-10.202
▁village	-10.2025
▁welcome	-10.2039
▁opportunity	-10.2054
▁exercise	-10.2064
▁result	-10.2095
▁successful	-10.2127
▁quick	-10.2127
▁twenty	-10.213
▁delicious	-10.213
▁excellent	-10.213
▁themselves	-10.213
▁zoo	-10.2132
▁sky	-10.2134
▁games	-10.2138
▁filled	-10.2147
▁teaching	-10.2151
▁tears	-10.2157
▁proposal	-10.2174
▁sweater	-10.218
▁bedroom	-10.2182
▁mail	-10.2187
▁teachers	-10.2196
▁s	-10.22
▁exhausted	-10.2207
▁vegetables	-10.2223
▁checked	-10.2235
▁contract	-10.2267
▁curious	-10.2285
▁fly	-10.2295
▁sentence	-10.2303
▁pencil	-10.2328
▁thousand	-10.2329
▁cards	-10.2338
▁area	-10.235
▁handsome	-10.2365
▁forced	-10.2382
▁worst	-10.2383
▁headache	-10.2408
▁examination	-10.241
▁motorcycle	-10.241
▁button	-10.2437
▁fresh	-10.2438
▁private	-10.2438
▁harvard	-10.2441
▁enter	-10.2454
▁hired	-10.2463
▁argue	-10.25
▁mention	-10.2511
▁brave	-10.2522
▁peace	-10.2522
▁complaining	-10.253
▁familiar	-10.2539
▁w	-10.2543
▁art	-10.2578
▁grateful	-10.2604
▁following	-10.2617
▁gate	-10.2632
▁rock	-10.2634
▁washing	-10.267
▁cheap	-10.2678
▁couch	-10.2681
▁hearing	-10.2688
▁divorced	-10.2697
▁birds	-10.2709
▁sisters	-10.2735
▁legs	-10.2756
▁cross	-10.2758
▁aunt	-10.2762
▁apparently	-10.2763
▁credit	-10.2766
▁roof	-10.2768
▁gloves	-10.2778
▁warn	-10.2787
▁weak	-10.2791
▁names	-10.2816
▁perfectly	-10.2852
▁changes	-10.2856
▁system	-10.2856
3	-10.2872
▁raised	-10.2875
▁forever	-10.2885
▁account	-10.2888
▁neighbor	-10.2895
▁europe	-10.2925
▁york	-10.2927
▁audience	-10.2927
▁wind	-10.2932
▁staring	-10.2934
▁pull	-10.2943
▁dying	-10.296
▁complete	-10.2984
▁canno	-10.299
▁interest	-10.3005
▁paris	-10.3012
▁belong	-10.3014
▁nine	-10.3018
▁losing	-10.3018
▁stared	-10.3022
▁traveling	-10.303
▁rains	-10.3032
arely	-10.3034
looking	-10.304
▁hire	-10.305
▁lately	-10.3057
▁options	-10.3064
▁noon	-10.308
▁nose	-10.3089
▁anxious	-10.3091
▁desperate	-10.3091
▁kick	-10.3093
▁optimistic	-10.3095
▁graduated	-10.311
▁discussed	-10.3117
▁borrowed	-10.3118
▁meal	-10.313
▁match	-10.3134
▁email	-10.3145
▁million	-10.315
▁fence	-10.3158
▁ha	-10.3162
▁suicide	-10.3179
▁ended	-10.3183
▁30	-10.3186
▁band	-10.3188
▁mistaken	-10.3215
▁remain	-10.3216
▁fear	-10.3225
▁museum	-10.3238
▁gold	-10.3255
▁countries	-10.3265
▁ashamed	-10.3265
▁silent	-10.3266
▁treat	-10.3283
▁someday	-10.3287
▁h	-10.3303
▁unusual	-10.3304
▁blind	-10.3304
▁soldiers	-10.332
▁hung	-10.3326
▁bigger	-10.3351
▁bathroom	-10.3351
▁science	-10.3356
▁clock	-10.3359
▁treated	-10.336
▁coach	-10.3361
▁wondering	-10.337
▁letters	-10.339
▁chicken	-10.3412
▁bird	-10.3418
▁suspicious	-10.3435
▁according	-10.3438
▁available	-10.3438
▁cancer	-10.3438
▁carried	-10.3441
it	-10.3488
▁farm	-10.349
▁saturday	-10.3501
▁salary	-10.3525
▁burned	-10.353
▁shall	-10.3535
▁remained	-10.3535
▁everywhere	-10.3536
▁stairs	-10.3537
▁army	-10.3538
▁power	-10.354
▁space	-10.3548
▁translate	-10.3591
▁sweet	-10.3603
▁france	-10.3614
▁supper	-10.3614
▁useful	-10.3615
▁complicated	-10.3617
▁winning	-10.3618
▁helpful	-10.3619
▁rope	-10.3626
▁calls	-10.3632
▁p	-10.3649
▁manage	-10.368
▁spends	-10.37
▁lady	-10.3703
▁rang	-10.3707
▁bench	-10.3708
▁salt	-10.372
▁wise	-10.3721
▁spending	-10.3742
▁lazy	-10.3793
▁behavior	-10.3795
▁add	-10.3797
▁size	-10.3799
▁land	-10.3801
▁alice	-10.3805
▁complained	-10.3806
▁due	-10.3824
▁hug	-10.3858
▁refuse	-10.3867
▁drives	-10.3876
▁liar	-10.3883
c	-10.3886
▁search	-10.3888
▁corner	-10.39
▁theater	-10.3919
▁brush	-10.3925
▁trusted	-10.3947
▁ignore	-10.3963
▁further	-10.3976
▁distance	-10.3987
▁wood	-10.3993
▁god	-10.4019
▁lift	-10.4029
▁horrible	-10.4069
▁frightened	-10.407
▁camping	-10.4072
▁position	-10.4075
▁carrying	-10.4087
▁belongs	-10.4102
▁member	-10.4105
▁prove	-10.4108
▁toward	-10.4114
▁ex	-10.4135
▁moon	-10.4163
▁stronger	-10.4168
▁personal	-10.417
ting	-10.4197
▁apologized	-10.4218
▁season	-10.4225
▁request	-10.4227
▁photo	-10.4237
▁island	-10.4252
▁polite	-10.4255
▁courage	-10.4261
▁bear	-10.4275
▁escaped	-10.4294
▁guests	-10.4294
▁taste	-10.4313
▁holiday	-10.4333
▁facts	-10.4335
▁prize	-10.4338
▁arguing	-10.4352
▁jobs	-10.4353
▁answers	-10.4355
▁pushed	-10.4359
▁socks	-10.4366
▁math	-10.4368
▁butter	-10.4373
▁miles	-10.4379
▁wasting	-10.4412
▁earthquake	-10.4431
▁friday	-10.4433
▁entire	-10.4447
▁view	-10.4447
▁confident	-10.4453
▁using	-10.4477
▁recognized	-10.4488
."	-10.4499
or	-10.4532
▁stories	-10.4545
▁engaged	-10.4545
▁signed	-10.4578
time	-10.4581
▁habit	-10.463
▁jerk	-10.4633
▁build	-10.4637
▁chicago	-10.4643
▁juice	-10.4643
▁talented	-10.4659
▁hanging	-10.466
▁shape	-10.467
▁di	-10.468
▁oil	-10.4698
▁shoulder	-10.4704
▁video	-10.4729
▁idiot	-10.473
▁exciting	-10.4742
▁possibility	-10.4743
▁climbed	-10.4751
▁wo	-10.4769
▁judge	-10.4801
▁record	-10.4806
▁horses	-10.4812
▁survive	-10.4819
▁progress	-10.4822
▁sale	-10.4843
▁acting	-10.4858
▁kissing	-10.4874
▁article	-10.4931
▁rained	-10.4939
▁above	-10.4949
▁dur	-10.4961
▁closer	-10.4974
▁parking	-10.5006
▁pressure	-10.502
▁artist	-10.5033
▁dentist	-10.5045
▁brown	-10.5045
▁stubborn	-10.5045
▁illness	-10.5045
▁sofa	-10.5045
▁china	-10.5046
▁yourselves	-10.5046
▁intelligent	-10.5047
▁smarter	-10.5051
▁fail	-10.5101
▁conversation	-10.5133
▁finding	-10.5137
▁local	-10.5151
▁ear	-10.5161
▁holding	-10.5177
▁hole	-10.5197
▁cleaned	-10.5198
▁climb	-10.5231
▁magazine	-10.5243
▁orange	-10.5243
▁musician	-10.5244
▁bright	-10.5251
▁mirror	-10.5252
▁unfortunately	-10.5253
▁factory	-10.5254
▁assistant	-10.5255
▁classes	-10.5266
▁attended	-10.528
▁pie	-10.5317
▁main	-10.533
▁market	-10.5353
▁patience	-10.5358
▁energy	-10.536
▁flying	-10.5367
▁condition	-10.538
▁deserves	-10.538
▁intended	-10.5395
▁persuaded	-10.5396
▁cooked	-10.5415
▁resign	-10.5446
mong	-10.5458
▁illegal	-10.546
▁marriage	-10.546
▁similar	-10.5464
▁smiling	-10.5464
▁adopted	-10.5466
▁annoyed	-10.5467
▁shelf	-10.5467
▁mondays	-10.5468
▁baked	-10.5474
▁understands	-10.5483
▁kinds	-10.549
gged	-10.5527
▁suggestion	-10.5566
▁elevator	-10.5566
▁finger	-10.5567
▁shoot	-10.5568
▁envelope	-10.5569
▁flower	-10.557
▁nurse	-10.5571
▁furniture	-10.5571
▁cheese	-10.5571
▁joking	-10.5571
▁uncomfortable	-10.5572
▁committed	-10.5572
▁lay	-10.5573
▁kyoto	-10.5573
▁determined	-10.5574
▁reasonable	-10.5578
▁scare	-10.5588
▁doctors	-10.5596
▁diet	-10.5614
▁visiting	-10.5631
▁captain	-10.568
▁f	-10.5696
▁crowded	-10.5711
▁chose	-10.5733
▁issue	-10.5766
▁c	-10.5769
▁intention	-10.5785
▁cousin	-10.5787
▁ugly	-10.5789
▁package	-10.5789
▁downstairs	-10.579
▁copy	-10.5794
▁professional	-10.5794
▁express	-10.58
▁bite	-10.5811
▁elected	-10.5813
▁beard	-10.5822
you	-10.5852
▁costs	-10.5859
▁solved	-10.5864
▁ski	-10.5878
▁drawer	-10.5901
▁germany	-10.5907
▁closet	-10.5913
▁growing	-10.5914
▁succeeded	-10.5921
w	-10.5964
▁grab	-10.5968
▁retire	-10.5973
▁extra	-10.5997
▁page	-10.6004
▁notebook	-10.6013
▁urgent	-10.6013
▁safety	-10.6014
▁service	-10.6015
▁laid	-10.6016
▁dreams	-10.6039
▁apart	-10.6041
▁3	-10.6045
▁ignored	-10.6046
▁difficulty	-10.6074
en	-10.6095
▁alarm	-10.6121
▁kidding	-10.6127
▁natural	-10.6129
▁workers	-10.6196
▁german	-10.6232
▁places	-10.6241
▁thief	-10.6242
▁sunglasses	-10.6242
▁clever	-10.6242
▁diary	-10.6245
▁leader	-10.6246
▁quietly	-10.6256
▁reasons	-10.6275
▁hi	-10.6318
▁foolish	-10.6355
▁blew	-10.6358
▁silence	-10.6358
▁emergency	-10.6358
▁website	-10.6363
▁pale	-10.6363
▁loan	-10.6381
▁prevent	-10.6384
▁arms	-10.6391
▁draw	-10.6407
▁hall	-10.6416
▁loss	-10.6448
▁stepp	-10.645
▁matters	-10.6451
▁double	-10.6453
▁evidence	-10.6476
▁purse	-10.6476
▁studies	-10.6479
▁advantage	-10.648
▁wounded	-10.648
▁failure	-10.6481
▁candy	-10.6491
▁self	-10.6499
▁push	-10.6508
▁wild	-10.651
▁fill	-10.6517
▁force	-10.6518
▁runs	-10.6544
▁sundays	-10.6548
▁dry	-10.655
▁engine	-10.659
▁cancel	-10.6591
▁gym	-10.6594
▁stomach	-10.6594
▁ridiculous	-10.6595
▁fever	-10.6601
▁neck	-10.6608
▁highly	-10.662
▁challenge	-10.6624
▁amount	-10.6663
▁walks	-10.6669
▁bags	-10.6673
▁board	-10.6674
▁lack	-10.6689
▁damage	-10.6697
▁memory	-10.6715
▁unlucky	-10.6715
▁temperature	-10.6715
▁careless	-10.6716
▁concern	-10.6717
▁politics	-10.6719
▁canceled	-10.6725
▁final	-10.6731
▁officer	-10.6781
▁collect	-10.6781
▁divorce	-10.6815
▁obey	-10.6827
▁dessert	-10.6837
▁conference	-10.6837
▁refrigerator	-10.6837
▁occurred	-10.6838
▁speed	-10.6839
▁wealthy	-10.684
▁switch	-10.6841
▁knocked	-10.6842
▁relationship	-10.6846
▁prevented	-10.6847
▁within	-10.6848
▁cookie	-10.6849
year	-10.69
▁depends	-10.6924
▁jump	-10.694
▁sharp	-10.6956
what	-10.6957
▁yellow	-10.6961
▁potatoes	-10.6961
▁rumor	-10.6971
▁poem	-10.6972
▁appeared	-10.6982
an	-10.6985
▁largest	-10.6996
▁fed	-10.705
▁owns	-10.7062
▁education	-10.7085
▁jazz	-10.7085
▁impatient	-10.7085
▁invitation	-10.7086
▁hugged	-10.7088
▁abandoned	-10.7089
▁deeply	-10.7091
▁attacked	-10.7102
▁tastes	-10.7106
▁text	-10.7109
▁harm	-10.7113
▁survived	-10.7115
▁stranger	-10.7125
▁th	-10.7133
▁describe	-10.7135
▁meaning	-10.7146
▁rough	-10.7155
▁writer	-10.7163
▁disagree	-10.7186
▁repeat	-10.7197
▁jeans	-10.7213
▁threatened	-10.7213
▁shook	-10.7216
▁attractive	-10.7218
▁shorter	-10.7222
▁hill	-10.7223
▁its	-10.7225
▁example	-10.7232
the	-10.7275
▁compare	-10.7289
▁lovely	-10.7291
▁require	-10.7316
▁introduce	-10.7319
▁capital	-10.7321
▁reply	-10.7331
▁graduate	-10.7332
▁volunteer	-10.7335
▁woods	-10.7338
▁basement	-10.734
▁decisions	-10.7343
▁strict	-10.735
▁classmates	-10.7354
▁orders	-10.7354
▁animal	-10.7355
▁committee	-10.7356
▁mountains	-10.7358
leaned	-10.7358
▁human	-10.7372
▁goal	-10.7388
▁sounded	-10.7391
where	-10.7426
▁prepare	-10.7449
▁lobby	-10.747
▁funeral	-10.747
▁generous	-10.747
▁noisy	-10.747
▁aggressive	-10.7473
▁insisted	-10.7479
▁apply	-10.7482
▁dare	-10.7491
▁thin	-10.7492
▁battle	-10.7493
▁lesson	-10.7499
▁secrets	-10.752
▁towel	-10.7541
▁writes	-10.756
▁roses	-10.7566
▁anger	-10.7578
▁positive	-10.7598
▁eager	-10.7599
▁repair	-10.7601
▁england	-10.7602
▁responsibility	-10.7602
▁population	-10.7602
▁fallen	-10.7606
no	-10.7617
▁mentioned	-10.7617
▁argument	-10.762
▁required	-10.7626
▁expert	-10.7636
▁actor	-10.7654
▁suitcases	-10.7663
▁smells	-10.7664
▁heat	-10.7691
▁forest	-10.7697
hrew	-10.771
▁tight	-10.7728
▁headed	-10.7729
▁fantastic	-10.7735
▁insurance	-10.7735
▁confidence	-10.7738
▁scary	-10.7739
▁changing	-10.7741
▁deny	-10.7742
▁released	-10.7742
▁riding	-10.7752
▁document	-10.7754
▁capable	-10.7754
▁ability	-10.7755
▁ocean	-10.7755
▁impress	-10.7756
▁introduced	-10.776
▁allergi	-10.7762
▁election	-10.7779
▁hero	-10.7788
▁pond	-10.7799
▁lent	-10.7809
▁defend	-10.782
▁note	-10.7846
▁temper	-10.7857
▁rat	-10.7864
▁enemies	-10.787
▁gentleman	-10.787
▁unlocked	-10.7872
▁accustom	-10.7875
▁drew	-10.7876
▁detail	-10.7881
▁king	-10.7881
▁americans	-10.7884
▁pounds	-10.789
▁crossed	-10.7895
▁passengers	-10.7902
▁bills	-10.7913
▁stamps	-10.7931
▁dumb	-10.7952
▁owes	-10.7958
▁unfair	-10.8004
▁economy	-10.8007
▁furious	-10.8007
▁skeptical	-10.8008
▁fifty	-10.801
▁swimmer	-10.803
▁toilet	-10.8033
▁scene	-10.8037
▁cover	-10.8047
▁south	-10.8048
▁debt	-10.805
▁acted	-10.8059
▁customers	-10.8064
▁voted	-10.8065
▁split	-10.8069
▁round	-10.8119
▁u	-10.8122
▁blamed	-10.8128
▁climate	-10.8146
▁surgery	-10.8146
▁discovered	-10.8148
▁fortune	-10.815
▁hurts	-10.815
▁nuts	-10.8164
▁disease	-10.8172
▁childhood	-10.8174
▁pleasure	-10.8174
▁guard	-10.818
▁saving	-10.8182
▁cave	-10.8183
▁beside	-10.8192
▁nowhere	-10.8198
▁worrying	-10.8206
▁spare	-10.8262
do	-10.8278
▁pack	-10.8278
▁grown	-10.8281
▁romantic	-10.8286
▁garbage	-10.8287
▁currently	-10.8288
▁downtown	-10.8288
▁percent	-10.829
▁destroyed	-10.8291
▁friendship	-10.8291
▁stealing	-10.8294
▁file	-10.8304
▁pants	-10.8305
▁falling	-10.8308
▁airplane	-10.8315
▁meals	-10.8317
▁castle	-10.8318
▁tells	-10.8319
▁tense	-10.832
▁comment	-10.8323
▁sport	-10.8327
▁attempt	-10.8392
▁presents	-10.8399
▁celebrate	-10.8406
▁improve	-10.8428
▁hobby	-10.8429
▁beauty	-10.843
▁violin	-10.843
▁permitted	-10.843
▁hunting	-10.8432
▁pity	-10.8433
▁reluctant	-10.8433
▁offended	-10.8435
▁cab	-10.8436
▁related	-10.8438
▁theory	-10.8458
▁fond	-10.8458
▁weapon	-10.8459
▁operation	-10.8465
▁snowing	-10.8471
▁star	-10.8482
▁research	-10.8561
▁seats	-10.8564
▁spread	-10.8566
▁briefcase	-10.8575
▁department	-10.8575
▁happiness	-10.8575
▁simply	-10.8575
▁value	-10.8576
▁slightly	-10.8577
▁entirely	-10.8579
▁nap	-10.8584
▁tied	-10.8594
▁engineer	-10.86
▁larger	-10.8604
▁teaches	-10.8605
▁sleeps	-10.8633
▁rainy	-10.8641
▁per	-10.8641
▁promises	-10.8683
▁papers	-10.8693
▁novels	-10.871
▁sand	-10.8711
▁press	-10.8719
▁canada	-10.8723
▁average	-10.8725
▁income	-10.8727
▁boots	-10.8727
▁grass	-10.873
▁oranges	-10.8734
▁ones	-10.8737
▁gives	-10.8741
▁served	-10.8743
▁permit	-10.8743
▁lies	-10.8747
▁steal	-10.8748
▁coincidence	-10.8755
▁blanket	-10.8756
▁agreement	-10.8756
▁rose	-10.8766
▁plate	-10.877
▁behave	-10.8778
▁dollar	-10.8782
▁lead	-10.8826
▁advise	-10.8843
▁approve	-10.8849
▁fifteen	-10.8871
▁salad	-10.8871
▁arriving	-10.8872
▁disappeared	-10.8873
▁screaming	-10.8877
▁fingers	-10.8882
▁members	-10.8889
▁murdered	-10.8892
▁dozen	-10.8896
▁crash	-10.8896
▁action	-10.8935
▁begins	-10.8987
▁documents	-10.9
her	-10.901
▁general	-10.9019
▁happier	-10.9022
▁biggest	-10.9022
▁ambulance	-10.9022
▁reliable	-10.9024
▁cousins	-10.9026
▁motivated	-10.9027
▁organized	-10.9033
▁climbing	-10.9034
▁relaxed	-10.9043
▁flat	-10.9046
▁oldest	-10.9047
▁considering	-10.9054
▁iron	-10.9056
▁professor	-10.906
▁stars	-10.9069
ies	-10.907
▁claims	-10.9081
2	-10.9096
▁dealing	-10.9127
▁doubts	-10.9135
▁receive	-10.9145
▁fake	-10.9148
▁starts	-10.915
▁crush	-10.9166
▁fuji	-10.9176
▁jogging	-10.9176
▁tongue	-10.9176
▁preparing	-10.9176
▁creative	-10.9177
▁burst	-10.9177
▁incredible	-10.9178
▁nearby	-10.9178
▁annoying	-10.918
▁puzzled	-10.9193
▁skin	-10.9199
us	-10.9202
▁fan	-10.9206
▁discussion	-10.9218
▁pilot	-10.9221
▁doors	-10.9221
▁selling	-10.9226
▁terms	-10.9226
▁prisoner	-10.9228
▁touched	-10.9232
▁ears	-10.9275
▁state	-10.9308
▁score	-10.9309
▁narrow	-10.9322
▁canadians	-10.9323
how	-10.9332
▁twelve	-10.9332
▁british	-10.9332
▁vase	-10.9332
▁electric	-10.9339
▁model	-10.9367
▁stays	-10.9368
▁lower	-10.9373
▁center	-10.9375
▁mission	-10.9387
▁depend	-10.9398
▁complaints	-10.942
ic	-10.9453
▁rescue	-10.9477
▁talent	-10.9483
▁necklace	-10.9491
▁contest	-10.9491
▁poker	-10.9491
▁application	-10.9491
▁competitive	-10.9491
▁buried	-10.9491
▁slight	-10.9492
▁instructions	-10.9493
▁stage	-10.95
▁spite	-10.9505
▁bomb	-10.9513
▁proof	-10.9528
▁anytime	-10.9539
▁tax	-10.9541
▁belt	-10.9569
old	-10.9598
pointed	-10.9622
▁houses	-10.9638
▁porch	-10.9652
▁interview	-10.9652
▁skating	-10.9653
▁overweight	-10.9653
▁granted	-10.9654
▁secretary	-10.9654
▁yelling	-10.9658
▁deaf	-10.9659
▁cares	-10.9679
▁effort	-10.9679
▁improved	-10.968
▁risks	-10.9683
▁photos	-10.9685
▁swear	-10.9689
▁criminal	-10.9701
▁egg	-10.9703
▁waiter	-10.9726
▁wishes	-10.973
h	-10.978
▁plants	-10.9782
▁weapons	-10.9782
▁cheer	-10.9794
▁lessons	-10.9795
▁chances	-10.9815
▁laundry	-10.9816
▁robbed	-10.9816
▁conservative	-10.9817
▁decent	-10.9817
▁slipped	-10.9818
▁burning	-10.9823
▁hello	-10.9843
▁bet	-10.9876
▁mayor	-10.9877
▁field	-10.9879
▁spot	-10.9914
shirt	-10.9953
▁silly	-10.9983
▁ceiling	-10.9983
▁property	-10.9983
▁ambitious	-10.9983
▁incident	-11.0003
▁active	-11.0004
▁differently	-11.0014
▁holidays	-11.0015
▁stock	-11.0021
▁impression	-11.0034
▁stone	-11.0036
▁coins	-11.0042
▁witness	-11.0044
▁lasted	-11.0064
▁earns	-11.0074
▁oh	-11.0075
▁re	-11.0087
▁minor	-11.0094
▁pitch	-11.0121
▁owner	-11.0124
▁concentrate	-11.0128
til	-11.014
▁assistance	-11.0152
▁competition	-11.0153
▁handwriting	-11.0153
▁punctual	-11.0153
▁surrounded	-11.0153
▁terrified	-11.0153
▁insane	-11.0154
▁begun	-11.0159
▁repaired	-11.0164
▁greatest	-11.0166
▁packed	-11.0179
▁pillow	-11.0206
▁knee	-11.0207
▁cheek	-11.0209
▁valuable	-11.0217
▁g	-11.0236
▁sings	-11.0252
▁grades	-11.0255
▁tend	-11.0287
▁sons	-11.0291
▁admire	-11.0298
▁practical	-11.03
▁shock	-11.0304
▁rare	-11.0307
▁accent	-11.0325
▁selfish	-11.0325
▁stabbed	-11.0325
▁policy	-11.0326
▁fluently	-11.0327
▁bottom	-11.0328
▁fortunate	-11.0329
▁suggestions	-11.0334
▁security	-11.0341
▁smaller	-11.0346
▁diamond	-11.0385
▁wa	-11.0389
me	-11.039
▁option	-11.0395
one	-11.04
▁warning	-11.0407
▁charged	-11.0415
▁bare	-11.0449
▁homeless	-11.0478
▁program	-11.0479
▁luggage	-11.05
▁awesome	-11.05
▁hurried	-11.05
▁investigation	-11.05
▁talkative	-11.0501
▁north	-11.0506
▁loudly	-11.0507
▁ladder	-11.0508
▁encouraged	-11.0511
▁breathe	-11.0522
▁higher	-11.0525
▁earn	-11.0546
▁cell	-11.0556
▁wide	-11.0558
▁cigarette	-11.0563
▁direction	-11.0564
▁medication	-11.0565
▁soldier	-11.0567
▁twins	-11.0569
▁lit	-11.0569
▁forty	-11.0573
▁film	-11.0575
▁yard	-11.0581
▁oppose	-11.0584
▁lawn	-11.0593
▁drugs	-11.06
▁advance	-11.0656
▁applie	-11.0658
▁typhoon	-11.0679
▁nonsense	-11.0679
▁electricity	-11.0679
▁nodded	-11.0679
▁modern	-11.068
▁knowledge	-11.068
▁tallest	-11.0682
▁sandwiches	-11.0685
▁announced	-11.0685
▁suffering	-11.0685
▁suffered	-11.0687
▁contain	-11.0689
▁carrots	-11.0691
▁personally	-11.0691
▁boxes	-11.0694
▁supplies	-11.0696
▁recommended	-11.0703
▁jam	-11.0715
,000	-11.0724
▁soft	-11.0729
▁suspected	-11.0733
ted	-11.0738
▁detective	-11.0745
▁ghost	-11.0745
▁asks	-11.0749
▁odd	-11.0752
▁rate	-11.0771
▁chosen	-11.0774
▁glance	-11.0781
▁despise	-11.0787
▁turning	-11.079
▁ends	-11.0801
▁cap	-11.0823
▁notes	-11.0834
as	-11.0839
▁poison	-11.0842
▁financial	-11.0857
▁naive	-11.086
▁complex	-11.086
▁apology	-11.086
▁explosion	-11.0861
▁expectations	-11.0862
▁taxes	-11.0863
▁removed	-11.0876
▁counting	-11.0889
▁discussing	-11.0901
▁remembered	-11.0902
▁suggesting	-11.0903
▁tru	-11.0904
▁demand	-11.0909
▁arrest	-11.0912
▁limit	-11.0919
▁trick	-11.0921
▁pieces	-11.0921
▁court	-11.0929
▁dislike	-11.0937
▁snakes	-11.094
▁cops	-11.0943
▁grade	-11.0952
▁computers	-11.0964
▁row	-11.0969
▁tire	-11.0983
ally	-11.0985
▁replace	-11.099
ily	-11.1021
▁flew	-11.1045
▁humor	-11.1045
▁mystery	-11.1046
▁frustrated	-11.1046
▁backyard	-11.1046
▁basket	-11.1047
▁italy	-11.1048
▁naked	-11.1054
▁demanded	-11.1055
▁crashed	-11.1057
▁barn	-11.1058
▁informed	-11.1074
▁strike	-11.1078
▁pretending	-11.1082
▁exist	-11.111
▁album	-11.1114
▁master	-11.1118
▁shoe	-11.115
▁tires	-11.1152
▁thick	-11.1184
▁regrets	-11.1198
▁reads	-11.1213
ill	-11.1223
▁object	-11.1224
▁cruel	-11.123
▁shame	-11.1234
▁italian	-11.1234
▁volleyball	-11.1234
▁terribly	-11.1235
▁scolded	-11.1236
▁led	-11.1237
▁square	-11.1237
▁fashion	-11.1238
▁betrayed	-11.1239
▁relieved	-11.1239
▁pleasant	-11.1239
▁ruined	-11.1242
▁sympathetic	-11.1243
▁accomplished	-11.1243
▁birth	-11.126
▁flu	-11.1261
ver	-11.1299
▁equal	-11.1317
claimed	-11.135
▁ghosts	-11.1355
▁experienced	-11.1366
▁rely	-11.1381
▁provide	-11.1404
▁violence	-11.1427
▁nowadays	-11.1427
▁performance	-11.1427
▁injuries	-11.1427
▁cities	-11.1428
▁embarrassing	-11.143
▁generally	-11.1431
▁irritated	-11.1432
▁struck	-11.1434
▁beaten	-11.1436
▁warmer	-11.1436
▁planted	-11.1454
▁rescued	-11.1456
are	-11.1457
▁appropriate	-11.1469
▁rush	-11.1486
▁rushed	-11.149
▁strength	-11.149
▁teenager	-11.1509
▁skirt	-11.1517
misunderstanding	-11.1534
▁india	-11.1559
yes	-11.1562
▁efforts	-11.1564
p	-11.1573
le	-11.1574
▁answering	-11.1588
▁serve	-11.1602
▁classical	-11.1619
▁genius	-11.162
▁actress	-11.1623
▁flashlight	-11.1623
▁skinny	-11.1623
▁drowned	-11.1624
▁parties	-11.1625
▁miserable	-11.1626
▁discouraged	-11.1626
▁cheated	-11.1626
▁practicing	-11.1627
▁delayed	-11.1629
▁wor	-11.1629
▁confessed	-11.1629
▁useless	-11.163
▁kilometers	-11.1631
▁amused	-11.1631
▁dawn	-11.1644
▁sink	-11.1647
▁expenses	-11.165
▁shake	-11.1659
▁closely	-11.1659
▁correctly	-11.1661
▁raw	-11.1668
▁oven	-11.1669
▁settle	-11.1677
▁translated	-11.168
▁fully	-11.1686
▁remains	-11.1693
▁drug	-11.1709
▁wipe	-11.1709
▁ruin	-11.1712
▁track	-11.1714
▁thre	-11.1751
▁training	-11.1772
▁shave	-11.1791
▁exchange	-11.1801
▁sudden	-11.1819
▁unexpected	-11.182
▁subway	-11.1822
▁attitude	-11.1823
▁rejected	-11.1823
▁invented	-11.1824
▁visa	-11.1825
▁cheating	-11.1826
▁hiking	-11.1826
▁drawing	-11.1839
▁conditions	-11.184
▁tune	-11.1846
▁direct	-11.1848
▁chest	-11.1849
▁toys	-11.1857
▁legal	-11.187
▁scream	-11.1886
▁charges	-11.1893
▁wasted	-11.1897
▁swam	-11.1903
▁password	-11.1909
▁victim	-11.1911
minded	-11.1926
▁approach	-11.1936
out	-11.1943
▁dancer	-11.1949
▁pot	-11.1971
▁opening	-11.1979
▁compromise	-11.1999
▁strangers	-11.2006
▁accidents	-11.2014
though	-11.2018
▁osaka	-11.2026
▁reputation	-11.2027
▁pessimistic	-11.2027
▁incredibly	-11.2027
▁suspended	-11.2027
▁trap	-11.2028
▁burglar	-11.2028
f	-11.2028
▁upon	-11.2031
▁recovered	-11.2034
▁screamed	-11.2036
▁treaty	-11.204
▁requested	-11.2047
▁stove	-11.2055
▁below	-11.2065
▁watches	-11.2071
▁visitors	-11.2071
▁firm	-11.2073
▁sentenced	-11.2089
▁desire	-11.2091
▁worn	-11.2096
▁breaking	-11.2107
▁steak	-11.211
▁daughters	-11.2114
▁treatment	-11.2115
▁trunk	-11.2115
▁reservation	-11.2123
▁poet	-11.2123
▁alcohol	-11.213
law	-11.2139
▁africa	-11.217
▁task	-11.219
up	-11.2202
▁hesitate	-11.2212
▁danced	-11.2216
▁choices	-11.2217
▁surprising	-11.2233
▁spanish	-11.2235
▁authority	-11.2235
▁impressive	-11.2235
▁luckily	-11.2235
▁bleeding	-11.2236
▁properly	-11.2238
▁barking	-11.2239
▁national	-11.2239
▁fridge	-11.224
▁ways	-11.2254
▁ringing	-11.2259
▁ma	-11.2261
▁burn	-11.2288
▁tip	-11.2288
▁tattoo	-11.232
▁bound	-11.2324
▁reported	-11.233
▁throat	-11.233
▁pressed	-11.2344
▁degree	-11.2347
▁appreciated	-11.2357
▁somewhat	-11.2363
▁trade	-11.2374
▁helps	-11.2379
▁attract	-11.238
▁prisoners	-11.2391
rew	-11.2405
▁respond	-11.2431
▁aside	-11.2447
▁hidden	-11.2447
▁popcorn	-11.2448
▁hesitant	-11.2448
▁religious	-11.2448
▁imagination	-11.2448
▁dizzy	-11.2448
▁haircut	-11.2448
▁published	-11.2448
▁unconscious	-11.2448
▁sensitive	-11.2449
▁data	-11.245
▁devoted	-11.245
▁sheep	-11.245
▁remarkable	-11.245
▁spilled	-11.245
▁fog	-11.2453
▁cheaper	-11.2453
▁mathematics	-11.246
▁deceived	-11.2461
▁sung	-11.2466
▁shortly	-11.2472
▁tools	-11.2472
▁risky	-11.2476
▁bowl	-11.2477
▁mis	-11.2479
ated	-11.2486
▁forgiven	-11.2492
▁gr	-11.2499
▁tries	-11.2508
ary	-11.2509
▁newspapers	-11.251
▁suffer	-11.2528
▁bananas	-11.2529
▁opposite	-11.2542
▁character	-11.2549
▁deliver	-11.2563
▁understanding	-11.2567
▁design	-11.2579
▁affect	-11.2598
▁plain	-11.2644
▁disappoint	-11.2646
▁community	-11.2665
▁importance	-11.2665
▁spain	-11.2667
▁original	-11.2669
▁evil	-11.2671
▁normally	-11.2676
▁resigned	-11.2685
▁uses	-11.2689
▁shoulders	-11.2718
▁yell	-11.272
▁puzzle	-11.2743
▁bullet	-11.2761
▁essay	-11.2766
▁greet	-11.2775
▁total	-11.2801
▁edge	-11.2809
▁camp	-11.282
▁however	-11.2835
▁gain	-11.2839
ar	-11.2876
▁hammer	-11.2877
▁junk	-11.2887
▁spicy	-11.2887
▁lincoln	-11.2887
▁stunned	-11.2887
▁typical	-11.2887
▁bucket	-11.2887
▁flag	-11.2887
▁equipment	-11.2887
▁internet	-11.2887
▁bitten	-11.289
▁accurate	-11.2892
▁june	-11.2893
▁mall	-11.2898
▁counter	-11.2903
▁trains	-11.2904
king	-11.2907
▁breathing	-11.2914
▁pills	-11.2914
ry	-11.2918
▁accomplish	-11.2918
▁added	-11.2927
▁employees	-11.2933
▁focus	-11.2951
▁worker	-11.2966
▁shared	-11.2966
▁thousands	-11.2989
▁shift	-11.2994
▁adults	-11.2996
▁gifts	-11.3001
▁farmer	-11.3005
▁ease	-11.3008
▁complaint	-11.3008
▁scratch	-11.3024
ness	-11.3048
▁turns	-11.3051
▁commit	-11.3056
▁panic	-11.307
▁loser	-11.3075
▁pockets	-11.3077
ardly	-11.3079
▁300	-11.3085
▁poems	-11.3093
▁knock	-11.3096
▁interrupt	-11.3097
▁painful	-11.3099
ssed	-11.3106
▁trained	-11.3107
▁fluent	-11.3113
▁eleven	-11.3114
▁heavily	-11.3114
▁ceremony	-11.3114
▁entrance	-11.3114
▁engagement	-11.3114
▁pork	-11.3115
▁exact	-11.3116
▁independent	-11.3118
▁folded	-11.3118
▁construction	-11.3119
▁leather	-11.312
▁accidentally	-11.3121
▁resist	-11.3121
▁grandparents	-11.3122
▁qualified	-11.3122
▁political	-11.3127
▁fooled	-11.3148
▁ca	-11.316
▁meters	-11.316
▁killing	-11.3181
▁candles	-11.3213
▁deserved	-11.3222
becoming	-11.3222
▁lecture	-11.3225
▁carpenter	-11.3229
▁exams	-11.323
▁scientist	-11.3231
▁restaurants	-11.3232
▁adapt	-11.3232
▁carpet	-11.3233
▁coward	-11.3245
▁weigh	-11.3247
▁sip	-11.3255
▁twin	-11.3287
▁topic	-11.3303
▁path	-11.3303
▁faith	-11.3327
that	-11.3329
▁families	-11.3347
▁sarcastic	-11.3347
▁helicopter	-11.3347
▁greedy	-11.3347
▁unwilling	-11.3347
▁otherwise	-11.3347
▁trash	-11.3349
▁predict	-11.3349
▁online	-11.3363
▁soap	-11.3364
▁lips	-11.3369
▁cure	-11.3369
coming	-11.3375
▁gained	-11.3383
▁tourists	-11.3422
▁curtains	-11.3431
▁tag	-11.3442
▁handy	-11.3453
▁bottles	-11.3462
▁adult	-11.3469
▁wound	-11.347
0.	-11.3473
▁statement	-11.3473
▁ages	-11.3481
▁chairs	-11.3495
▁method	-11.3498
▁hurting	-11.3509
▁coin	-11.3567
▁process	-11.3582
▁potato	-11.3583
▁april	-11.3585
▁scissors	-11.3585
▁salesman	-11.3585
▁unemployed	-11.3585
▁freedom	-11.3585
▁bluffing	-11.3586
▁frequently	-11.3586
▁chairman	-11.3586
▁gathered	-11.3588
▁convenient	-11.3588
▁captured	-11.3589
▁paintings	-11.3591
▁nature	-11.3591
▁knowing	-11.3592
▁declined	-11.3593
▁directly	-11.3594
▁messages	-11.3598
▁rome	-11.3603
▁dish	-11.3607
▁dried	-11.3613
▁reminded	-11.362
0,000	-11.3628
▁located	-11.3631
▁dreaming	-11.3649
▁sweat	-11.365
▁slice	-11.366
▁author	-11.3672
▁products	-11.3685
▁co	-11.3689
▁photograph	-11.3689
▁lamp	-11.3705
▁bake	-11.3712
▁collection	-11.3722
▁painter	-11.3725
▁shirts	-11.3725
▁comments	-11.3777
▁participate	-11.3806
▁interfere	-11.3811
ipped	-11.3823
▁hawaii	-11.3826
▁consult	-11.3829
▁gullible	-11.3829
▁promotion	-11.3829
▁anniversary	-11.3829
▁acquainted	-11.3829
▁lightning	-11.383
▁battery	-11.383
▁mechanic	-11.3831
▁kindness	-11.3832
▁yelled	-11.3838
▁fastest	-11.384
▁volunteered	-11.3847
▁slamm	-11.385
▁citizen	-11.3852
ous	-11.3858
▁cop	-11.3864
▁mud	-11.3865
▁tower	-11.3868
▁picky	-11.388
▁dust	-11.389
▁nerves	-11.3897
▁completed	-11.3904
g	-11.3908
▁safer	-11.3909
▁cleared	-11.391
▁discount	-11.3942
▁experiment	-11.3948
▁disaster	-11.3957
▁partner	-11.3962
▁helmet	-11.3963
▁players	-11.3964
▁error	-11.3968
▁stamp	-11.3968
▁nation	-11.3999
▁comic	-11.401
▁showing	-11.4014
▁points	-11.4022
▁goals	-11.4028
▁social	-11.4063
▁brief	-11.4065
▁pray	-11.4066
ng	-11.4073
▁official	-11.4076
▁weekends	-11.4077
▁junior	-11.4079
▁spinach	-11.4079
▁terrific	-11.4079
▁hokkaido	-11.4079
▁bartender	-11.4079
▁confusing	-11.4079
▁eighteen	-11.4079
▁objective	-11.4079
▁babysitter	-11.408
▁unmarried	-11.408
▁difficulties	-11.4083
man	-11.4089
▁delivered	-11.409
▁cooperate	-11.409
▁border	-11.41
▁beef	-11.4107
▁appointed	-11.412
▁bald	-11.4124
▁safely	-11.4126
▁sir	-11.4129
▁environment	-11.4139
▁incorrect	-11.416
▁bat	-11.4179
▁increase	-11.4188
▁translation	-11.421
▁guitarist	-11.4213
dical	-11.4223
▁spoon	-11.4226
bed	-11.4231
▁level	-11.4234
▁volunteers	-11.4309
▁owned	-11.4315
▁underestimate	-11.4327
▁false	-11.4332
hat	-11.4332
▁bargain	-11.4333
▁magic	-11.4334
▁mexico	-11.4335
▁lottery	-11.4335
▁misunderstood	-11.4335
▁rode	-11.4337
▁trumpet	-11.4338
▁k	-11.4338
▁amazed	-11.434
▁ordinary	-11.434
▁reluctantly	-11.4341
▁limited	-11.4354
▁style	-11.4357
▁provided	-11.4367
▁damaged	-11.439
▁guns	-11.4392
▁respected	-11.4393
▁clouds	-11.4399
▁blow	-11.44
▁guide	-11.4401
▁tasted	-11.4404
▁bothered	-11.4406
▁peanuts	-11.4407
▁itself	-11.4418
▁sum	-11.4447
▁target	-11.4469
▁plastic	-11.4469
▁alibi	-11.4474
ion	-11.4481
▁politician	-11.4482
▁snake	-11.4483
▁directions	-11.4504
cially	-11.4513
▁candle	-11.4514
▁shows	-11.4518
▁planet	-11.4536
▁insist	-11.4543
▁espe	-11.4558
▁content	-11.4558
300	-11.456
▁soul	-11.4568
▁baggage	-11.4598
▁international	-11.4598
▁heartbroken	-11.4599
▁stew	-11.4599
▁effective	-11.4599
▁convicted	-11.4599
▁stopping	-11.46
▁flute	-11.4601
▁charming	-11.4601
▁trial	-11.4603
▁shouted	-11.4603
▁bunch	-11.4605
▁okay	-11.4605
▁mobile	-11.4608
▁fate	-11.4613
▁youngest	-11.4614
▁cooperative	-11.4615
▁gray	-11.4617
▁achieved	-11.4619
▁latest	-11.462
▁windy	-11.4621
▁crossing	-11.4624
▁settled	-11.4635
▁babysit	-11.4654
▁manners	-11.4661
▁opinions	-11.4662
▁severe	-11.4669
▁seated	-11.467
▁roll	-11.4704
▁react	-11.4736
▁rifle	-11.474
▁spell	-11.475
▁roommate	-11.4752
▁cloth	-11.477
▁aspirin	-11.4772
▁mild	-11.4776
▁faces	-11.4793
ce	-11.4805
▁stops	-11.4817
rolled	-11.4824
▁lid	-11.4826
▁scar	-11.4844
▁recover	-11.485
▁brazil	-11.4868
▁cherry	-11.4868
▁turkey	-11.4868
▁deposit	-11.4868
▁privacy	-11.4868
▁brilliant	-11.4868
▁powerful	-11.4869
▁cellphone	-11.4869
▁improving	-11.4869
▁celebrating	-11.4869
▁pulse	-11.4869
▁biased	-11.4871
▁pink	-11.4873
▁carries	-11.4874
▁maid	-11.4875
▁unit	-11.4876
▁sales	-11.4877
▁predicted	-11.4879
handed	-11.4881
▁divided	-11.4899
▁se	-11.49
▁exchanged	-11.4901
▁approved	-11.4915
▁makeup	-11.4922
▁forgetting	-11.4922
▁pig	-11.4923
▁cope	-11.4938
▁march	-11.4939
way	-11.4946
▁cups	-11.4954
▁somehow	-11.4965
▁lines	-11.4988
▁fork	-11.4989
▁crack	-11.4999
ped	-11.5005
▁flood	-11.5009
▁skip	-11.5013
▁handkerchief	-11.5026
▁alternative	-11.5029
▁customer	-11.5032
▁demands	-11.5044
▁cigarettes	-11.5047
▁product	-11.5063
▁resume	-11.5068
▁savings	-11.5085
ation	-11.5098
▁toast	-11.5099
▁200	-11.5106
abbed	-11.5106
▁east	-11.5106
▁neat	-11.5112
▁postpone	-11.513
▁steps	-11.5132
▁prom	-11.5133
▁confess	-11.5136
▁santa	-11.5146
▁silver	-11.5146
▁century	-11.5146
▁pajamas	-11.5146
▁pianist	-11.5146
▁valentine	-11.5146
▁forehead	-11.5146
▁disappointment	-11.5147
▁thrilled	-11.5147
▁investigating	-11.5147
▁causing	-11.5147
▁scarf	-11.5147
▁honey	-11.5148
▁bible	-11.5149
▁mustache	-11.515
▁cloudy	-11.515
▁dedicated	-11.5151
▁mouse	-11.5151
▁homesick	-11.5152
▁puppy	-11.5152
▁someplace	-11.5157
▁phoned	-11.5157
▁trapped	-11.5157
▁focused	-11.5158
▁dug	-11.516
▁height	-11.5162
▁jury	-11.5164
▁shooting	-11.5166
▁increased	-11.5172
▁exception	-11.5172
▁insects	-11.5175
▁frozen	-11.5175
▁richer	-11.5178
▁avoiding	-11.5182
▁honesty	-11.5184
▁relatives	-11.5213
▁blocks	-11.522
▁skills	-11.5227
▁imagined	-11.5246
▁cow	-11.5246
▁laws	-11.5261
▁heading	-11.5274
▁assist	-11.5285
▁import	-11.5298
▁racket	-11.5301
▁shelter	-11.5302
▁bookstore	-11.5303
▁armed	-11.5303
▁ankle	-11.5307
▁receipt	-11.5309
▁connection	-11.5313
▁athlete	-11.5315
▁pipe	-11.532
▁quarrel	-11.5326
▁hook	-11.534
▁wheel	-11.5341
▁sincere	-11.5349
▁shown	-11.5349
▁dated	-11.5367
▁actions	-11.5373
▁pet	-11.5399
▁propose	-11.5409
▁remove	-11.541
▁e	-11.5414
▁cd	-11.5418
▁pages	-11.5423
▁laptop	-11.5432
▁charity	-11.5432
▁sensible	-11.5432
▁spaghetti	-11.5432
▁jewelry	-11.5432
▁modest	-11.5432
▁amusing	-11.5433
▁extraordinary	-11.5433
▁facebook	-11.5434
▁louder	-11.544
▁notified	-11.544
▁waved	-11.544
▁examined	-11.5443
▁spy	-11.5444
▁attic	-11.5445
▁jumping	-11.5451
▁quality	-11.5452
▁consequences	-11.5465
▁colors	-11.5467
▁de	-11.5468
▁admired	-11.5471
▁van	-11.5472
ripped	-11.5485
▁loaded	-11.5486
▁listens	-11.5497
▁bent	-11.5508
▁budget	-11.5509
▁load	-11.5521
▁motion	-11.5557
▁peel	-11.5601
▁pepper	-11.5606
▁appearance	-11.5609
▁religion	-11.5609
▁tent	-11.561
go	-11.5619
k	-11.5627
00.	-11.5631
▁punch	-11.564
▁guest	-11.5645
▁complains	-11.5658
▁jar	-11.5661
▁winner	-11.5663
▁skate	-11.5668
▁ignor	-11.5682
▁operate	-11.5692
▁guarantee	-11.57
▁achieve	-11.5703
thirty	-11.5707
▁culture	-11.5714
▁seconds	-11.5718
▁treasure	-11.572
▁crisis	-11.5726
▁absence	-11.5726
▁arrogant	-11.5726
▁precious	-11.5726
▁influential	-11.5726
▁personality	-11.5726
▁saxophone	-11.5727
▁sidewalk	-11.5727
▁drowning	-11.5728
▁response	-11.5728
▁circumstances	-11.5729
▁frankly	-11.5729
▁robbery	-11.5729
▁vain	-11.573
▁hardworking	-11.5732
▁resources	-11.5732
▁criticized	-11.5739
▁arranged	-11.5745
▁flow	-11.5746
▁addition	-11.5747
▁outdoors	-11.5752
▁emotional	-11.5755
▁strongly	-11.5757
▁grave	-11.576
▁senior	-11.5761
▁cage	-11.5777
▁menu	-11.5785
▁behaved	-11.5795
▁stress	-11.5811
▁fixing	-11.5815
▁cared	-11.5823
▁tape	-11.5851
▁delay	-11.5852
keeping	-11.5861
▁joy	-11.5898
▁uniform	-11.5899
▁aim	-11.5902
▁excuses	-11.5902
▁costume	-11.5908
▁driven	-11.591
▁journalist	-11.5911
▁banana	-11.5913
▁drums	-11.5919
▁arrives	-11.592
▁bell	-11.5926
▁chat	-11.5942
ity	-11.5955
▁parts	-11.598
▁freak	-11.5991
▁reduce	-11.6004
▁whistle	-11.6005
▁rise	-11.601
▁annoy	-11.6012
▁horror	-11.6029
▁ancient	-11.6029
▁bathtub	-11.6029
▁appetite	-11.6029
▁queen	-11.6029
▁departure	-11.6029
▁statue	-11.6029
▁carelessness	-11.6029
▁princess	-11.603
▁sophisticated	-11.603
▁convincing	-11.6031
▁bitter	-11.6031
▁violent	-11.6035
▁coast	-11.6036
▁satisfactory	-11.6036
▁blocked	-11.6037
▁crew	-11.6037
▁fellow	-11.6038
▁acceptable	-11.6039
▁pure	-11.6041
▁disturbed	-11.6042
▁quitting	-11.6044
▁highest	-11.6044
▁coal	-11.6052
▁kilograms	-11.6053
▁tidy	-11.6055
▁magazines	-11.6056
▁buildings	-11.6064
▁contacted	-11.6079
▁resemble	-11.6081
▁spiders	-11.6081
▁hopeless	-11.6096
▁sending	-11.6111
▁leak	-11.6119
▁dye	-11.6125
▁snowed	-11.6135
▁pays	-11.6162
▁influence	-11.6181
▁medica	-11.6182
based	-11.6186
▁degrees	-11.6196
▁assure	-11.6199
▁patients	-11.6201
▁weighs	-11.6206
▁vegetarian	-11.6223
▁wealth	-11.623
▁objection	-11.6239
b	-11.6243
▁grows	-11.6255
▁occur	-11.626
▁career	-11.6297
▁hike	-11.6307
▁debate	-11.6318
▁backpack	-11.6325
▁owed	-11.6329
▁abandon	-11.6332
▁genuine	-11.6341
▁journey	-11.6341
▁snoring	-11.6341
▁cafeteria	-11.6341
▁halloween	-11.6341
▁heavier	-11.6341
▁approximate	-11.6341
▁fascinating	-11.6341
▁intoxicated	-11.6342
▁doubtful	-11.6342
▁proceed	-11.6342
▁washington	-11.6342
▁uneasy	-11.6342
▁deadline	-11.6342
▁disgusting	-11.6343
▁critical	-11.6343
▁constantly	-11.6344
▁distracted	-11.6344
▁fussy	-11.6345
▁businessman	-11.6345
▁swore	-11.6346
▁sushi	-11.6348
▁registered	-11.6348
▁technology	-11.6349
▁sank	-11.6349
▁deer	-11.6349
▁hunger	-11.6352
▁struggled	-11.6354
▁created	-11.6357
▁grapes	-11.6358
▁former	-11.6359
▁packing	-11.636
▁murderer	-11.6361
▁affected	-11.6361
▁tooth	-11.6362
▁honestly	-11.6363
▁fiction	-11.6364
▁postponed	-11.6369
▁loving	-11.6386
▁efficient	-11.6398
▁thirties	-11.6399
▁buses	-11.6404
▁ho	-11.641
▁tha	-11.6413
▁wink	-11.6414
▁opera	-11.6417
▁earned	-11.6427
▁length	-11.643
▁foods	-11.646
here	-11.6527
▁honor	-11.653
▁tricks	-11.6541
▁monkey	-11.6547
▁curtain	-11.6548
▁custom	-11.6562
▁alcoholic	-11.6563
te	-11.6573
▁riches	-11.6602
▁term	-11.6617
▁rooms	-11.6628
▁jacksons	-11.6631
▁rumors	-11.6635
▁separate	-11.664
have	-11.6656
▁comfort	-11.6657
▁sore	-11.6658
▁truthful	-11.6662
▁fox	-11.6662
▁hilton	-11.6664
▁knives	-11.6664
▁awkward	-11.6664
▁gorgeous	-11.6664
▁military	-11.6664
▁honeymoon	-11.6664
▁principal	-11.6664
▁conceited	-11.6664
▁kidnapped	-11.6664
▁composition	-11.6664
▁unreasonable	-11.6664
▁biology	-11.6664
▁courageous	-11.6664
▁sunny	-11.6665
▁flirting	-11.6667
▁surfing	-11.6668
▁closing	-11.6668
▁scarce	-11.6669
▁role	-11.667
▁surgeon	-11.6671
▁hopefully	-11.6671
▁fainted	-11.6672
▁insulted	-11.6674
▁july	-11.6674
▁dumped	-11.6675
▁heaven	-11.6683
▁shaved	-11.6686
▁sides	-11.6686
3,000	-11.6688
▁logical	-11.6689
▁dyed	-11.669
▁entering	-11.6697
▁searching	-11.6702
▁dependable	-11.6704
▁ours	-11.6704
▁behaving	-11.671
▁dis	-11.6712
▁rested	-11.6717
▁pro	-11.6718
▁communicate	-11.6719
▁counted	-11.6727
▁numbers	-11.6749
▁form	-11.6753
▁argued	-11.6761
ate	-11.6766
ne	-11.6767
▁sake	-11.6776
▁command	-11.6779
▁scheduled	-11.6797
▁pencils	-11.681
▁errors	-11.6813
▁log	-11.6822
▁scientists	-11.6835
▁sunset	-11.687
▁misse	-11.6875
▁occasion	-11.6877
▁gunshot	-11.6881
▁swims	-11.6883
▁source	-11.6889
▁quarter	-11.689
▁loose	-11.6894
▁millionaire	-11.6899
ers	-11.6902
▁laughs	-11.6916
u	-11.6923
urged	-11.6928
who	-11.6944
▁bars	-11.6954
▁streets	-11.6962
▁frank	-11.6966
▁cough	-11.6989
▁significant	-11.6994
▁troubled	-11.6996
▁vague	-11.6997
▁rotten	-11.6997
▁absorb	-11.6997
▁victory	-11.6997
▁cowboy	-11.6997
▁minimum	-11.6997
▁sympathy	-11.6997
▁calendar	-11.6997
▁hockey	-11.6997
▁arrival	-11.6997
▁strawberries	-11.6997
▁gambling	-11.6998
▁rapidly	-11.6998
▁staff	-11.6998
▁creepy	-11.6998
▁reality	-11.6998
▁solving	-11.6998
▁sixty	-11.6999
▁trustworthy	-11.6999
▁supportive	-11.7
▁realistic	-11.7
▁enthusiastic	-11.7
▁tightly	-11.7002
▁deserted	-11.7006
▁desert	-11.7007
▁union	-11.7009
▁rising	-11.701
▁chew	-11.701
▁worries	-11.7018
▁agent	-11.7023
▁earrings	-11.7023
▁emotions	-11.704
▁wins	-11.7043
▁partly	-11.7046
▁attending	-11.706
▁nail	-11.7069
▁skill	-11.7082
▁checking	-11.7097
▁nails	-11.7099
▁agrees	-11.7103
▁shout	-11.7112
▁millions	-11.7114
▁tail	-11.7114
did	-11.7132
▁mr	-11.7154
▁beg	-11.7161
and	-11.7171
▁voices	-11.7174
day	-11.7177
▁excused	-11.719
ble	-11.7196
▁cooks	-11.7205
▁lean	-11.7206
▁handled	-11.7212
▁textbook	-11.7225
▁conclusion	-11.7225
▁hundreds	-11.7249
▁brain	-11.7266
▁musical	-11.7267
▁mile	-11.7302
▁causes	-11.7307
▁compete	-11.7323
of	-11.7325
▁potential	-11.7338
▁cheerful	-11.7338
▁recent	-11.7339
▁stiff	-11.7342
▁custody	-11.7342
▁balcony	-11.7342
▁britain	-11.7342
▁architect	-11.7342
▁blouse	-11.7342
▁barefoot	-11.7342
▁software	-11.7342
▁innocence	-11.7342
▁obnoxious	-11.7342
▁criticism	-11.7342
▁stressful	-11.7342
▁punishment	-11.7342
▁strategy	-11.7342
▁opportunities	-11.7342
▁daily	-11.7342
▁devastated	-11.7342
▁minister	-11.7342
▁stingy	-11.7342
▁tomatoes	-11.7343
▁executed	-11.7343
▁whispered	-11.7345
▁possibilities	-11.7345
▁pride	-11.7348
▁fifth	-11.7349
▁confirmed	-11.735
▁prayed	-11.7354
▁economic	-11.7356
▁indoors	-11.7359
▁poisoned	-11.736
▁lowered	-11.736
all	-11.7361
▁helpless	-11.7362
▁bedtime	-11.7364
▁fortunately	-11.7366
▁landed	-11.7374
▁metal	-11.7381
▁negotiations	-11.7386
▁gang	-11.7388
▁lion	-11.7389
why	-11.7395
▁beans	-11.7399
▁acts	-11.7409
▁pets	-11.7424
▁bush	-11.7427
▁measure	-11.7438
▁cows	-11.744
▁affairs	-11.7451
▁defense	-11.7478
▁mix	-11.7478
▁access	-11.7492
▁knees	-11.752
sn	-11.7521
▁walls	-11.7524
aware	-11.7538
▁closes	-11.7546
▁sword	-11.7548
▁teenagers	-11.7549
▁nicer	-11.7556
▁bracelet	-11.7564
▁reaction	-11.7565
▁compliment	-11.7571
▁tourist	-11.7589
▁foreigner	-11.7594
lifted	-11.7618
▁horn	-11.7622
▁sour	-11.7626
age	-11.7649
▁aid	-11.7653
▁negotiate	-11.7675
▁memorize	-11.7677
▁disturb	-11.7681
▁anticipate	-11.7682
▁concerns	-11.7688
▁addict	-11.7689
▁destroy	-11.7689
▁regular	-11.7696
▁volume	-11.7699
▁naughty	-11.7699
▁paranoid	-11.7699
▁forecast	-11.7699
▁champagne	-11.7699
▁memories	-11.7699
▁pollution	-11.7699
▁inevitable	-11.7699
▁location	-11.7699
▁ignorance	-11.7699
▁retirement	-11.7699
▁delighted	-11.77
▁interpreter	-11.77
▁mentor	-11.7701
▁approval	-11.7701
▁teasing	-11.7702
nuclear	-11.7703
▁spoiled	-11.7704
▁unsure	-11.7706
▁claim	-11.7709
▁bowling	-11.7712
▁approaching	-11.7713
▁loses	-11.7716
▁thoughts	-11.7717
▁objected	-11.7717
▁issues	-11.7718
▁designed	-11.7723
▁thrown	-11.7725
▁tank	-11.7726
▁blowing	-11.7727
▁click	-11.7742
▁replaced	-11.7746
▁apt	-11.7747
gave	-11.7748
▁defeated	-11.7749
▁avoided	-11.7753
▁fist	-11.7755
▁waitress	-11.7758
▁remembers	-11.7767
▁drivers	-11.7772
▁justice	-11.7773
▁returning	-11.7784
▁rabbits	-11.7799
▁sa	-11.7801
▁beating	-11.7805
▁visits	-11.7807
▁foreigners	-11.7817
▁doubted	-11.7827
▁squeeze	-11.7832
▁quarters	-11.7834
▁plead	-11.7872
▁roads	-11.7879
▁farmers	-11.7884
ur	-11.7894
▁victims	-11.7906
▁ti	-11.7906
▁organ	-11.7912
▁doll	-11.7913
▁ambition	-11.7942
▁wow	-11.7943
▁barber	-11.7943
▁chuck	-11.7944
▁element	-11.7945
▁dependent	-11.7946
▁alike	-11.795
▁material	-11.7951
▁sharpen	-11.7951
▁affair	-11.7953
▁snack	-11.7954
▁signal	-11.7957
▁theft	-11.7987
we	-11.7988
▁threat	-11.7992
▁ba	-11.8033
▁questioned	-11.8042
▁deceive	-11.8046
▁blog	-11.8049
▁breaks	-11.8056
▁reconsider	-11.8063
▁cautious	-11.8066
▁absolute	-11.8066
▁fbi	-11.8068
▁civil	-11.8069
▁banjo	-11.8069
▁grumpy	-11.8069
▁physics	-11.8069
▁ladies	-11.8069
▁mexican	-11.8069
▁steady	-11.8069
▁fountain	-11.8069
▁dishonest	-11.8069
▁chopsticks	-11.8069
▁literature	-11.8069
▁relief	-11.8069
▁combination	-11.8069
▁destination	-11.8069
▁freezing	-11.8069
▁admission	-11.8069
▁reckless	-11.807
▁majority	-11.807
▁solar	-11.807
▁unnecessary	-11.807
▁recipe	-11.807
▁exaggerating	-11.807
▁universe	-11.807
▁unknown	-11.8071
▁sailing	-11.8072
▁valid	-11.8072
▁disgusted	-11.8072
▁secretive	-11.8072
▁regularly	-11.8072
▁prime	-11.8073
▁instantly	-11.8074
▁policemen	-11.8074
▁suitable	-11.8074
▁promoted	-11.8074
▁laughter	-11.8076
▁pronounce	-11.8076
his	-11.8077
▁incompetent	-11.8077
▁disturbing	-11.8078
▁collapsed	-11.8078
▁consist	-11.8078
▁questioning	-11.8079
▁baking	-11.8079
▁knocking	-11.8082
▁interrupting	-11.8083
▁copies	-11.8084
▁driveway	-11.8085
ge	-11.8088
▁overnight	-11.8091
▁encourage	-11.8095
▁detailed	-11.8096
▁patiently	-11.8098
▁proposed	-11.81
▁meetings	-11.8101
▁adopt	-11.8101
▁backwards	-11.8109
▁nervously	-11.8116
▁overtime	-11.8137
▁crops	-11.8138
▁longest	-11.8147
▁addressed	-11.8159
board	-11.8187
they	-11.8189
▁rocks	-11.821
▁code	-11.8243
▁bo	-11.8318
▁resignation	-11.8318
▁effect	-11.8334
▁nerve	-11.8349
▁specific	-11.8355
▁chain	-11.8362
▁debts	-11.8381
▁web	-11.8397
▁skippe	-11.841
▁wrap	-11.8413
▁holes	-11.8424
▁contribute	-11.8431
▁wage	-11.8436
▁conceal	-11.8444
▁recall	-11.8446
▁constant	-11.8451
▁crawl	-11.8452
▁suits	-11.8453
▁tunnel	-11.8454
▁troops	-11.8454
▁nephew	-11.8454
▁trigger	-11.8454
▁society	-11.8454
▁expelled	-11.8454
▁february	-11.8454
▁testify	-11.8454
▁previous	-11.8454
▁disorient	-11.8454
▁atmosphere	-11.8454
▁priorities	-11.8454
▁description	-11.8454
▁sunrise	-11.8454
▁disorganized	-11.8454
▁transferred	-11.8454
▁priest	-11.8454
▁grouchy	-11.8454
▁frustrating	-11.8455
▁consideration	-11.8455
▁campus	-11.8456
▁impolite	-11.8456
▁scenery	-11.8456
▁discovery	-11.8458
▁paused	-11.8459
▁humiliated	-11.846
▁injury	-11.8461
▁eyesight	-11.8462
▁recovery	-11.8463
▁conditioner	-11.847
▁autumn	-11.8472
▁necessar	-11.8474
▁attentive	-11.8474
▁amends	-11.8477
▁contributed	-11.8478
▁super	-11.8478
▁remembering	-11.8488
▁dresses	-11.8494
▁belonged	-11.85
▁onions	-11.85
▁fax	-11.8508
▁habits	-11.8508
▁mask	-11.8511
▁records	-11.8513
▁wrapped	-11.8538
▁flipp	-11.8539
▁elephants	-11.8549
▁starve	-11.8551
yon	-11.8591
▁tour	-11.8595
▁lawyers	-11.86
be	-11.8605
▁catching	-11.8611
▁exceptional	-11.8614
▁outgoing	-11.863
▁stain	-11.8634
rs	-11.8671
▁circle	-11.8697
▁nights	-11.8699
▁shovel	-11.8701
▁insult	-11.8718
▁parent	-11.872
ance	-11.8723
▁regard	-11.8725
▁investment	-11.8731
▁runner	-11.8733
▁adventure	-11.8735
▁billion	-11.8737
▁inappropriate	-11.874
▁po	-11.8741
▁accompanie	-11.8752
▁russian	-11.8772
▁perform	-11.8783
ish	-11.8797
▁thoughtful	-11.88
▁mug	-11.8809
▁wi	-11.8814
▁challenges	-11.882
▁officers	-11.8824
▁v	-11.8828
▁ending	-11.8842
▁surrender	-11.8844
▁confirm	-11.8844
▁physical	-11.885
▁branch	-11.8852
▁current	-11.8853
▁judgment	-11.8853
▁absurd	-11.8853
▁identify	-11.8854
▁pregnant	-11.8854
▁happiest	-11.8854
▁presence	-11.8854
▁hilarious	-11.8854
▁festival	-11.8854
▁illiterate	-11.8854
▁irresponsible	-11.8854
▁starving	-11.8854
▁doorbell	-11.8854
▁essential	-11.8854
▁companies	-11.8854
▁governor	-11.8854
▁motor	-11.8854
▁artistic	-11.8855
▁cabinet	-11.8855
▁prohibited	-11.8855
▁bakery	-11.8856
▁protection	-11.8856
▁relative	-11.8856
▁chores	-11.8856
▁ar	-11.8856
▁photographer	-11.8857
▁inspired	-11.8858
▁shine	-11.8859
▁cries	-11.886
▁deleted	-11.8861
▁timid	-11.8862
▁circus	-11.8863
▁inherit	-11.8865
▁nasty	-11.8866
▁reserved	-11.8869
▁forces	-11.8869
▁connected	-11.887
▁inches	-11.8872
mary	-11.888
▁anticipated	-11.8883
▁leading	-11.8886
▁upside	-11.8886
▁precise	-11.8887
▁interrupted	-11.8888
▁chips	-11.8889
▁eighty	-11.8892
▁educated	-11.8894
▁grill	-11.8895
▁secretly	-11.8904
▁folks	-11.8905
▁advanced	-11.8908
aimed	-11.8921
▁bossy	-11.8927
▁survivors	-11.8928
▁bones	-11.8929
▁fits	-11.8929
▁utter	-11.8951
▁joining	-11.8964
▁conscious	-11.8968
▁travels	-11.897
▁comb	-11.8989
▁shaken	-11.899
▁differ	-11.899
▁wig	-11.8994
hose	-11.9011
▁fries	-11.9025
▁weeds	-11.9033
▁suspects	-11.9037
▁west	-11.9046
impressed	-11.9064
ok	-11.9065
▁con	-11.9087
▁flash	-11.9105
v	-11.911
early	-11.9124
▁diamonds	-11.9125
▁clue	-11.914
▁invention	-11.9145
▁railroad	-11.9148
▁bachelor	-11.915
▁postcard	-11.9151
▁nightmare	-11.9152
▁peanut	-11.9154
▁n	-11.9154
▁tap	-11.9161
ment	-11.9165
▁ver	-11.9173
▁files	-11.9174
▁rabbit	-11.9179
can	-11.9205
▁dr	-11.924
will	-11.9247
▁release	-11.9248
▁urge	-11.9253
▁mark	-11.9259
▁punish	-11.9261
▁register	-11.9261
▁faint	-11.9264
▁smooth	-11.9267
▁cliff	-11.9268
▁humid	-11.9268
▁envy	-11.9269
▁straw	-11.9269
▁series	-11.9269
▁muddy	-11.927
▁oxygen	-11.927
▁unique	-11.927
▁poverty	-11.927
▁scandal	-11.927
▁delicate	-11.927
▁ticklish	-11.927
▁chemistry	-11.927
▁displeased	-11.927
▁pronunciation	-11.927
▁cooperation	-11.927
▁industry	-11.927
▁handcuffed	-11.9271
▁unfriendly	-11.9271
▁healthier	-11.9271
▁handling	-11.9274
▁shallow	-11.9274
▁severely	-11.9275
▁shouting	-11.9275
▁outstanding	-11.9277
▁hometown	-11.9278
▁coughing	-11.9278
▁include	-11.9279
▁mixed	-11.928
▁stressed	-11.9286
▁guts	-11.9289
▁weighed	-11.929
▁approached	-11.9292
▁li	-11.9293
thank	-11.9293
▁starved	-11.9295
▁lo	-11.9298
▁discreet	-11.9304
dn	-11.9318
▁base	-11.9326
▁kisses	-11.9327
▁massage	-11.9332
▁sever	-11.9334
▁hostages	-11.9353
▁numb	-11.9355
▁develop	-11.9356
▁offering	-11.9383
▁stuffed	-11.9391
▁becomes	-11.941
▁fined	-11.9414
▁root	-11.9433
▁bringing	-11.9435
▁stands	-11.9438
▁formed	-11.944
▁bone	-11.9448
▁trusts	-11.9457
▁le	-11.9459
▁plant	-11.9461
▁congress	-11.9466
▁stretch	-11.9466
▁aboard	-11.9475
▁stores	-11.948
▁minds	-11.948
el	-11.9499
▁stare	-11.9511
▁smoker	-11.9516
▁inform	-11.9541
▁hats	-11.9559
▁resort	-11.9566
headed	-11.9568
▁catholic	-11.9575
▁balloon	-11.9582
▁automobile	-11.9584
▁channel	-11.9585
▁candidate	-11.9587
▁block	-11.9592
▁tips	-11.9593
▁wrist	-11.9593
▁appointments	-11.9595
▁sh	-11.9607
▁mow	-11.9617
▁busi	-11.9619
▁exit	-11.9629
▁votes	-11.9647
▁tolerate	-11.9679
▁balance	-11.9683
▁quote	-11.969
▁alert	-11.9694
▁leaders	-11.9696
▁immediate	-11.9702
▁august	-11.9703
▁female	-11.9703
▁pistol	-11.9703
▁thieves	-11.9703
▁reveal	-11.9703
▁estate	-11.9704
▁choir	-11.9704
▁ipad	-11.9704
▁shade	-11.9704
▁ketchup	-11.9705
▁stadium	-11.9705
▁activity	-11.9705
▁attorney	-11.9705
▁platform	-11.9705
▁offensive	-11.9705
▁roosevelt	-11.9705
▁gradually	-11.9705
▁overseas	-11.9705
▁excitement	-11.9705
▁irrelevant	-11.9705
▁batteries	-11.9705
▁disrespectful	-11.9705
▁unacceptable	-11.9705
▁claustrophobic	-11.9705
▁mailbox	-11.9705
▁depressing	-11.9705
▁shaking	-11.9706
▁blackboard	-11.9706
▁serving	-11.9706
▁fatter	-11.9706
▁dismissed	-11.9707
▁prettier	-11.9707
▁thoroughly	-11.9708
▁mugged	-11.9708
▁schools	-11.9708
▁convenience	-11.9708
▁fascinated	-11.9709
▁pace	-11.9709
▁prejudiced	-11.971
▁babies	-11.971
▁disguised	-11.9711
▁pitcher	-11.9711
▁temporary	-11.9712
▁slippery	-11.9715
▁seventeen	-11.9715
▁startled	-11.9715
▁pardon	-11.9715
▁pathetic	-11.9717
▁cabin	-11.9718
▁exploded	-11.972
▁overheard	-11.9721
▁sauce	-11.9722
▁slower	-11.9724
▁waist	-11.9726
let	-11.9726
▁texting	-11.9728
▁cheered	-11.9729
▁aliens	-11.974
▁boarding	-11.9746
wife	-11.9749
▁stable	-11.9752
▁differences	-11.9757
▁bloom	-11.9773
▁colder	-11.9803
▁chickens	-11.9835
▁blinds	-11.9837
▁guessed	-11.9924
▁gra	-11.9951
▁knit	-11.9966
▁surprises	-11.9974
▁checks	-11.9997
▁protest	-12.0009
▁technique	-12.0019
▁brand	-12.002
▁criminals	-12.0021
▁speakers	-12.0021
▁bribe	-12.0023
▁blank	-12.0036
▁expression	-12.0037
▁sacrifice	-12.0038
▁angel	-12.0038
▁designer	-12.0041
ier	-12.005
▁blonde	-12.0053
id	-12.0054
nd	-12.007
▁guards	-12.0075
▁ditch	-12.0079
▁fac	-12.0079
▁kite	-12.008
▁pairs	-12.0081
▁killer	-12.0087
▁rights	-12.0097
▁brings	-12.01
▁float	-12.0128
▁shots	-12.013
▁sheet	-12.014
▁defeat	-12.0151
▁enormous	-12.0154
▁global	-12.0154
▁thorough	-12.0155
▁curiosity	-12.0158
▁energetic	-12.0158
▁gasoline	-12.0158
▁surface	-12.0158
▁bodyguard	-12.0158
▁haunted	-12.0158
▁butcher	-12.0158
▁digging	-12.0159
▁overslept	-12.0159
▁forgetful	-12.0159
▁wheelchair	-12.0159
▁adventurous	-12.0159
▁magnificent	-12.0159
▁resourceful	-12.0159
▁kindergarten	-12.0159
▁novelist	-12.016
▁worthwhile	-12.0161
▁promising	-12.0161
▁jog	-12.0162
▁intense	-12.0164
▁claus	-12.0165
▁dirt	-12.0167
▁conduct	-12.0168
▁sweep	-12.0168
▁rational	-12.0168
▁marathon	-12.0169
▁unbelievable	-12.0172
▁flies	-12.0175
▁chased	-12.0175
▁politely	-12.0175
▁golfer	-12.0178
▁decorated	-12.018
▁clothing	-12.0184
▁coma	-12.0185
▁salty	-12.0189
▁shocking	-12.019
▁separated	-12.0192
▁witnesses	-12.02
▁damp	-12.0202
▁bicycles	-12.0206
▁hesitated	-12.0212
▁timing	-12.0218
▁exaggerate	-12.0222
▁earthquakes	-12.0241
▁alley	-12.0246
▁tear	-12.0253
room	-12.0253
▁arrangements	-12.0256
back	-12.0257
ized	-12.0258
▁considerate	-12.0266
▁install	-12.0333
▁uniforms	-12.0337
▁thankful	-12.0391
▁mo	-12.0406
▁banks	-12.0412
▁mist	-12.0415
▁pens	-12.0487
▁championship	-12.0495
▁sits	-12.0495
▁version	-12.0501
▁announcement	-12.0503
▁cloud	-12.0509
▁l	-12.0512
▁elbow	-12.0513
▁instrument	-12.0516
▁elephant	-12.0517
▁robber	-12.0519
▁tiger	-12.0522
▁manner	-12.0524
known	-12.0527
ked	-12.0544
▁whale	-12.0555
▁events	-12.056
ouldn	-12.0601
▁faults	-12.0606
▁praise	-12.061
▁investigate	-12.061
▁arrange	-12.0611
▁appeal	-12.0619
▁create	-12.0627
▁betray	-12.0628
▁negative	-12.063
▁unfortunate	-12.0631
▁campaign	-12.0634
▁conscientious	-12.0634
▁embassy	-12.0634
▁hobbies	-12.0634
▁janitor	-12.0634
▁jungle	-12.0634
▁pancakes	-12.0634
▁semester	-12.0634
▁trombone	-12.0634
▁watermelon	-12.0634
▁wednesday	-12.0634
▁sunscreen	-12.0634
▁whiskey	-12.0634
▁zero	-12.0634
▁butterflies	-12.0634
▁nickname	-12.0634
▁unpredictable	-12.0634
▁assertive	-12.0634
▁toothache	-12.0634
▁passionate	-12.0634
▁bullied	-12.0634
▁groceries	-12.0634
▁grandchildren	-12.0634
▁groggy	-12.0634
▁basically	-12.0634
▁concentrating	-12.0634
▁increasing	-12.0634
▁navy	-12.0634
▁unconvinced	-12.0634
▁ignorant	-12.0634
▁rubber	-12.0635
▁receiving	-12.0635
▁accompany	-12.0635
▁belongings	-12.0635
▁retiring	-12.0635
▁established	-12.0635
▁astonished	-12.0635
▁unfinished	-12.0635
▁freshman	-12.0635
▁background	-12.0636
▁fireplace	-12.0637
▁flexible	-12.0637
▁paperwork	-12.0638
▁thinner	-12.0639
▁occupied	-12.064
▁tiny	-12.0641
▁heater	-12.0643
▁title	-12.0643
▁fingerprints	-12.0644
▁therapist	-12.0645
▁addicted	-12.0647
▁growth	-12.0647
▁performed	-12.0647
▁afterwards	-12.0648
▁quicker	-12.0648
▁locker	-12.065
▁intentions	-12.0652
▁reacted	-12.0654
▁refund	-12.0654
▁stroke	-12.0656
▁cutting	-12.0657
▁leaf	-12.0659
▁heels	-12.0665
▁contradict	-12.0666
▁repeated	-12.0667
▁collected	-12.0668
▁filling	-12.0669
▁respects	-12.0671
▁cast	-12.0672
▁indian	-12.0676
▁bark	-12.0677
▁messy	-12.0679
▁jewels	-12.0679
▁stream	-12.0681
▁burnt	-12.0685
▁instincts	-12.0689
▁spirits	-12.0694
▁hardest	-12.07
▁gamble	-12.0705
▁allies	-12.0707
▁eater	-12.071
▁individual	-12.0714
▁wives	-12.0719
▁hint	-12.0723
▁reports	-12.0753
made	-12.0761
aking	-12.0769
proved	-12.0782
▁ill	-12.0785
▁greatly	-12.0809
▁economics	-12.0819
2,000	-12.0823
five	-12.0826
▁ag	-12.0861
▁nations	-12.0866
▁sprain	-12.0872
▁tracks	-12.0904
▁suffers	-12.0909
▁moral	-12.0914
▁odds	-12.0931
▁practices	-12.094
▁deals	-12.0951
ful	-12.0955
▁programs	-12.0957
▁embarrass	-12.0973
ying	-12.0974
▁pa	-12.099
▁tuesday	-12.0995
▁campfire	-12.0995
▁leads	-12.0999
▁basic	-12.1012
▁squirrel	-12.1014
▁temple	-12.1017
▁client	-12.1017
▁brake	-12.1026
▁clerk	-12.1028
▁passenger	-12.1029
▁port	-12.1055
▁reporter	-12.1061
▁regrett	-12.1072
▁bore	-12.1079
▁asia	-12.1095
▁holds	-12.1102
▁divide	-12.111
▁fuss	-12.1118
▁cheat	-12.113
▁director	-12.1132
▁prince	-12.1133
▁clarinet	-12.1134
▁gentle	-12.1134
▁athletic	-12.1134
▁california	-12.1134
▁elaborate	-12.1134
▁intersection	-12.1134
▁january	-12.1134
▁psychic	-12.1134
▁registration	-12.1134
▁shakespeare	-12.1134
▁shampoo	-12.1134
▁trousers	-12.1134
▁unbeatable	-12.1134
▁yogurt	-12.1134
▁footsteps	-12.1134
▁wisdom	-12.1134
▁agenda	-12.1134
▁cotton	-12.1134
▁kobe	-12.1134
▁priority	-12.1134
▁unreliable	-12.1134
▁typewriter	-12.1134
▁rugby	-12.1134
▁diplomatic	-12.1134
▁harsh	-12.1134
▁destiny	-12.1134
▁inspiration	-12.1135
▁knitting	-12.1135
▁slavery	-12.1135
▁poetry	-12.1136
▁lousy	-12.1136
▁intentionally	-12.1136
▁tolerant	-12.1137
▁supply	-12.1137
▁notebooks	-12.1138
▁applauded	-12.1138
▁siblings	-12.1138
▁bacon	-12.1138
▁obedient	-12.114
▁childish	-12.114
▁softly	-12.1142
▁peeled	-12.1143
▁harvest	-12.1147
▁lab	-12.1149
▁kilos	-12.1152
▁congratulated	-12.1152
▁rubbed	-12.1152
▁diving	-12.1155
▁formal	-12.1155
▁speeches	-12.1158
▁pushy	-12.1161
▁emptie	-12.1166
▁repeating	-12.1167
▁inexpensive	-12.117
▁included	-12.1171
▁korean	-12.1179
▁terrorists	-12.1186
▁hunt	-12.1192
▁relaxing	-12.1194
▁understandable	-12.1197
▁male	-12.1206
▁races	-12.121
red	-12.1211
▁diplomat	-12.122
▁pan	-12.1223
▁trout	-12.1225
▁shove	-12.1229
▁trips	-12.123
▁disagreed	-12.1232
▁traditional	-12.1235
▁invest	-12.1239
▁protected	-12.1256
▁sec	-12.1269
▁pin	-12.1276
▁regards	-12.1285
▁welcomed	-12.13
▁gunshots	-12.1313
nuck	-12.1319
▁customs	-12.1321
▁tests	-12.134
▁hotels	-12.1342
▁mar	-12.137
▁exceptions	-12.1394
▁buys	-12.1415
il	-12.1434
our	-12.1435
▁concerts	-12.1452
2.	-12.1466
▁purchase	-12.1487
▁bandage	-12.1507
▁medal	-12.1526
▁snore	-12.153
▁procedure	-12.1536
▁acquaintance	-12.154
▁opponent	-12.1541
▁fuel	-12.1542
▁hamburger	-12.1542
▁boil	-12.1542
▁shark	-12.1544
▁signs	-12.1551
▁miracle	-12.1554
▁pe	-12.1557
▁gardener	-12.1567
▁canoe	-12.1571
▁cha	-12.1573
▁interests	-12.1579
▁leap	-12.1582
▁humans	-12.1593
▁follows	-12.1604
▁visitor	-12.1616
▁sleeve	-12.1619
▁bi	-12.1621
▁accus	-12.1628
▁confuse	-12.1637
▁wheat	-12.1645
▁mosquito	-12.1658
▁horizon	-12.166
▁contagious	-12.166
▁faucet	-12.166
▁filthy	-12.166
▁grammar	-12.166
▁numerous	-12.166
▁obstinate	-12.166
▁orchestra	-12.166
▁period	-12.166
▁permanent	-12.166
▁remote	-12.166
▁switzerland	-12.166
▁astronaut	-12.166
▁immature	-12.166
▁organization	-12.166
▁romance	-12.166
▁angrily	-12.166
▁consciousness	-12.166
▁programmer	-12.166
▁struggling	-12.166
▁district	-12.1661
▁production	-12.1661
▁stomachache	-12.1661
▁carbon	-12.1661
▁management	-12.1661
▁drummer	-12.1661
▁handbag	-12.1661
▁silk	-12.1661
▁translating	-12.1662
▁cattle	-12.1662
▁mosquitoes	-12.1662
▁sewing	-12.1663
▁screw	-12.1663
▁singers	-12.1663
▁anonymous	-12.1664
hearted	-12.1666
▁outfit	-12.1667
▁bride	-12.1667
▁officially	-12.1667
▁wolves	-12.1667
▁boiling	-12.1668
▁relations	-12.167
▁suburbs	-12.1671
▁competent	-12.1671
▁steam	-12.1671
▁delivery	-12.1676
▁intimidated	-12.1677
▁lung	-12.1677
▁mental	-12.1678
▁developed	-12.168
▁corn	-12.1683
▁purchased	-12.1685
ant	-12.1685
▁sickness	-12.169
▁cakes	-12.169
▁ironed	-12.1691
▁speeding	-12.1693
▁stinks	-12.1694
▁cello	-12.1696
▁overcome	-12.17
▁songwriter	-12.17
▁footprints	-12.1703
arious	-12.1704
▁fled	-12.1708
▁recorded	-12.1713
▁chief	-12.1714
▁barbecue	-12.1722
▁falls	-12.1728
▁items	-12.1729
▁boiled	-12.1736
▁threatening	-12.1743
▁sober	-12.1753
▁bow	-12.1757
▁filed	-12.1757
▁sued	-12.1767
▁pop	-12.1786
▁gardening	-12.1789
▁supported	-12.1792
▁donate	-12.1793
▁ideal	-12.1806
▁bang	-12.1813
▁fee	-12.1815
▁loosen	-12.1834
▁textbooks	-12.1843
▁presented	-12.1846
▁offend	-12.185
▁slid	-12.1851
rely	-12.1852
x	-12.1857
▁bury	-12.1874
minute	-12.1881
▁mid	-12.1889
▁counts	-12.19
▁faced	-12.1909
lapped	-12.191
▁wounds	-12.1931
▁imports	-12.1946
▁sp	-12.1952
▁screen	-12.1959
▁reservations	-12.1964
▁tradition	-12.1975
▁fans	-12.1983
▁crimes	-12.1989
▁pre	-12.2007
▁cases	-12.2007
▁rug	-12.2021
▁towels	-12.209
▁freeze	-12.209
▁orphan	-12.2092
▁assignment	-12.2093
▁improvement	-12.2093
▁payment	-12.2096
▁vegetable	-12.2097
▁hunter	-12.2098
▁arrangement	-12.2099
▁lemon	-12.2099
▁beginner	-12.2099
▁standard	-12.21
▁employee	-12.2101
ad	-12.2109
3,	-12.2131
▁award	-12.2159
▁cleaner	-12.216
▁forgets	-12.216
▁resting	-12.2175
like	-12.219
▁frighten	-12.2199
▁discover	-12.2203
▁gossip	-12.2207
▁proofread	-12.2208
▁revolution	-12.2215
▁instant	-12.2216
▁advertising	-12.2216
▁cycling	-12.2216
▁parcel	-12.2216
▁perfume	-12.2216
▁pharmacy	-12.2216
▁september	-12.2216
▁telescope	-12.2216
▁veterinarian	-12.2216
▁intelligence	-12.2216
▁microphone	-12.2216
▁pattern	-12.2216
▁toothbrush	-12.2216
▁duties	-12.2216
▁chubby	-12.2216
▁grinning	-12.2216
▁celebration	-12.2216
▁traitor	-12.2216
▁rainbow	-12.2216
▁luxury	-12.2216
▁slip	-12.2216
▁vanished	-12.2216
▁daddy	-12.2216
▁persuasive	-12.2216
▁grandma	-12.2216
responsibilities	-12.2217
▁tendenc	-12.2217
▁voting	-12.2217
▁therapy	-12.2217
▁smartphone	-12.2217
▁harmless	-12.2217
▁guilt	-12.2217
▁smashed	-12.2217
▁shivering	-12.2218
▁inviting	-12.2218
▁encouraging	-12.2218
▁baffled	-12.2218
▁trace	-12.2218
▁gently	-12.2219
▁overcoat	-12.2219
▁mercy	-12.2219
▁accuse	-12.2219
▁declared	-12.2219
▁blushed	-12.222
▁pierced	-12.2221
▁passion	-12.2224
▁grand	-12.2225
▁halfway	-12.2225
▁specialist	-12.2226
▁texas	-12.2229
▁freaked	-12.223
▁bowed	-12.2232
▁recovering	-12.2234
▁silently	-12.2237
▁desperately	-12.2237
▁disappointing	-12.2239
▁link	-12.2239
▁demanding	-12.2242
▁tricked	-12.2246
▁praised	-12.2247
▁wiser	-12.2252
don	-12.2253
▁sneak	-12.2254
▁splash	-12.2257
▁brushe	-12.2259
▁thunder	-12.2259
▁quieter	-12.2266
▁participated	-12.2273
▁planting	-12.2274
▁dull	-12.2278
▁mice	-12.2298
▁proper	-12.2305
▁posted	-12.2306
▁bu	-12.2308
husband	-12.2309
▁funds	-12.2311
▁celebrated	-12.2313
would	-12.2331
going	-12.2341
▁gifted	-12.2342
▁employed	-12.2342
▁lions	-12.2348
itated	-12.2362
▁sheets	-12.2366
▁rub	-12.2369
▁saturdays	-12.2378
▁conclusions	-12.2409
▁slim	-12.2415
▁smiles	-12.2424
▁inch	-12.2435
▁attach	-12.2439
▁headaches	-12.2461
▁sentences	-12.2483
wards	-12.2501
for	-12.2503
▁cowards	-12.2505
▁dates	-12.2538
ntil	-12.2551
▁bug	-12.2559
▁founded	-12.2589
▁limits	-12.2596
▁groups	-12.264
▁ships	-12.2647
am	-12.2663
▁plumber	-12.2673
▁shortage	-12.2681
▁generation	-12.2683
▁region	-12.2683
▁creature	-12.2686
▁antique	-12.2687
▁hostage	-12.2687
▁bruise	-12.269
▁experts	-12.2691
▁slave	-12.2693
▁glove	-12.2695
▁crop	-12.2695
▁cent	-12.2707
▁string	-12.2713
this	-12.2717
▁frog	-12.272
▁media	-12.2725
▁j	-12.2731
▁examples	-12.274
▁russia	-12.2743
na	-12.2756
▁struggle	-12.2782
nna	-12.2789
ke	-12.2791
▁diagnos	-12.2797
▁adjust	-12.2798
▁spoil	-12.2799
▁diligent	-12.28
▁fanatic	-12.2803
▁renew	-12.2803
▁grocer	-12.2804
▁auditorium	-12.2804
▁cottage	-12.2804
▁deported	-12.2804
▁diabetic	-12.2804
▁fabulous	-12.2804
▁identical	-12.2804
▁mozart	-12.2804
▁picasso	-12.2804
▁spontaneous	-12.2804
▁thursday	-12.2804
▁vacuum	-12.2804
▁veteran	-12.2804
▁windshield	-12.2804
▁yokohama	-12.2804
▁scientific	-12.2804
▁twitter	-12.2804
▁kettle	-12.2804
▁lipstick	-12.2804
▁pacific	-12.2804
▁variety	-12.2804
▁conscience	-12.2804
▁instructor	-12.2804
▁grinned	-12.2804
▁philosophy	-12.2804
▁zealand	-12.2804
▁signature	-12.2804
▁astronomy	-12.2804
▁persistent	-12.2804
▁obligation	-12.2805
▁graduating	-12.2805
▁deliberately	-12.2805
▁criticize	-12.2805
▁wreck	-12.2805
▁insecure	-12.2805
▁raising	-12.2805
▁indeed	-12.2806
▁overreacting	-12.2806
▁hospitalized	-12.2807
▁peacefully	-12.2807
▁parade	-12.2807
▁hunch	-12.2807
▁deciding	-12.2807
▁household	-12.2808
▁neatly	-12.2808
▁unbearable	-12.2808
▁accountant	-12.2809
▁dialed	-12.2809
▁section	-12.281
▁extent	-12.2811
▁acquired	-12.2811
leaning	-12.2811
▁tapped	-12.2811
▁originally	-12.2813
▁frightening	-12.2813
▁courteous	-12.2813
▁label	-12.2814
was	-12.2815
▁headlights	-12.2816
▁doghouse	-12.2818
▁exposed	-12.2818
led	-12.2821
30,	-12.2821
▁naturally	-12.2821
▁praying	-12.2822
▁spelling	-12.2822
▁abused	-12.2823
▁privately	-12.2828
▁blossoms	-12.283
▁dramatic	-12.283
▁grandson	-12.2833
▁bucks	-12.2833
▁blast	-12.2836
▁enjoyable	-12.284
▁crushed	-12.2844
▁ne	-12.2852
▁broad	-12.2854
▁despi	-12.2857
▁teammates	-12.2859
▁spit	-12.2861
▁humble	-12.2873
▁regarded	-12.2875
▁seize	-12.2882
▁willingly	-12.2883
▁thai	-12.2885
▁loyal	-12.2886
▁ripe	-12.2898
▁exceed	-12.2899
▁peek	-12.2904
▁event	-12.2906
z	-12.2909
▁bruises	-12.292
▁corrected	-12.2921
▁sin	-12.2926
▁brakes	-12.2939
▁blown	-12.294
ook	-12.2946
▁tomato	-12.2947
ap	-12.295
?"	-12.2963
▁disgrace	-12.2966
ink	-12.297
▁smokes	-12.2971
class	-12.2973
▁effects	-12.2992
▁monkeys	-12.3024
over	-12.306
▁extend	-12.3061
free	-12.3067
▁politicians	-12.3074
▁worthy	-12.3074
▁photographs	-12.3105
▁non	-12.3108
grandfather	-12.3118
▁smoked	-12.3133
▁punche	-12.3141
▁jack	-12.3152
▁proven	-12.3171
▁exists	-12.3182
▁frie	-12.3188
▁travele	-12.3194
ld	-12.3211
▁heads	-12.3222
▁biting	-12.3223
▁swears	-12.3229
itting	-12.3256
▁choos	-12.3295
▁swimsuit	-12.3298
▁eve	-12.3303
▁fools	-12.3303
▁infection	-12.3305
▁restroom	-12.3307
▁greek	-12.3309
▁diseases	-12.331
▁bee	-12.3312
▁survivor	-12.3313
▁export	-12.3314
▁reform	-12.3319
▁thumb	-12.3327
▁ufo	-12.3331
▁arguments	-12.334
▁european	-12.3342
▁setting	-12.3343
▁sue	-12.3352
▁boxer	-12.3354
▁citizens	-12.3367
▁relationships	-12.3383
▁asian	-12.3395
▁cameras	-12.3398
▁blam	-12.3399
▁observe	-12.3404
▁reserve	-12.3407
▁polish	-12.341
▁employ	-12.3418
▁snows	-12.3419
▁maintain	-12.342
▁bully	-12.3427
▁reception	-12.3429
▁cemetery	-12.3429
▁chimney	-12.3429
▁congratulations	-12.3429
▁dictionaries	-12.3429
▁doorknob	-12.3429
▁fundamental	-12.3429
▁identity	-12.3429
▁mahjong	-12.3429
▁mutual	-12.3429
▁paralyzed	-12.3429
▁psychologist	-12.3429
▁sneezing	-12.3429
▁territory	-12.3429
▁profile	-12.3429
▁scholarship	-12.3429
▁cereal	-12.3429
▁cocaine	-12.3429
▁revenge	-12.3429
▁temptation	-12.3429
▁unbiased	-12.3429
▁forbidden	-12.3429
▁gesture	-12.3429
▁pudding	-12.3429
▁apologies	-12.3429
▁species	-12.3429
▁poisonous	-12.3429
▁translator	-12.343
▁elderly	-12.343
▁referee	-12.343
▁yoga	-12.343
▁occasionally	-12.343
▁overwhelmed	-12.343
▁gross	-12.343
▁secure	-12.343
▁cranky	-12.3431
▁banned	-12.3431
▁republican	-12.3431
▁seventy	-12.3431
▁permitting	-12.3431
▁villagers	-12.3431
▁solid	-12.3432
▁satisfy	-12.3432
▁confronted	-12.3433
▁sharing	-12.3433
▁mentally	-12.3433
▁enable	-12.3434
▁snowman	-12.3434
▁launched	-12.3435
▁worthless	-12.3436
▁movement	-12.3437
▁gather	-12.3437
▁hiring	-12.3437
▁fireman	-12.3438
▁surprisingly	-12.3439
▁adjusted	-12.3439
▁resolved	-12.3439
▁framed	-12.344
▁pickup	-12.3442
▁communication	-12.3443
▁matches	-12.3444
▁2003	-12.3444
▁moderate	-12.3444
▁surrendered	-12.3444
▁acknowledged	-12.3446
▁skier	-12.3449
▁sorrow	-12.345
▁sweating	-12.3451
▁immigrants	-12.3457
▁responded	-12.3458
▁watered	-12.346
▁latin	-12.3461
▁awoke	-12.3461
▁symptoms	-12.3464
working	-12.3464
▁turtles	-12.3464
▁engineering	-12.3465
▁inconvenience	-12.3467
▁surely	-12.3467
▁spill	-12.3468
▁breed	-12.3468
▁easygoing	-12.3468
▁leftovers	-12.3472
▁bites	-12.3475
▁muscles	-12.3479
▁resigning	-12.348
▁landing	-12.3489
▁factors	-12.3497
▁highway	-12.3501
▁wings	-12.3503
▁waves	-12.3505
may	-12.3529
▁dolls	-12.3533
▁mushrooms	-12.3533
▁demonstrate	-12.3535
▁sew	-12.3538
▁profits	-12.3539
▁creatures	-12.3556
▁shops	-12.3558
▁donuts	-12.3561
▁wages	-12.3569
ong	-12.3584
▁bass	-12.3598
▁adore	-12.3598
sure	-12.3605
▁beautifully	-12.3605
ling	-12.3609
▁sho	-12.3613
▁clearing	-12.3619
▁warming	-12.3626
▁museums	-12.3632
▁figures	-12.3642
▁flea	-12.3648
▁heating	-12.3657
▁occasions	-12.3658
▁gum	-12.3661
hand	-12.3665
om	-12.3686
▁stake	-12.369
▁contents	-12.3704
▁kindly	-12.3712
▁pry	-12.3713
▁reflect	-12.3717
▁pant	-12.3736
▁refer	-12.3741
▁cr	-12.3761
▁bears	-12.3769
▁vest	-12.3777
▁fur	-12.3792
▁rates	-12.3793
▁spin	-12.3806
▁fry	-12.3835
▁stones	-12.3836
▁gear	-12.3851
my	-12.3851
▁symbol	-12.3858
▁chocolates	-12.3869
sh	-12.3895
▁environmental	-12.3935
▁donut	-12.395
▁manual	-12.3951
▁conflict	-12.3957
▁amateur	-12.3963
▁pirate	-12.3967
▁proverb	-12.3973
▁recommendation	-12.3974
▁duck	-12.3977
▁suspicion	-12.3979
ends	-12.3979
▁spider	-12.3979
▁profit	-12.398
▁slack	-12.398
▁heated	-12.3982
▁snap	-12.402
▁watering	-12.4021
▁korea	-12.4035
▁amounts	-12.4052
▁explode	-12.4072
▁congratulate	-12.4073
▁decorate	-12.4074
▁unlock	-12.4087
line	-12.4089
▁activities	-12.4096
▁ambassador	-12.4096
▁broccoli	-12.4096
▁cynical	-12.4096
▁december	-12.4096
▁drowsy	-12.4096
▁enthusiasm	-12.4096
▁guidance	-12.4096
▁hurricane	-12.4096
▁liberal	-12.4096
▁nagoya	-12.4096
▁oatmeal	-12.4096
▁observant	-12.4096
▁perspective	-12.4096
▁telegram	-12.4096
▁charismatic	-12.4096
▁graduation	-12.4096
▁imaginative	-12.4096
▁purple	-12.4096
▁lettuce	-12.4096
▁yacht	-12.4096
▁headphones	-12.4096
▁obese	-12.4096
▁palace	-12.4096
▁adorable	-12.4096
▁southern	-12.4096
▁factories	-12.4096
▁happily	-12.4096
▁loyalty	-12.4096
▁mysterious	-12.4096
▁tragedy	-12.4096
▁reunion	-12.4096
▁steel	-12.4096
▁calculator	-12.4096
▁firewood	-12.4096
▁uncommon	-12.4096
▁snob	-12.4096
▁trailer	-12.4096
▁uncertain	-12.4097
▁rudeness	-12.4097
▁exercising	-12.4097
▁confession	-12.4097
▁pension	-12.4097
▁penny	-12.4098
▁shining	-12.4098
▁verify	-12.4098
▁prompt	-12.4098
▁cafe	-12.4099
▁forms	-12.41
▁curly	-12.41
▁neglected	-12.41
▁tiptoe	-12.4101
▁yawning	-12.4101
▁thanksgiving	-12.4102
▁freezer	-12.4102
▁diner	-12.4102
▁bookcase	-12.4102
assigned	-12.4103
▁gathering	-12.4105
▁allergies	-12.4105
▁chuckled	-12.4105
▁mince	-12.4106
▁wandered	-12.4106
▁gambler	-12.4107
▁euros	-12.4107
▁easter	-12.4108
▁sixteen	-12.4108
▁roast	-12.411
▁recorder	-12.4111
▁virtue	-12.4111
▁ninety	-12.4112
▁shaving	-12.4112
▁protective	-12.4113
20	-12.4124
▁frost	-12.413
▁warmly	-12.4143
assured	-12.4146
▁bait	-12.4149
▁musicians	-12.4153
▁refill	-12.4156
ning	-12.416
▁dozed	-12.4166
▁fairy	-12.4174
▁olympics	-12.4174
▁commute	-12.4179
legally	-12.4182
▁pigeons	-12.4183
▁tempted	-12.4183
▁dig	-12.419
▁mini	-12.419
nding	-12.4195
aid	-12.4198
▁chill	-12.4199
▁goodnight	-12.4203
▁jet	-12.4204
took	-12.421
▁protecting	-12.421
▁uncles	-12.4213
▁whales	-12.422
▁slaves	-12.4229
▁arrow	-12.4243
▁associate	-12.4248
▁tigers	-12.4257
▁opener	-12.427
▁20,	-12.4288
▁abuse	-12.4299
▁pasta	-12.4303
▁snacks	-12.4312
▁materials	-12.4315
▁nicely	-12.4328
▁obsess	-12.4347
▁withdraw	-12.4348
▁skipp	-12.435
▁hu	-12.4351
▁designate	-12.4357
▁comics	-12.439
▁tremble	-12.4393
▁charm	-12.4393
▁site	-12.4404
▁owners	-12.442
▁methods	-12.4434
▁ants	-12.4435
use	-12.4456
▁bullets	-12.4465
▁tested	-12.4471
ered	-12.4475
▁reflecti	-12.4498
▁print	-12.4504
▁dorm	-12.4507
▁download	-12.4515
▁locks	-12.4523
defense	-12.4536
ashed	-12.4542
▁shore	-12.4544
▁flights	-12.4551
▁restless	-12.4553
▁valuables	-12.4568
she	-12.4582
▁plates	-12.4587
▁experiences	-12.4596
▁fields	-12.4597
▁oblig	-12.4609
▁blankets	-12.4641
▁tables	-12.4656
▁airplanes	-12.4667
▁racist	-12.4668
▁monster	-12.4668
▁update	-12.4674
▁lobster	-12.4678
▁wool	-12.4687
▁skirts	-12.4687
▁attendant	-12.4691
▁mushroom	-12.4692
▁robot	-12.4697
▁pearl	-12.4698
▁attache	-12.4705
▁balls	-12.4709
▁hood	-12.4734
▁needless	-12.4734
▁riot	-12.4736
▁continues	-12.4736
▁froze	-12.475
▁planes	-12.4762
▁graduates	-12.4762
▁decline	-12.4786
▁dispute	-12.4789
▁involve	-12.4792
▁irritate	-12.4794
▁estimate	-12.4794
▁examine	-12.4798
▁initial	-12.4808
▁definite	-12.4809
▁bankrupt	-12.481
▁berlin	-12.481
▁columbus	-12.481
▁disobedient	-12.481
▁garlic	-12.481
▁knapsack	-12.481
▁liquor	-12.481
▁microscope	-12.481
▁nauseous	-12.481
▁oysters	-12.481
▁photogenic	-12.481
▁plausible	-12.481
▁routine	-12.481
▁strawberry	-12.481
▁vulnerable	-12.481
▁inflation	-12.481
▁sunshine	-12.481
▁unavoidabl	-12.481
▁casualties	-12.481
▁oboe	-12.481
▁screwdriver	-12.481
▁swept	-12.481
▁tragic	-12.481
▁detained	-12.481
▁existence	-12.481
▁salmon	-12.481
▁vouch	-12.481
▁unpleasant	-12.481
▁intriguing	-12.481
▁gentlemen	-12.481
▁survey	-12.481
▁continent	-12.481
▁audition	-12.4811
▁clueless	-12.4811
▁regardless	-12.4811
▁foggy	-12.4811
▁judging	-12.4811
▁nara	-12.4811
▁lifestyle	-12.4811
▁mansion	-12.4811
▁violinist	-12.4811
▁fireworks	-12.4811
▁chef	-12.4812
▁wolf	-12.4812
▁printer	-12.4812
▁witty	-12.4812
▁intrigued	-12.4812
▁apologizing	-12.4812
▁refrain	-12.4813
▁hangover	-12.4813
▁clapped	-12.4813
▁dazed	-12.4813
▁harbor	-12.4813
▁hopeful	-12.4814
▁methodical	-12.4814
▁clarify	-12.4814
▁untidy	-12.4814
▁typing	-12.4814
▁composed	-12.4815
▁repeatedly	-12.4815
▁withdrew	-12.4815
▁western	-12.4815
▁whispering	-12.4815
▁norway	-12.4816
▁likable	-12.4819
▁undone	-12.482
▁polished	-12.4821
▁chewing	-12.4822
▁loaf	-12.4824
▁ballet	-12.4825
▁violated	-12.4826
▁relevant	-12.4827
▁concealed	-12.4828
▁route	-12.483
▁wisely	-12.483
▁seventh	-12.4831
▁terminal	-12.4833
▁suppress	-12.4835
▁cracked	-12.4836
▁winked	-12.4843
▁ironing	-12.4846
▁cheering	-12.4846
▁giants	-12.4847
▁preparations	-12.485
▁losses	-12.4852
▁repairing	-12.4857
▁y	-12.4859
▁umbrellas	-12.4859
▁australian	-12.4859
▁housework	-12.486
▁pressing	-12.486
▁memorized	-12.4862
▁pushing	-12.4862
▁collar	-12.4864
▁conditioning	-12.4869
▁alarmed	-12.4874
▁obeyed	-12.4875
▁lighter	-12.4877
▁darker	-12.488
clined	-12.4881
▁kisser	-12.4894
▁travelers	-12.4895
▁benefits	-12.4898
afraid	-12.4899
▁articles	-12.4901
▁passes	-12.4902
▁colleagues	-12.4904
▁idiots	-12.4906
▁camels	-12.4906
▁rides	-12.4907
▁strangely	-12.4907
▁phrase	-12.4913
▁intent	-12.4926
▁dial	-12.4926
▁distant	-12.4929
▁studio	-12.493
▁pound	-12.4934
▁faithful	-12.4939
▁exports	-12.4942
▁licked	-12.4949
▁wire	-12.4949
▁stumble	-12.4959
fully	-12.4961
▁rats	-12.4962
▁sleeves	-12.4962
when	-12.4971
pped	-12.4972
down	-12.4973
▁clients	-12.4982
ned	-12.4983
ond	-12.4985
▁indians	-12.499
roller	-12.4992
▁seeds	-12.5001
▁notify	-12.5038
▁measures	-12.5039
▁unt	-12.5043
▁respectful	-12.5043
▁brains	-12.5047
▁trainer	-12.5053
▁ta	-12.507
treating	-12.5074
▁sources	-12.5089
▁pawn	-12.5103
▁sock	-12.5134
▁roommates	-12.5137
▁neare	-12.5154
ical	-12.5173
▁bumpe	-12.5175
▁regain	-12.5177
iest	-12.5177
partially	-12.5182
ring	-12.5208
speaking	-12.5217
▁stretche	-12.5222
there	-12.5231
▁attribute	-12.5245
▁belts	-12.5253
ining	-12.5258
▁burns	-12.527
ung	-12.5277
by	-12.5284
▁stirr	-12.5285
▁los	-12.5301
think	-12.5315
▁stocks	-12.5327
ship	-12.5331
▁goods	-12.5335
ard	-12.5368
▁enti	-12.5372
ine	-12.54
▁chopp	-12.5421
▁swallow	-12.5427
▁optimist	-12.5428
▁beggar	-12.545
▁resolution	-12.5455
▁paramedic	-12.5456
▁niece	-12.5456
▁seatbelt	-12.5457
▁sample	-12.5461
off	-12.5461
▁image	-12.5463
▁ge	-12.5466
▁vitamin	-12.5476
▁tray	-12.5496
▁annual	-12.5502
bbed	-12.5539
▁dealer	-12.554
▁function	-12.555
▁seek	-12.5552
▁blond	-12.5552
▁intimidate	-12.5555
▁disappear	-12.556
▁organize	-12.5561
please	-12.5565
▁flirt	-12.5574
▁teenage	-12.5574
▁flour	-12.5575
▁alphabet	-12.5575
▁technical	-12.5576
▁concept	-12.5576
▁affection	-12.5577
▁artificial	-12.5579
▁controversial	-12.5579
▁evicted	-12.5579
▁grammatical	-12.5579
▁harmonica	-12.5579
▁horrified	-12.5579
▁kimono	-12.5579
▁microwave	-12.5579
▁narita	-12.5579
▁perplexed	-12.5579
▁psychology	-12.5579
▁spectacular	-12.5579
▁splendid	-12.5579
▁thermometer	-12.5579
▁toothpaste	-12.5579
▁tuxedo	-12.5579
▁ukulele	-12.5579
▁vanilla	-12.5579
▁abilities	-12.5579
▁acquitted	-12.5579
▁gratitude	-12.5579
▁landlord	-12.5579
▁valley	-12.5579
▁slippers	-12.5579
▁hesitation	-12.5579
▁compartment	-12.5579
▁measles	-12.5579
▁youtube	-12.5579
▁dissatisfied	-12.5579
▁recession	-12.5579
▁magician	-12.5579
▁exhibition	-12.5579
▁whistling	-12.5579
▁transplant	-12.5579
▁drugstore	-12.5579
▁wholeheartedly	-12.558
▁clumsy	-12.558
▁unicycle	-12.558
▁outcast	-12.558
▁greece	-12.558
▁nonstop	-12.558
▁unplugged	-12.558
▁seafood	-12.558
▁democracy	-12.558
▁cockroaches	-12.558
▁airmail	-12.558
▁prank	-12.558
▁raincoat	-12.558
▁seaside	-12.5581
▁administration	-12.5581
▁playground	-12.5581
▁overconfident	-12.5581
▁hugging	-12.5581
▁announcer	-12.5581
▁pony	-12.5581
▁evidently	-12.5581
▁forgiveness	-12.5581
▁services	-12.5581
▁whereabouts	-12.5582
▁prior	-12.5582
▁allowance	-12.5582
▁presentation	-12.5582
▁whining	-12.5582
▁managing	-12.5583
▁unkind	-12.5583
▁remarried	-12.5583
▁hectic	-12.5583
▁staggered	-12.5584
▁foxes	-12.5584
▁countryside	-12.5584
▁hallway	-12.5585
▁controlled	-12.5585
▁blessing	-12.5585
▁shoelaces	-12.5585
▁centimeters	-12.5585
▁smoothly	-12.5585
▁cautiously	-12.5586
▁outraged	-12.5587
▁consent	-12.5588
▁melted	-12.5588
▁lap	-12.5589
▁actual	-12.5589
▁swallowed	-12.5589
▁bushes	-12.5592
▁equally	-12.5592
▁brutal	-12.5593
▁golden	-12.5594
▁crawling	-12.5595
▁prescription	-12.5596
▁spying	-12.5597
▁oak	-12.5597
▁eighth	-12.5597
▁coughed	-12.5598
▁sincerely	-12.5598
▁islam	-12.5598
▁ranch	-12.5599
▁sealed	-12.5599
▁quarreling	-12.5602
▁muslims	-12.5604
▁pickpockets	-12.5604
▁unclear	-12.5606
▁flooded	-12.5607
▁prettie	-12.5607
▁rail	-12.5611
ren	-12.5611
▁sinking	-12.5612
▁believing	-12.5616
▁pump	-12.562
▁rocket	-12.5621
▁soda	-12.5622
▁kidnappers	-12.5622
▁circled	-12.5628
▁parks	-12.563
▁nosy	-12.563
▁volunteering	-12.5632
▁refugees	-12.5632
▁whistled	-12.5643
▁beaches	-12.5651
ist	-12.5651
ozy	-12.5654
▁pole	-12.5655
▁balanced	-12.566
▁servants	-12.5669
▁produces	-12.5677
▁decisive	-12.5678
ie	-12.5679
▁chin	-12.568
ian	-12.5685
▁accusations	-12.569
▁tripped	-12.569
▁remarks	-12.5693
▁rash	-12.5696
▁dump	-12.57
▁appli	-12.5708
▁fighter	-12.5733
▁lifetime	-12.574
▁drum	-12.5747
▁miracles	-12.5757
▁hamburgers	-12.5757
▁gladly	-12.5766
son	-12.577
▁ab	-12.5772
▁flown	-12.5772
▁instruments	-12.5776
▁coats	-12.5781
▁backup	-12.5783
▁outlive	-12.5794
▁obligat	-12.5808
▁fr	-12.581
box	-12.5822
▁troubles	-12.5841
um	-12.585
▁blackmail	-12.5871
▁accounts	-12.5871
▁farms	-12.588
▁objections	-12.5881
▁fears	-12.5888
▁heights	-12.5888
▁aching	-12.5889
▁manufacture	-12.5901
▁scam	-12.5902
▁scratche	-12.5904
▁slices	-12.5914
▁boxing	-12.5914
▁ru	-12.5916
▁gaze	-12.593
tic	-12.5935
▁partners	-12.5956
▁rinse	-12.5986
▁imitate	-12.6003
▁pies	-12.6004
never	-12.6019
▁talker	-12.6021
▁puzzles	-12.6023
▁telephoned	-12.6025
▁rewrit	-12.604
▁casual	-12.6049
▁drawn	-12.605
▁relie	-12.6052
▁poke	-12.6066
ely	-12.6068
▁boats	-12.6074
▁screams	-12.6074
▁parted	-12.6079
four	-12.6105
▁cuts	-12.6111
▁hanged	-12.6112
▁wander	-12.6132
fashioned	-12.6152
length	-12.6167
▁medi	-12.6172
oph	-12.6176
▁grip	-12.6195
▁rings	-12.6198
▁drain	-12.6202
eye	-12.621
▁grant	-12.6211
▁dice	-12.6227
▁league	-12.6248
ter	-12.6251
▁crow	-12.6256
▁remark	-12.6261
▁fold	-12.6262
▁camel	-12.6269
▁executive	-12.6285
▁review	-12.6287
▁bulb	-12.6287
▁kitten	-12.6287
▁spouse	-12.6288
▁assumption	-12.6289
▁vehicle	-12.629
▁contribution	-12.6291
▁errand	-12.6293
▁sailor	-12.6293
▁accusation	-12.6294
▁motel	-12.6294
▁folk	-12.6303
aving	-12.6305
▁chase	-12.6321
▁recording	-12.6343
▁restrain	-12.6365
▁imagin	-12.6371
▁damages	-12.6375
▁logic	-12.6377
ch	-12.6382
▁advertise	-12.6388
▁determine	-12.639
▁torture	-12.6394
▁mature	-12.6396
▁assault	-12.6401
00,000	-12.6402
▁labor	-12.6402
▁peaceful	-12.641
▁transfer	-12.6412
▁grandpa	-12.6412
▁vietnam	-12.6413
▁invincible	-12.6413
▁asylum	-12.6413
▁beneficial	-12.6413
▁blisters	-12.6413
▁broadcast	-12.6413
▁chauffeur	-12.6413
▁chemical	-12.6413
▁hypocritical	-12.6413
▁incurable	-12.6413
▁mattress	-12.6413
▁mischievous	-12.6413
▁monroe	-12.6413
▁pneumonia	-12.6413
▁refreshments	-12.6413
▁swollen	-12.6413
▁unemployment	-12.6413
▁vocabulary	-12.6413
▁vodka	-12.6413
▁bankruptcy	-12.6413
▁comparison	-12.6413
▁depression	-12.6413
▁necessity	-12.6413
▁opposition	-12.6413
▁scotland	-12.6413
▁crowbar	-12.6413
▁outrageous	-12.6413
▁context	-12.6413
▁clinic	-12.6413
▁kingdom	-12.6413
▁toyota	-12.6413
▁transportation	-12.6413
▁butterfly	-12.6413
▁mysteries	-12.6413
▁curfew	-12.6413
▁isolated	-12.6413
▁unrealistic	-12.6413
▁bulletproof	-12.6413
▁discontented	-12.6413
▁demonstration	-12.6413
▁reward	-12.6413
▁civilian	-12.6413
▁pharmacist	-12.6413
▁supervisor	-12.6413
▁easiest	-12.6413
▁ridden	-12.6413
ham	-12.6413
▁hairstyle	-12.6413
▁dropping	-12.6413
▁rusty	-12.6413
▁sunlight	-12.6413
▁frowned	-12.6414
▁peaches	-12.6414
▁quantity	-12.6414
▁chairperson	-12.6414
▁defendant	-12.6414
▁stepfather	-12.6414
▁furnished	-12.6415
▁edition	-12.6415
▁affectionate	-12.6415
▁emerged	-12.6415
▁disco	-12.6415
▁twisted	-12.6416
▁tailor	-12.6416
▁angeles	-12.6416
▁stung	-12.6416
▁intently	-12.6417
▁hospitality	-12.6417
▁noticing	-12.6418
▁pacing	-12.6418
▁faded	-12.6418
▁multiple	-12.6419
▁distinguish	-12.6419
▁flavor	-12.6419
▁physically	-12.6419
▁firemen	-12.642
▁speechless	-12.642
▁flattered	-12.642
ternal	-12.642
▁repay	-12.642
▁barrel	-12.6421
▁significantly	-12.6421
▁separately	-12.6421
▁overdose	-12.6422
▁rewarded	-12.6422
▁bedside	-12.6422
▁embraced	-12.6422
▁predictable	-12.6423
▁briefly	-12.6424
▁aquarium	-12.6424
▁meteor	-12.6426
▁unexpectedly	-12.6426
▁statistics	-12.6427
▁teens	-12.6427
istic	-12.6427
▁appealed	-12.6429
▁theories	-12.6429
▁pill	-12.6431
▁wrestling	-12.6431
▁barked	-12.6431
▁saint	-12.6434
▁evacuated	-12.6435
▁overlooked	-12.6436
▁housewife	-12.6436
▁monk	-12.6437
▁advertised	-12.6437
▁plot	-12.6438
▁roughly	-12.6438
▁produced	-12.6439
▁teased	-12.6443
take	-12.6444
▁consulted	-12.6446
▁beers	-12.6446
▁responding	-12.6446
▁identified	-12.6448
▁estimated	-12.6448
▁admirer	-12.6449
▁obstacles	-12.645
▁cooler	-12.6451
▁server	-12.6452
▁behalf	-12.6453
▁firing	-12.6453
▁bandaged	-12.6453
▁pastor	-12.6454
▁devil	-12.6455
▁foul	-12.6457
▁expires	-12.6461
▁tribe	-12.6466
▁lover	-12.6472
▁banker	-12.6474
▁broom	-12.6475
▁crate	-12.6484
▁dieting	-12.6491
▁allegations	-12.6492
▁finance	-12.6504
▁dolphins	-12.6512
▁batter	-12.652
▁grounded	-12.6527
▁stray	-12.6533
▁concentrated	-12.6539
▁vision	-12.6541
▁views	-12.6549
▁mars	-12.6552
ups	-12.6561
▁strings	-12.6568
▁lightly	-12.6568
tled	-12.657
▁cds	-12.658
does	-12.6582
▁beginners	-12.6593
▁standards	-12.6596
▁boils	-12.6598
▁va	-12.6601
▁learner	-12.6609
ral	-12.6621
▁st	-12.6623
umped	-12.6625
▁sweets	-12.6626
ose	-12.6627
▁dreamer	-12.6629
ible	-12.6641
▁vari	-12.6641
ingly	-12.6647
▁candidates	-12.6648
▁touching	-12.665
▁reader	-12.6662
▁cease	-12.6666
water	-12.668
ro	-12.6697
▁plu	-12.6701
▁anti	-12.6706
ive	-12.6706
▁yea	-12.6707
point	-12.6708
▁democrat	-12.6725
▁iphone	-12.6732
▁situations	-12.6733
▁span	-12.6738
▁ban	-12.6746
hurt	-12.6754
end	-12.6764
▁mop	-12.6807
referred	-12.6808
mmuniti	-12.6812
▁exercises	-12.6821
▁forks	-12.6845
rious	-12.6845
▁sights	-12.6852
▁fruits	-12.686
▁drinker	-12.6862
▁unpack	-12.6866
▁walker	-12.6893
▁types	-12.6911
▁ham	-12.6918
▁wan	-12.6954
▁dislikes	-12.6954
▁detectives	-12.6981
▁medications	-12.6993
has	-12.6997
▁cheeks	-12.7011
▁fund	-12.7013
concerned	-12.7014
▁teams	-12.7025
▁impartial	-12.7026
ied	-12.7029
▁choppe	-12.703
mouth	-12.705
conscious	-12.7054
▁drops	-12.7068
▁discussions	-12.7076
▁bridges	-12.7086
founded	-12.7097
▁sets	-12.7107
now	-12.7109
▁endure	-12.7115
skirts	-12.7128
▁plug	-12.7146
▁dangers	-12.7151
omic	-12.7156
▁budge	-12.7165
▁cocktail	-12.7177
▁spade	-12.7181
▁cigar	-12.7183
▁development	-12.7188
▁psychiatrist	-12.7188
▁napkin	-12.7188
▁composer	-12.7191
▁spirit	-12.7195
▁exhibit	-12.7197
iffe	-12.7201
▁colleague	-12.7203
▁prediction	-12.7203
▁pigeon	-12.7203
▁negotiation	-12.7204
▁disk	-12.7207
▁expense	-12.7214
▁benefit	-12.7217
▁repairs	-12.7218
▁zip	-12.7221
▁girlfriends	-12.7225
▁heal	-12.7235
▁resent	-12.7268
▁hip	-12.7287
▁cultur	-12.7294
▁tale	-12.7294
assuming	-12.7297
▁evacuate	-12.7299
▁fo	-12.7303
▁surf	-12.7308
▁fulfill	-12.731
▁draft	-12.7311
▁vivid	-12.7318
▁hysterical	-12.7318
▁humming	-12.7321
▁frantic	-12.7321
▁eccentric	-12.7322
▁cholesterol	-12.7322
▁ambidextrous	-12.7322
▁arrogance	-12.7322
▁bilingual	-12.7322
▁bizarre	-12.7322
▁escort	-12.7322
▁geography	-12.7322
▁george	-12.7322
▁hollywood	-12.7322
▁karate	-12.7322
▁napoleon	-12.7322
▁nutritious	-12.7322
▁peculiar	-12.7322
▁penalty	-12.7322
▁ribbon	-12.7322
▁shanghai	-12.7322
▁sociable	-12.7322
▁trivial	-12.7322
▁twenties	-12.7322
▁twentieth	-12.7322
▁verdict	-12.7322
▁voyage	-12.7322
▁autistic	-12.7322
▁expedition	-12.7322
▁handicapped	-12.7322
▁november	-12.7322
▁chapter	-12.7322
▁flustered	-12.7322
▁kyushu	-12.7322
▁authorities	-12.7322
▁lemonade	-12.7322
▁steadily	-12.7322
▁agency	-12.7322
▁proposition	-12.7322
▁commotion	-12.7322
▁materialistic	-12.7322
▁unenthusiastic	-12.7322
▁fancy	-12.7322
▁sexy	-12.7322
▁liberty	-12.7322
▁reckon	-12.7322
▁disorder	-12.7322
▁electrician	-12.7322
▁widow	-12.7322
▁survival	-12.7322
▁architecture	-12.7322
▁northern	-12.7322
▁cheesecake	-12.7322
▁comedian	-12.7322
▁motivation	-12.7322
▁snowstorm	-12.7322
▁hoax	-12.7322
▁vegan	-12.7322
▁unanswered	-12.7322
▁unhealthy	-12.7322
▁snapped	-12.7322
▁commitment	-12.7323
▁journalism	-12.7323
▁amazon	-12.7323
▁courtroom	-12.7323
▁cancelled	-12.7323
▁riddle	-12.7323
▁slope	-12.7323
▁cooperating	-12.7323
▁summit	-12.7323
▁popularity	-12.7323
▁groaned	-12.7324
▁worship	-12.7324
▁waterproof	-12.7324
▁paycheck	-12.7325
tting	-12.7325
▁independence	-12.7325
▁kong	-12.7325
▁exhausting	-12.7325
▁unloaded	-12.7325
▁moonlight	-12.7326
▁refreshing	-12.7326
▁refreshed	-12.7326
▁agriculture	-12.7326
▁spotted	-12.7326
▁caution	-12.7326
▁branches	-12.7326
▁jaw	-12.7327
▁daydreaming	-12.7327
▁cellar	-12.7327
▁racing	-12.7327
▁breakdown	-12.7328
▁visible	-12.7328
▁deck	-12.7329
▁cheapest	-12.733
▁giggled	-12.733
▁rattled	-12.733
▁sneaky	-12.7331
▁frequent	-12.7331
▁assembled	-12.7332
▁mankind	-12.7333
▁explored	-12.7334
▁squash	-12.7334
▁orbit	-12.7334
▁passage	-12.7334
shed	-12.7336
▁tiring	-12.7336
▁maintained	-12.7336
▁lyrics	-12.734
▁ancestors	-12.734
▁protested	-12.7342
▁biologist	-12.7343
▁mustard	-12.7349
▁beards	-12.735
▁dinosaurs	-12.7351
▁cable	-12.7355
▁suspiciously	-12.7357
▁anxiously	-12.7358
▁lip	-12.7361
▁skater	-12.7362
▁atlantic	-12.7364
▁elevators	-12.7366
▁funnie	-12.7376
▁heroes	-12.7378
▁acknowledge	-12.7379
▁yank	-12.7385
▁revolt	-12.7385
▁lunchtime	-12.7386
▁dragons	-12.7388
ological	-12.7394
▁marked	-12.7399
▁recycle	-12.7402
▁aloud	-12.7403
▁sch	-12.7406
▁poorly	-12.7412
▁ranger	-12.7415
▁relieve	-12.7427
▁pine	-12.7432
▁internal	-12.744
▁predictions	-12.7443
▁laps	-12.7445
▁soil	-12.7451
▁slump	-12.7458
▁bail	-12.7463
▁listener	-12.7464
▁toaster	-12.7472
▁thumbs	-12.7479
▁wit	-12.748
fourth	-12.7487
▁pri	-12.7493
▁goats	-12.7495
▁nut	-12.7505
▁fame	-12.7506
▁monthly	-12.7509
so	-12.751
▁antiques	-12.7511
▁everest	-12.752
▁min	-12.7523
great	-12.7532
▁outcome	-12.7539
▁glue	-12.7542
▁juggle	-12.755
▁hasty	-12.7552
▁robbers	-12.7555
▁ro	-12.7572
▁needle	-12.7578
▁nightmares	-12.7592
▁honk	-12.7595
▁sketch	-12.7604
▁san	-12.7623
et	-12.7644
nted	-12.7646
▁referr	-12.7672
▁rip	-12.7682
▁vegetarians	-12.7684
▁belly	-12.7686
calculated	-12.7701
▁religions	-12.7703
▁bells	-12.7705
▁mon	-12.7705
boyfriend	-12.7708
ki	-12.7718
▁din	-12.7724
▁alternatives	-12.773
▁gu	-12.7748
cal	-12.7748
▁stir	-12.7754
▁sticks	-12.7754
ided	-12.7758
▁dam	-12.7772
▁pr	-12.7776
▁licensed	-12.7776
▁judged	-12.7777
▁medic	-12.7786
limps	-12.7804
ay	-12.7813
▁en	-12.782
▁pile	-12.7821
▁characters	-12.7842
▁bees	-12.7849
keeper	-12.7855
3-	-12.7857
▁kno	-12.7861
▁planets	-12.7863
▁ruins	-12.787
▁bull	-12.7873
▁cl	-12.7889
▁attacks	-12.789
▁subjects	-12.7894
hour	-12.7895
▁bung	-12.7914
trip	-12.792
▁swamp	-12.7923
▁spots	-12.793
▁host	-12.7935
0,	-12.7939
▁warnings	-12.7944
ike	-12.7947
▁upload	-12.7954
▁du	-12.7956
▁shares	-12.7969
▁convert	-12.7977
mail	-12.7988
dy	-12.7989
▁meets	-12.8006
owed	-12.8008
33	-12.8013
▁meter	-12.8016
▁bump	-12.8018
▁origin	-12.8019
familiar	-12.8032
▁lame	-12.8036
tracted	-12.8062
▁fatal	-12.8065
▁behaves	-12.8068
▁newly	-12.8073
▁range	-12.8084
▁steals	-12.8092
▁sigh	-12.8102
▁gains	-12.8102
▁torn	-12.8105
▁sack	-12.811
▁submit	-12.8128
ball	-12.8129
▁emotion	-12.813
▁noises	-12.8143
▁inter	-12.8148
▁critic	-12.8161
fi	-12.8163
▁partial	-12.8164
▁produce	-12.8173
▁parrot	-12.8174
▁commercial	-12.8176
▁classic	-12.8185
▁tractor	-12.8189
▁christian	-12.8191
▁limp	-12.8195
▁champion	-12.8195
▁achievement	-12.82
▁firefighter	-12.8201
▁dolphin	-12.8202
▁instinct	-12.8203
▁olympic	-12.8203
▁fi	-12.8203
▁consequence	-12.8204
▁servant	-12.8205
▁thirtie	-12.8208
▁prayer	-12.8212
▁prospect	-12.8225
▁belief	-12.8234
▁icy	-12.8243
▁swing	-12.8247
▁fri	-12.8252
▁blues	-12.8254
▁jo	-12.8259
▁drama	-12.8265
▁brat	-12.8281
▁moron	-12.8285
▁thesis	-12.8288
▁advantages	-12.8291
▁traveler	-12.8292
▁unbelievabl	-12.8295
▁reschedule	-12.8296
▁collapse	-12.83
long	-12.83
▁manipulate	-12.8301
▁yawn	-12.8302
▁warrant	-12.8302
▁expose	-12.8302
▁launch	-12.8312
▁flush	-12.8313
▁terror	-12.8316
▁snowboard	-12.8316
▁bleed	-12.8318
▁eloquent	-12.8318
▁unsuccessful	-12.8318
▁profession	-12.832
▁abducted	-12.8322
▁arithmetic	-12.8322
▁bacteria	-12.8322
▁certificate	-12.8322
▁cradle	-12.8322
▁cremated	-12.8322
▁dynamite	-12.8322
▁fierce	-12.8322
▁hairdresser	-12.8322
▁hypothesis	-12.8322
▁inseparable	-12.8322
▁jefferson	-12.8322
▁laboratory	-12.8322
▁legitimate	-12.8322
▁mandolin	-12.8322
▁manuscript	-12.8322
▁marvelous	-12.8322
▁okinawa	-12.8322
▁parallel	-12.8322
▁penniless	-12.8322
▁portrait	-12.8322
▁syrup	-12.8322
▁tequila	-12.8322
▁unsociable	-12.8322
▁austria	-12.8322
▁barricade	-12.8322
▁concentration	-12.8322
▁disneyland	-12.8322
▁jesus	-12.8322
▁welfare	-12.8322
▁bundle	-12.8322
▁confusion	-12.8322
▁encounter	-12.8322
▁probation	-12.8322
▁arabic	-12.8322
▁barbershop	-12.8322
▁defensive	-12.8322
▁delegat	-12.8322
▁documentaries	-12.8322
▁graphic	-12.8322
▁communist	-12.8322
▁vacant	-12.8322
▁exaggeration	-12.8322
▁prescribed	-12.8322
▁toolbox	-12.8322
▁delusional	-12.8322
▁fossil	-12.8322
▁babbling	-12.8322
▁untrustworthy	-12.8322
▁farewell	-12.8322
▁dutch	-12.8322
▁handshake	-12.8322
▁irreplaceable	-12.8322
▁calories	-12.8322
▁delirious	-12.8322
▁sloppy	-12.8322
▁bassoon	-12.8322
▁lamb	-12.8322
▁jelly	-12.8322
▁policies	-12.8322
▁colony	-12.8322
▁editor	-12.8322
▁sweetheart	-12.8322
▁autopsy	-12.8322
▁devastating	-12.8322
▁humiliating	-12.8322
▁contributing	-12.8322
▁protesters	-12.8322
▁infected	-12.8322
▁kidney	-12.8322
▁greasy	-12.8322
▁harmful	-12.8322
▁armchair	-12.8322
▁enlisted	-12.8322
▁chalk	-12.8322
▁ferry	-12.8322
▁nude	-12.8323
▁beatles	-12.8323
▁weaknesses	-12.8323
▁astrology	-12.8323
▁shortcut	-12.8323
▁snuggle	-12.8323
▁unfolded	-12.8323
▁impeccable	-12.8324
▁panicked	-12.8324
▁surviving	-12.8324
▁disagreement	-12.8324
▁curry	-12.8324
▁nightclub	-12.8324
▁escaping	-12.8324
▁unsafe	-12.8324
▁analysis	-12.8324
▁documentary	-12.8324
▁meaningless	-12.8324
▁mailman	-12.8324
▁entertaining	-12.8325
▁scout	-12.8325
▁cupboard	-12.8325
▁undecided	-12.8325
▁handball	-12.8325
▁feedback	-12.8326
▁emigrate	-12.8326
▁darkness	-12.8326
▁dreadful	-12.8327
▁offense	-12.8327
▁tension	-12.8328
▁altogether	-12.8328
▁choked	-12.8328
▁horseback	-12.8329
▁drought	-12.833
▁polluted	-12.833
▁status	-12.8331
▁pickles	-12.8331
residential	-12.8331
▁checkers	-12.8331
▁troubling	-12.8332
▁agony	-12.8332
▁chilly	-12.8333
▁dense	-12.8333
▁blend	-12.8334
▁overhead	-12.8335
▁underage	-12.8335
▁mowing	-12.8336
▁hatred	-12.8336
▁rebellion	-12.8337
▁hotter	-12.8339
▁linguistics	-12.834
▁financially	-12.834
▁contradicted	-12.8341
▁ducked	-12.8342
▁developing	-12.8342
▁articulate	-12.8342
▁englishman	-12.8343
▁strongest	-12.8348
▁beware	-12.835
▁tube	-12.8352
dding	-12.8353
▁tortured	-12.8354
▁applicants	-12.8354
▁heroin	-12.8355
▁residents	-12.8357
▁quarreled	-12.8358
▁tricky	-12.8359
▁da	-12.8361
▁virus	-12.8364
▁references	-12.8366
fianc	-12.8368
▁conserve	-12.8368
▁cnn	-12.8369
▁scanne	-12.8371
ably	-12.8375
300,000	-12.8375
▁sensation	-12.8377
▁pier	-12.8382
▁spreading	-12.8383
▁calmly	-12.8388
yo	-12.839
▁braces	-12.839
▁honored	-12.8391
▁maniac	-12.8393
▁doorway	-12.8396
▁treason	-12.8397
▁flames	-12.84
▁donations	-12.8404
▁pouring	-12.8414
▁shoplift	-12.8416
▁marketing	-12.8422
▁crook	-12.8424
terior	-12.8427
▁remaining	-12.843
▁domestic	-12.843
▁machines	-12.8433
▁moody	-12.8434
dental	-12.8435
▁artists	-12.8438
▁prayers	-12.8442
ho	-12.8443
run	-12.8445
▁pears	-12.8453
▁farther	-12.8465
▁fasten	-12.8465
▁tide	-12.8467
ent	-12.8468
▁errands	-12.8468
▁dearly	-12.8482
▁vitamins	-12.8482
unk	-12.8498
▁fare	-12.8508
▁pun	-12.8509
▁lungs	-12.8513
▁cuba	-12.8514
▁europeans	-12.8519
▁tales	-12.852
▁islands	-12.8521
replaceable	-12.8522
▁poster	-12.8525
▁substitute	-12.8531
▁doubled	-12.8542
▁submitt	-12.8551
▁miner	-12.8555
▁opponents	-12.8558
▁temples	-12.8567
put	-12.8568
▁booked	-12.8592
▁solo	-12.8621
▁zippe	-12.8626
▁finest	-12.8631
▁billions	-12.8635
▁superior	-12.8644
▁harp	-12.8652
▁african	-12.8653
ded	-12.8653
▁22	-12.8668
wrapped	-12.8671
ak	-12.868
▁tender	-12.8682
▁robe	-12.8682
▁pinch	-12.8688
about	-12.8703
▁liter	-12.8706
▁marks	-12.8709
▁ties	-12.872
que	-12.8733
ra	-12.8739
▁wheels	-12.8747
▁athletes	-12.8758
▁motorcycles	-12.8761
▁candid	-12.8768
▁mortal	-12.8773
if	-12.878
▁bedrooms	-12.879
nk	-12.8803
▁blink	-12.8825
hopped	-12.884
▁cons	-12.8842
▁wet	-12.887
▁reasoning	-12.8872
▁fuse	-12.8874
ure	-12.8879
▁lu	-12.8896
▁taxis	-12.89
ouched	-12.8902
▁tattoos	-12.8916
▁moments	-12.8922
stayed	-12.8928
▁trusting	-12.893
▁buyer	-12.8935
▁unle	-12.8939
▁natives	-12.896
▁explanations	-12.8964
mates	-12.8968
▁economical	-12.8983
ran	-12.8984
▁infinite	-12.9003
ating	-12.9006
harmed	-12.9007
work	-12.9017
▁mu	-12.9027
get	-12.9043
▁stack	-12.9098
▁bombs	-12.9102
interpreted	-12.9112
strong	-12.912
▁ink	-12.9124
blood	-12.9124
▁compar	-12.9141
proof	-12.9143
▁handles	-12.9148
contented	-12.916
▁calculate	-12.9167
right	-12.9167
ize	-12.9168
▁sta	-12.9172
▁values	-12.9181
considerate	-12.9183
▁su	-12.9185
judged	-12.9186
▁engineers	-12.9192
▁defuse	-12.9192
anged	-12.9203
▁castles	-12.9206
▁kit	-12.9206
▁pub	-12.9211
▁ax	-12.9213
third	-12.9219
▁giv	-12.923
▁corners	-12.924
ee	-12.925
▁si	-12.9256
▁solutions	-12.926
▁depart	-12.9263
▁joint	-12.9273
posed	-12.9274
▁sneeze	-12.9281
▁troublemaker	-12.9287
sincere	-12.9287
nic	-12.9288
▁rob	-12.9288
▁la	-12.9289
▁guitars	-12.9297
▁slapp	-12.9297
▁legend	-12.9304
▁migraine	-12.9307
▁classmate	-12.9313
▁lifeguard	-12.9313
door	-12.9314
▁insect	-12.9317
▁clown	-12.9319
▁motive	-12.9321
▁ballot	-12.9327
vid	-12.9328
▁trend	-12.9333
▁colds	-12.9341
▁item	-12.9341
▁pizzas	-12.9347
▁sail	-12.936
▁auto	-12.9377
rdly	-12.9378
▁terrorist	-12.9381
▁brag	-12.939
▁trans	-12.9394
▁tool	-12.9405
▁preserve	-12.9407
▁intervene	-12.9407
▁distract	-12.9413
▁whisper	-12.9415
▁drag	-12.9417
▁spil	-12.9418
▁flatter	-12.9419
▁skateboard	-12.9425
▁multi	-12.9431
▁thirst	-12.9432
▁drastic	-12.9432
▁abundant	-12.9433
▁beijing	-12.9433
▁binoculars	-12.9433
▁bipolar	-12.9433
▁empire	-12.9433
▁episode	-12.9433
▁esperanto	-12.9433
▁florida	-12.9433
▁impulsive	-12.9433
▁karaoke	-12.9433
▁pamphlet	-12.9433
▁portuguese	-12.9433
▁preoccupied	-12.9433
▁privilege	-12.9433
▁pyramid	-12.9433
▁razor	-12.9433
▁shinjuku	-12.9433
▁subscribe	-12.9433
▁swedish	-12.9433
▁tournament	-12.9433
▁unethical	-12.9433
▁workaholic	-12.9433
▁wrinkled	-12.9433
▁avenue	-12.9433
▁breeze	-12.9433
▁finicky	-12.9433
▁qualities	-12.9433
▁representative	-12.9433
▁buddies	-12.9433
▁discrimination	-12.9433
▁iceberg	-12.9433
▁thailand	-12.9433
▁chaotic	-12.9433
▁sausage	-12.9433
▁stranded	-12.9433
▁disqualified	-12.9433
▁rowboat	-12.9433
▁burden	-12.9433
▁ponytail	-12.9433
▁devious	-12.9433
▁masterpiece	-12.9433
▁temperamental	-12.9433
▁grumbling	-12.9433
▁possessive	-12.9433
▁impulse	-12.9433
▁investors	-12.9433
▁whatsoever	-12.9433
▁beverage	-12.9433
▁deceiving	-12.9433
▁heartbreaking	-12.9433
▁spinning	-12.9433
▁skydiving	-12.9433
▁compassionate	-12.9433
▁orphanage	-12.9433
esteem	-12.9433
▁interfering	-12.9433
▁iceland	-12.9433
▁gangster	-12.9433
▁advertisement	-12.9433
▁stitches	-12.9433
▁bonus	-12.9433
▁worldwide	-12.9433
▁session	-12.9433
▁membership	-12.9433
▁seasick	-12.9434
▁bummed	-12.9434
▁motionless	-12.9434
▁ipod	-12.9434
▁earliest	-12.9434
▁irish	-12.9434
▁crude	-12.9434
▁steep	-12.9434
▁academic	-12.9434
▁nomination	-12.9434
▁unnoticed	-12.9434
▁constructive	-12.9434
▁cellmate	-12.9434
▁steering	-12.9434
▁slob	-12.9434
▁amputated	-12.9434
▁filter	-12.9435
▁cartoon	-12.9435
▁muggy	-12.9435
▁inflexible	-12.9435
▁underwear	-12.9436
▁manipulative	-12.9436
▁invalid	-12.9436
▁turk	-12.9436
▁challenging	-12.9436
▁implying	-12.9437
▁glared	-12.9437
▁represent	-12.9437
▁volcano	-12.9437
▁introverted	-12.9438
▁brass	-12.9438
▁conquer	-12.9439
▁sunburned	-12.9439
▁chopin	-12.9439
▁disagreeable	-12.944
▁concluded	-12.944
▁passionately	-12.9441
▁regulations	-12.9441
▁knob	-12.9442
▁hypocrite	-12.9442
▁attentively	-12.9442
▁blessed	-12.9443
▁brownies	-12.9443
▁madman	-12.9444
▁departed	-12.9444
▁prudent	-12.9444
▁handcuffs	-12.9444
▁mommy	-12.9444
▁pounding	-12.9445
▁expired	-12.9447
▁endless	-12.9447
▁booth	-12.9447
▁brandy	-12.9448
▁firmly	-12.9448
▁outspoken	-12.9449
▁clogged	-12.945
▁producer	-12.9451
▁compass	-12.9451
▁preferred	-12.9451
▁insured	-12.9452
▁construct	-12.9452
▁misplace	-12.9452
▁shelves	-12.9452
▁funding	-12.9453
▁soared	-12.9453
▁taxpayers	-12.9455
▁fingernails	-12.9455
▁sharpening	-12.9456
▁mislead	-12.9456
▁scold	-12.9457
▁shoveling	-12.9457
▁hacked	-12.946
defeated	-12.9463
▁sharply	-12.9464
▁weaker	-12.9465
▁germans	-12.9466
▁foolishly	-12.9466
▁credible	-12.9468
▁brightly	-12.9468
dependable	-12.9469
▁govern	-12.947
▁disciplined	-12.947
▁ache	-12.9472
▁favorable	-12.9473
▁zone	-12.9476
▁tougher	-12.9476
▁dreame	-12.9478
▁tissue	-12.948
▁bless	-12.948
▁corrupt	-12.9481
▁breast	-12.9482
▁updated	-12.9483
▁cucumbers	-12.9484
▁groom	-12.9484
▁productive	-12.9485
▁wrongdoing	-12.9487
▁freelance	-12.9491
▁meantime	-12.9492
▁worms	-12.9494
▁coke	-12.9494
▁pandas	-12.9495
▁wicked	-12.9497
▁patrol	-12.9501
▁braver	-12.9502
▁edible	-12.9502
▁consistent	-12.9504
▁begging	-12.951
▁creeps	-12.9512
▁sadly	-12.9514
▁pronounced	-12.9514
cussion	-12.9516
▁competed	-12.9517
▁moves	-12.9521
▁debated	-12.9528
▁melts	-12.9531
good	-12.9541
▁flaw	-12.9543
▁endors	-12.9543
▁restart	-12.9543
▁coaching	-12.9546
▁ego	-12.9547
▁principles	-12.9549
▁tenor	-12.9559
▁liars	-12.9559
con	-12.9559
▁feared	-12.956
▁deprive	-12.9565
▁tuned	-12.9565
▁pursue	-12.9565
▁blinded	-12.9569
▁firefighters	-12.957
▁advocate	-12.9572
▁cured	-12.9575
▁fiddle	-12.9579
▁simpler	-12.9583
▁retires	-12.9585
▁vital	-12.9588
▁ironic	-12.9592
▁soundly	-12.9593
▁ch	-12.9608
▁hostil	-12.962
▁robots	-12.962
▁mailed	-12.9622
▁fa	-12.9623
serted	-12.9626
▁drill	-12.9655
ide	-12.9661
▁bond	-12.9671
▁hospitals	-12.9682
ced	-12.9686
▁freezes	-12.9688
▁dine	-12.9698
▁exaggerates	-12.97
▁killers	-12.9722
▁thread	-12.973
▁pressured	-12.9731
▁digest	-12.9731
▁na	-12.9744
▁suing	-12.9748
▁33	-12.9749
▁sees	-12.9761
▁sleeper	-12.9761
▁chatte	-12.9766
▁postcards	-12.9771
ile	-12.9775
▁unfi	-12.9783
▁nun	-12.9788
▁rises	-12.9797
▁ashes	-12.9815
▁threats	-12.9817
▁aches	-12.982
▁evenings	-12.984
▁catalog	-12.9841
▁x	-12.9851
▁cube	-12.9854
tted	-12.9856
iz	-12.9873
▁pigs	-12.9874
▁ga	-12.9877
▁buttons	-12.9884
▁skates	-12.9905
girlfriend	-12.9906
english	-12.9909
▁swor	-12.991
▁pipes	-12.991
▁examinations	-12.9917
▁rank	-12.9921
men	-12.9924
eath	-12.9931
▁interpret	-12.9932
▁principle	-12.9939
▁levels	-12.9952
▁testing	-12.9958
viet	-12.9961
reading	-12.9972
▁spoons	-12.9972
▁rolls	-12.9998
▁tighten	-12.9999
un	-13.0006
house	-13.0007
used	-13.0012
▁carpenters	-13.0042
▁hut	-13.0046
▁skis	-13.006
onald	-13.0066
ved	-13.0071
eaten	-13.0071
▁pi	-13.0072
▁goat	-13.0074
cola	-13.0116
▁agoniz	-13.0118
per	-13.0131
know	-13.0132
▁cia	-13.0139
▁dive	-13.0148
▁liver	-13.0157
▁chop	-13.0163
▁seal	-13.0177
▁converte	-13.0209
gaining	-13.0219
eight	-13.022
ow	-13.0245
▁tonic	-13.0276
ot	-13.0289
▁industrial	-13.0297
▁peru	-13.03
ley	-13.0302
ished	-13.0324
▁sw	-13.0325
wed	-13.0338
▁badge	-13.0347
▁app	-13.035
▁ju	-13.0358
elected	-13.0359
▁rebel	-13.0365
▁duff	-13.0369
lacks	-13.0388
▁allerg	-13.0391
shaped	-13.0403
▁fl	-13.0408
▁equi	-13.041
dollar	-13.0414
ac	-13.0414
cooked	-13.0418
neck	-13.0437
▁divers	-13.0441
▁diploma	-13.0461
▁clubs	-13.0466
▁mattered	-13.0483
▁elections	-13.0484
▁actors	-13.0505
▁forbid	-13.0521
▁supplie	-13.0532
▁commission	-13.0538
▁wrestler	-13.054
▁frame	-13.0547
▁cheeseburger	-13.0548
▁brochure	-13.0548
▁autograph	-13.0549
ack	-13.0549
les	-13.055
▁giraffe	-13.0554
▁senator	-13.0555
▁shadow	-13.0555
▁competitor	-13.0558
▁device	-13.0558
▁precaution	-13.0561
▁allegation	-13.0563
▁teammate	-13.0564
▁mineral	-13.0565
▁includ	-13.0568
▁backward	-13.0576
▁alien	-13.0578
▁disagrees	-13.058
▁factor	-13.0589
▁jewel	-13.0593
term	-13.0595
elders	-13.0596
▁marine	-13.06
▁attacker	-13.0602
▁palm	-13.0603
bel	-13.0604
▁constitution	-13.0608
nothing	-13.0614
read	-13.0655
▁parole	-13.0657
▁refus	-13.0658
▁incomplete	-13.0661
▁delete	-13.0662
▁dedicate	-13.0662
▁applaud	-13.0662
▁disgust	-13.0665
▁prevail	-13.0672
▁imitat	-13.0677
▁apprehensive	-13.0679
▁apparent	-13.068
▁evident	-13.068
▁republic	-13.0681
▁expand	-13.0681
▁omelet	-13.0681
▁egypt	-13.0683
▁accumulate	-13.0683
▁beethoven	-13.0683
▁cassette	-13.0683
▁celsius	-13.0683
▁coerced	-13.0683
▁comprehend	-13.0683
▁confiscated	-13.0683
▁council	-13.0683
▁crutches	-13.0683
▁dilemma	-13.0683
▁distraught	-13.0683
▁exhaled	-13.0683
▁francisco	-13.0683
▁fraud	-13.0683
▁homicide	-13.0683
▁hybrid	-13.0683
▁ignition	-13.0683
▁lacrosse	-13.0683
▁nagano	-13.0683
▁noodles	-13.0683
▁obesity	-13.0683
▁parliament	-13.0683
▁physician	-13.0683
▁prefecture	-13.0683
▁reassuring	-13.0683
▁simplicity	-13.0683
▁smallpox	-13.0683
▁sophomore	-13.0683
▁spacious	-13.0683
▁superficial	-13.0683
▁surveillance	-13.0683
▁temporarily	-13.0683
▁unforgettable	-13.0683
▁unforgivable	-13.0683
▁vaccine	-13.0683
▁banquet	-13.0683
▁leisure	-13.0683
▁trophy	-13.0683
▁appalled	-13.0683
▁contemplat	-13.0683
▁gravity	-13.0683
▁inhabitants	-13.0683
▁subtle	-13.0683
▁username	-13.0683
▁amusement	-13.0683
▁plastered	-13.0683
▁assessment	-13.0683
▁excessive	-13.0683
▁hamster	-13.0683
▁shrugged	-13.0683
▁hungarian	-13.0683
▁crystal	-13.0683
▁formula	-13.0683
▁shuffle	-13.0683
▁warehouse	-13.0683
▁automatically	-13.0683
▁replied	-13.0683
▁premise	-13.0683
▁scramble	-13.0683
▁caffeine	-13.0683
▁similarities	-13.0683
▁mumbling	-13.0683
▁colorblind	-13.0683
▁typist	-13.0683
▁contrary	-13.0683
▁corruption	-13.0683
▁bygones	-13.0683
▁thomas	-13.0683
▁tango	-13.0683
▁programming	-13.0683
▁rehearsal	-13.0683
▁accomplishment	-13.0683
▁unsolved	-13.0683
▁tackle	-13.0683
▁storage	-13.0684
▁investigator	-13.0684
▁brainwashed	-13.0684
▁mesmerized	-13.0684
▁drugged	-13.0684
▁publisher	-13.0684
▁petty	-13.0684
▁adjustment	-13.0684
▁whisky	-13.0684
▁complexion	-13.0684
▁bookshelf	-13.0684
▁dormitory	-13.0684
▁obtain	-13.0684
▁sobbing	-13.0684
▁inspector	-13.0684
▁ireland	-13.0685
▁optimism	-13.0685
home	-13.0685
▁heroic	-13.0685
▁tasty	-13.0685
▁lounge	-13.0685
▁unbuttoned	-13.0685
▁windsurfing	-13.0686
▁hardware	-13.0686
▁reasonably	-13.0686
▁uninteresting	-13.0686
▁cozy	-13.0686
▁trading	-13.0686
▁evasive	-13.0686
▁keyboard	-13.0687
▁swig	-13.0687
▁hysterically	-13.0687
▁informal	-13.0687
▁fearless	-13.0687
▁entertained	-13.0688
▁raft	-13.0688
▁invaded	-13.0688
▁patio	-13.0688
▁coca	-13.0688
▁consultant	-13.0688
▁tactful	-13.0688
▁specialty	-13.0689
▁knowledgeable	-13.0689
▁alphabetical	-13.069
▁grasp	-13.069
▁limping	-13.069
▁melting	-13.069
▁admiring	-13.0691
▁guidebook	-13.0691
▁consumer	-13.0692
▁operating	-13.0692
▁quiz	-13.0692
▁crane	-13.0692
▁pupils	-13.0692
▁blankly	-13.0693
▁continuing	-13.0693
▁bugged	-13.0693
▁rivers	-13.0693
▁overworked	-13.0695
▁conform	-13.0695
▁elegant	-13.0695
▁accountable	-13.0696
▁landscape	-13.0696
▁waxed	-13.0696
▁illusion	-13.0696
▁tempting	-13.0697
▁drawers	-13.0698
▁eliminated	-13.0698
▁printed	-13.0699
▁thames	-13.0699
▁bullying	-13.0699
▁consented	-13.0699
▁provoked	-13.07
▁peach	-13.07
▁willpower	-13.07
▁darts	-13.07
▁blackmailed	-13.07
▁proficient	-13.0702
▁violate	-13.0702
▁renewed	-13.0703
▁foundation	-13.0704
▁erase	-13.0704
▁bodies	-13.0705
▁stunt	-13.0706
▁vigilant	-13.0706
▁physicist	-13.0708
▁sailed	-13.0708
▁denie	-13.0708
▁bravery	-13.0709
▁protein	-13.0709
▁wimp	-13.0709
▁commander	-13.0709
▁stained	-13.0711
▁define	-13.0711
ities	-13.0711
▁pardoned	-13.0711
▁upsetting	-13.0712
▁packages	-13.0712
▁trail	-13.0715
▁eagerly	-13.0716
ice	-13.0716
▁reconsidered	-13.0719
▁amaze	-13.072
▁shortest	-13.072
▁dishonor	-13.0721
▁recalled	-13.0722
▁professionally	-13.0723
▁surroundings	-13.0724
▁comedy	-13.0732
▁sirens	-13.0733
▁satisfaction	-13.0734
▁housing	-13.0738
▁ingredients	-13.0741
▁measurements	-13.0741
▁successes	-13.0741
▁stink	-13.0744
▁marble	-13.0746
▁judgement	-13.0753
▁existed	-13.0755
▁tempt	-13.0755
▁curve	-13.0768
▁poorer	-13.0772
▁negotiated	-13.0776
▁mole	-13.0779
▁mama	-13.078
▁insight	-13.0781
▁busie	-13.0781
▁accidental	-13.0783
martial	-13.0789
▁terrify	-13.0795
▁par	-13.0796
▁progressing	-13.0798
▁timetable	-13.0798
▁wax	-13.0803
▁precautions	-13.0806
pposed	-13.0809
▁rag	-13.0817
▁liters	-13.0819
▁organi	-13.0821
▁lens	-13.0824
▁dwell	-13.0829
▁dresser	-13.0829
▁drying	-13.0838
▁businesses	-13.0839
▁achievements	-13.0839
seven	-13.0843
▁upper	-13.0849
▁desired	-13.0849
▁extinct	-13.0857
place	-13.086
▁vi	-13.0862
▁clint	-13.0866
▁senat	-13.0869
▁costly	-13.087
▁sailors	-13.087
▁ongoing	-13.0871
▁retreat	-13.0875
▁bugs	-13.0879
▁considerabl	-13.0881
▁stoned	-13.0881
▁prizes	-13.0884
▁grim	-13.0884
▁risen	-13.089
▁acid	-13.0892
plus	-13.0893
▁hills	-13.0896
▁tenth	-13.0907
▁revolve	-13.093
▁floats	-13.0948
▁stuffy	-13.0961
▁lemons	-13.0961
▁requests	-13.0962
▁fabric	-13.0965
▁cleaners	-13.0967
▁snores	-13.0972
▁overlook	-13.0974
▁fists	-13.0977
▁acquaintances	-13.0986
ore	-13.0989
▁masks	-13.0991
▁traditions	-13.0994
▁suggests	-13.0996
▁issued	-13.0997
▁puff	-13.0999
▁squirrels	-13.1003
▁reporters	-13.1003
▁pled	-13.1012
▁harmed	-13.1017
▁aids	-13.103
▁channels	-13.1051
hi	-13.1054
▁fails	-13.1056
▁scen	-13.1067
▁bachelors	-13.1068
some	-13.1071
▁adventures	-13.108
side	-13.1083
emphasized	-13.1092
▁sur	-13.1099
▁insults	-13.1101
ight	-13.1118
▁enforce	-13.112
violet	-13.1123
▁pointing	-13.1125
▁mt	-13.1141
▁compell	-13.1144
ger	-13.1146
▁clocks	-13.1156
▁griev	-13.1162
ake	-13.1175
▁winners	-13.1191
▁char	-13.1196
with	-13.1217
▁appearances	-13.1229
▁connections	-13.1247
▁proposals	-13.1264
▁cling	-13.1276
ions	-13.1282
▁topics	-13.1292
aged	-13.1308
shirts	-13.1315
▁helmets	-13.1317
ig	-13.1317
very	-13.1318
uttered	-13.1331
▁era	-13.1335
▁losers	-13.1349
▁winds	-13.1365
▁awards	-13.138
▁rep	-13.1381
▁input	-13.1381
hood	-13.1381
▁billi	-13.1387
opped	-13.1394
▁kn	-13.1408
located	-13.1432
▁misunderstand	-13.144
▁bragg	-13.1451
talking	-13.1457
ise	-13.1457
▁usa	-13.1458
la	-13.1461
dog	-13.1462
word	-13.1463
hes	-13.1464
▁beep	-13.1469
▁goose	-13.1469
break	-13.1474
▁passwords	-13.1477
▁liking	-13.1482
test	-13.1486
▁strengths	-13.1521
▁keeper	-13.1534
▁spun	-13.1535
▁strikes	-13.1546
▁lively	-13.1551
▁films	-13.1551
▁raises	-13.1554
ural	-13.156
authorized	-13.1575
rry	-13.1579
cy	-13.1596
▁assum	-13.1599
tion	-13.1603
paid	-13.1604
▁spra	-13.1613
▁kne	-13.1617
▁vowe	-13.163
▁pu	-13.1638
▁shorts	-13.1641
▁rowing	-13.1665
▁mor	-13.1711
▁arrests	-13.1716
just	-13.1717
six	-13.1719
▁untied	-13.1725
▁irres	-13.1729
▁drift	-13.1743
▁elect	-13.1761
bridge	-13.1765
▁recit	-13.1766
election	-13.1791
▁undergo	-13.1799
worthy	-13.1802
▁outsider	-13.1804
▁anticipat	-13.1804
employed	-13.1805
mp	-13.1819
bo	-13.1819
▁attempts	-13.1822
listed	-13.1826
▁detect	-13.1846
▁mi	-13.1846
ual	-13.1872
▁ke	-13.1873
ca	-13.1876
▁improves	-13.189
▁slo	-13.189
wives	-13.1915
▁covers	-13.1931
tell	-13.1932
land	-13.1958
▁tablecloth	-13.1964
▁pumpkin	-13.1964
ified	-13.1966
▁mammal	-13.1976
▁curse	-13.1977
▁necktie	-13.1977
▁writers	-13.1977
car	-13.1977
▁boo	-13.1984
▁decade	-13.1989
▁scheme	-13.1992
▁kilogram	-13.1993
▁footprint	-13.1993
▁muscle	-13.1994
▁earring	-13.1997
▁sufficient	-13.2
ces	-13.2002
▁flame	-13.2007
▁smok	-13.2008
▁sto	-13.2012
▁loo	-13.2021
owing	-13.2024
help	-13.2046
mmed	-13.2057
▁melon	-13.2069
▁ev	-13.207
ison	-13.2073
ray	-13.2075
worm	-13.2078
▁sympathize	-13.2085
▁discourage	-13.2087
▁humiliate	-13.2089
zippe	-13.209
▁resolve	-13.2091
▁locate	-13.2092
▁outdoor	-13.2093
▁drown	-13.2099
▁threaten	-13.21
▁ambush	-13.2101
▁confront	-13.2102
▁neglect	-13.2102
▁display	-13.2102
▁lump	-13.2104
▁consume	-13.2106
▁tremendous	-13.2107
▁skillful	-13.2108
rospect	-13.211
▁federal	-13.211
▁remorse	-13.2111
▁accomplice	-13.2111
▁acupuncture	-13.2111
▁antibiotics	-13.2111
▁anxiety	-13.2111
▁archaeologist	-13.2111
▁badminton	-13.2111
▁blizzard	-13.2111
▁caviar	-13.2111
▁celebrity	-13.2111
▁chirping	-13.2111
▁consumption	-13.2111
▁contingency	-13.2111
▁corridor	-13.2111
▁decency	-13.2111
▁decreasing	-13.2111
▁deficit	-13.2111
▁dishwasher	-13.2111
▁dubious	-13.2111
▁duplicate	-13.2111
▁fantasy	-13.2111
▁gauge	-13.2111
▁hogwash	-13.2111
▁invisible	-13.2111
▁jittery	-13.2111
▁jupiter	-13.2111
▁kanji	-13.2111
▁koala	-13.2111
▁lenient	-13.2111
▁leopard	-13.2111
▁maintenance	-13.2111
▁malaysia	-13.2111
▁messenger	-13.2111
▁mortgage	-13.2111
▁nuisance	-13.2111
▁orchard	-13.2111
▁premonition	-13.2111
▁reindeer	-13.2111
▁rhetorical	-13.2111
▁rookie	-13.2111
▁satellite	-13.2111
▁singapore	-13.2111
▁taiwan	-13.2111
▁tobacco	-13.2111
▁tulips	-13.2111
▁ultra	-13.2111
▁uncontrollabl	-13.2111
▁unimaginative	-13.2111
▁uninsured	-13.2111
▁vicious	-13.2111
▁vulgar	-13.2111
▁concrete	-13.2111
▁extension	-13.2111
▁irrational	-13.2111
▁overjoyed	-13.2111
▁sheriff	-13.2111
▁titanic	-13.2111
▁victorious	-13.2111
▁alzheimer	-13.2111
▁ashtray	-13.2111
▁astonishment	-13.2111
▁clipboard	-13.2111
▁goggles	-13.2111
▁hiroshima	-13.2111
▁puppies	-13.2111
▁ransacked	-13.2111
▁remedy	-13.2111
▁sailboat	-13.2111
▁tuition	-13.2111
▁grief	-13.2111
▁asthma	-13.2111
▁bathrobe	-13.2111
▁cricket	-13.2111
▁harmony	-13.2111
▁vcr	-13.2111
▁envious	-13.2111
▁frugal	-13.2111
▁missionaries	-13.2111
▁demoted	-13.2111
▁pennies	-13.2111
▁darwin	-13.2111
▁proactive	-13.2111
▁recess	-13.2111
▁drenched	-13.2111
▁activist	-13.2111
▁christianity	-13.2111
▁unscrupulous	-13.2111
▁unsophisticated	-13.2112
▁creek	-13.2112
▁disappearance	-13.2112
▁interpretation	-13.2112
▁suicidal	-13.2112
▁plunged	-13.2112
▁stunning	-13.2112
▁confidential	-13.2112
▁massive	-13.2112
▁employment	-13.2112
▁personalities	-13.2112
▁headquarters	-13.2112
▁gulp	-13.2112
▁psyched	-13.2112
▁applause	-13.2112
▁perfectionist	-13.2112
▁chainsaw	-13.2112
▁stapler	-13.2112
▁gravy	-13.2112
▁twain	-13.2112
▁cashier	-13.2112
▁momentarily	-13.2112
▁prophecy	-13.2112
▁phenomenal	-13.2112
▁nationality	-13.2112
▁eavesdropping	-13.2112
▁replacement	-13.2112
▁hamlet	-13.2112
▁addictive	-13.2112
▁testified	-13.2112
▁plague	-13.2112
▁miller	-13.2112
▁underground	-13.2112
precede	-13.2112
▁currency	-13.2112
▁disposal	-13.2112
▁irritating	-13.2113
▁william	-13.2113
▁extinguisher	-13.2113
▁crackers	-13.2113
▁decorating	-13.2113
▁overemotional	-13.2113
▁distraction	-13.2113
▁unprepared	-13.2113
▁immune	-13.2113
▁stalling	-13.2113
▁pantry	-13.2113
▁wilson	-13.2113
▁intensive	-13.2113
▁pursuing	-13.2113
▁comfortably	-13.2113
▁suntan	-13.2113
▁overwhelming	-13.2113
▁thrilling	-13.2114
▁competing	-13.2114
▁plowed	-13.2114
▁pox	-13.2114
▁detest	-13.2114
▁kenne	-13.2114
▁ni	-13.2114
▁aroused	-13.2114
▁sendai	-13.2114
▁backstage	-13.2115
▁waterfall	-13.2115
▁distressed	-13.2115
▁superman	-13.2116
▁chatting	-13.2116
▁confide	-13.2117
▁handful	-13.2117
▁butler	-13.2117
▁statesman	-13.2118
▁dragged	-13.2118
▁gasped	-13.2118
▁perfection	-13.2118
▁excluded	-13.2118
▁disobey	-13.2118
▁zipper	-13.2119
▁bragging	-13.2119
▁blushing	-13.2119
▁ordeal	-13.212
▁fashionable	-13.212
▁reassured	-13.212
▁stupidity	-13.2121
▁astonishing	-13.2121
▁hairs	-13.2121
▁displayed	-13.2122
▁honorable	-13.2122
▁hitchhiker	-13.2122
▁nick	-13.2122
▁blinking	-13.2122
▁squad	-13.2122
▁immortal	-13.2122
▁busiest	-13.2123
▁trimmed	-13.2123
▁represented	-13.2123
▁backseat	-13.2124
erous	-13.2125
▁network	-13.2127
03	-13.2127
▁flushed	-13.2127
▁processor	-13.2127
▁priceless	-13.2127
▁selected	-13.2127
▁bitterly	-13.2128
▁el	-13.2128
▁swallowing	-13.2128
▁analyzed	-13.2129
▁widely	-13.213
▁grind	-13.2132
statement	-13.2132
▁pat	-13.2132
▁pester	-13.2133
▁overestimate	-13.2133
▁superb	-13.2135
▁appealing	-13.2137
▁cursed	-13.2137
▁investing	-13.2138
▁compatible	-13.2139
▁hebrew	-13.2139
▁inventor	-13.2139
▁accessible	-13.214
▁muffins	-13.2141
▁fright	-13.2141
▁pastime	-13.2141
▁eyebrows	-13.2141
▁via	-13.2141
▁brighter	-13.2143
▁beforehand	-13.2144
▁bubble	-13.2144
▁hunted	-13.2144
▁healed	-13.2144
▁fastened	-13.2145
▁genetic	-13.2145
▁neutral	-13.2149
▁unfairly	-13.2149
▁streetcar	-13.215
▁camper	-13.215
▁impatiently	-13.2152
▁comforting	-13.2153
▁riser	-13.2154
▁sweaty	-13.2154
▁tanker	-13.2155
▁leaking	-13.2155
▁opens	-13.2156
▁historical	-13.216
▁bum	-13.216
▁insulting	-13.216
▁mont	-13.2162
functional	-13.2165
▁sunk	-13.2167
▁focusing	-13.2169
▁spelled	-13.217
▁mount	-13.217
▁deeper	-13.217
▁scrubb	-13.2171
▁presume	-13.2172
▁owls	-13.2172
▁unlike	-13.2176
▁coping	-13.2177
▁successfully	-13.2183
▁poisoning	-13.2184
▁dj	-13.2184
▁mower	-13.2185
▁foresee	-13.2187
▁flunk	-13.2187
▁holster	-13.2191
▁tolerated	-13.22
▁pledge	-13.2201
▁angles	-13.2202
▁counsel	-13.2203
pe	-13.2211
edication	-13.2212
▁tub	-13.2214
▁needles	-13.222
▁mule	-13.2222
▁chili	-13.2223
eval	-13.2229
away	-13.2237
▁fitting	-13.2238
▁reduced	-13.2239
▁pac	-13.224
▁palms	-13.224
▁owl	-13.224
▁pluck	-13.2242
▁sticky	-13.2243
▁minerals	-13.2254
▁frustrati	-13.2255
▁indicate	-13.2259
ucked	-13.2261
▁digit	-13.2265
▁tuna	-13.2267
▁lifeguards	-13.2274
▁dock	-13.2284
▁pope	-13.2285
▁braid	-13.2287
▁miners	-13.2297
▁jealousy	-13.2301
▁mass	-13.2302
▁videos	-13.2306
▁repaint	-13.2307
▁stormy	-13.2309
▁bloody	-13.2313
▁sub	-13.2318
chi	-13.2322
▁rum	-13.2325
▁contributions	-13.2331
▁grain	-13.2331
▁vehicles	-13.2331
▁frogs	-13.2336
▁scrap	-13.2337
▁hawk	-13.2338
▁seatbelts	-13.235
decisive	-13.2351
▁onion	-13.2353
ster	-13.2353
▁devou	-13.2363
▁vet	-13.2368
0-	-13.2371
▁suspicions	-13.238
▁idle	-13.2385
▁cruise	-13.2397
▁prude	-13.24
▁mothers	-13.2413
▁ruler	-13.2417
veral	-13.2418
▁shameful	-13.2423
▁generations	-13.2426
▁creat	-13.2429
▁floors	-13.2432
▁gracious	-13.2432
could	-13.2439
▁melt	-13.2451
▁sharks	-13.2452
ping	-13.2453
▁areas	-13.2455
▁cents	-13.2479
▁basics	-13.2486
▁curl	-13.249
more	-13.2494
priced	-13.2497
stand	-13.2497
▁boast	-13.2497
▁bold	-13.2503
▁carp	-13.2509
▁wrists	-13.251
▁bribes	-13.2516
▁blondes	-13.252
▁mat	-13.2521
▁sacrifices	-13.2522
▁stoop	-13.2526
▁rebuild	-13.2529
▁pint	-13.2531
▁floss	-13.2531
done	-13.2533
▁automobiles	-13.2541
▁specifics	-13.2578
▁merc	-13.2583
▁organs	-13.2584
▁rio	-13.2593
ir	-13.2608
agnostic	-13.2646
ama	-13.2646
2,	-13.2647
ards	-13.2649
folding	-13.265
ors	-13.2656
▁gut	-13.2663
said	-13.2671
erial	-13.2679
▁lighting	-13.2704
▁dear	-13.2729
▁sane	-13.2734
▁sharpene	-13.2738
▁peppers	-13.2749
but	-13.2752
▁finishe	-13.2755
▁costing	-13.2769
turn	-13.2775
ite	-13.278
ug	-13.2781
mother	-13.2796
brother	-13.2798
ged	-13.2821
sing	-13.2833
▁patriot	-13.2839
iled	-13.284
▁prune	-13.2846
▁hay	-13.2851
▁gar	-13.286
▁guessing	-13.2868
▁majors	-13.2872
▁increases	-13.2875
▁renovat	-13.2878
▁carpets	-13.2907
▁bro	-13.2914
him	-13.2915
ium	-13.2933
▁combine	-13.2955
lined	-13.2984
ographer	-13.299
▁bowls	-13.2992
▁cele	-13.2994
▁mortifie	-13.2997
marily	-13.3014
correctly	-13.3022
wilder	-13.3041
fire	-13.3045
went	-13.3059
front	-13.3071
▁yards	-13.3108
▁rack	-13.3128
▁gi	-13.3139
▁disapprove	-13.3143
wrote	-13.315
want	-13.3203
thing	-13.3207
rink	-13.3211
rail	-13.323
▁impressions	-13.3233
▁rear	-13.3233
▁wave	-13.3233
▁magnet	-13.3242
nel	-13.3245
▁husbands	-13.3247
famous	-13.3259
centra	-13.3268
▁iraq	-13.3301
american	-13.3318
▁rubb	-13.3334
▁icon	-13.3349
written	-13.3357
ma	-13.3364
ik	-13.3371
▁coincidences	-13.3378
airy	-13.3379
▁dances	-13.3386
ightened	-13.3395
▁scrape	-13.34
happy	-13.34
▁blush	-13.3412
▁phones	-13.3421
co	-13.3423
23	-13.3431
ler	-13.3432
▁flip	-13.3436
write	-13.3438
night	-13.344
earth	-13.3451
▁eag	-13.3464
quet	-13.3467
crowded	-13.3467
capable	-13.3477
taking	-13.3484
▁distinct	-13.3489
▁lad	-13.349
birth	-13.35
▁slap	-13.3502
▁dragon	-13.3505
winner	-13.3506
barred	-13.3507
threatening	-13.3515
▁drape	-13.3521
slaughter	-13.3525
phrase	-13.3531
bite	-13.3536
loyal	-13.3539
▁te	-13.354
▁sting	-13.3555
j	-13.3563
sleeve	-13.357
uch	-13.3578
wore	-13.358
▁listed	-13.3595
▁typo	-13.3598
nless	-13.3604
▁slam	-13.3613
▁dash	-13.3614
ame	-13.3626
▁pineapple	-13.363
▁roman	-13.3635
▁untru	-13.3636
▁fluid	-13.3638
lan	-13.364
▁doughnut	-13.3643
▁granddaughter	-13.3643
rous	-13.3647
▁cheerleader	-13.3649
racking	-13.3659
▁carrot	-13.3661
▁employer	-13.3662
▁scale	-13.3666
▁refugee	-13.3667
covering	-13.3675
▁creep	-13.3679
▁convention	-13.3682
cked	-13.3682
doing	-13.3685
▁angle	-13.3688
▁putt	-13.3691
▁plum	-13.3696
▁showers	-13.3707
▁hum	-13.371
▁dared	-13.3724
▁returns	-13.3733
▁introduc	-13.3735
▁adviser	-13.3739
▁leftover	-13.3749
▁fires	-13.3752
▁disguise	-13.3754
▁capture	-13.3754
▁explore	-13.3756
▁connect	-13.3757
▁promote	-13.376
▁evolution	-13.376
▁invent	-13.3768
▁sunburn	-13.3768
▁stagger	-13.3768
▁miserabl	-13.3769
▁cord	-13.377
▁extraordinar	-13.3772
▁ve	-13.3773
▁immense	-13.3774
▁rapid	-13.3775
▁cockroach	-13.3776
▁overhear	-13.3777
▁compassion	-13.3778
▁hydr	-13.3778
▁scholar	-13.3778
▁exhilarat	-13.3778
ha	-13.3778
▁adjourned	-13.3778
▁aggression	-13.3778
▁ankara	-13.3778
▁assembly	-13.3778
▁bagpipes	-13.3778
▁ballerina	-13.3778
▁belgium	-13.3778
▁boycott	-13.3778
▁ceremonies	-13.3778
▁cherries	-13.3778
▁chimpanzee	-13.3778
▁cholera	-13.3778
▁condominium	-13.3778
▁controversy	-13.3778
▁eclipse	-13.3778
▁egotistical	-13.3778
▁einstein	-13.3778
▁extensive	-13.3778
▁extravagant	-13.3778
▁fishermen	-13.3778
▁fugitive	-13.3778
▁guinea	-13.3778
▁hammock	-13.3778
▁identification	-13.3778
▁indignant	-13.3778
▁indispensable	-13.3778
▁infallible	-13.3778
▁ingenious	-13.3778
▁intuition	-13.3778
▁kosher	-13.3778
▁lasagna	-13.3778
▁likelihood	-13.3778
▁mandatory	-13.3778
▁margarine	-13.3778
▁meditating	-13.3778
▁netherlands	-13.3778
▁nixon	-13.3778
▁nocturnal	-13.3778
▁observation	-13.3778
▁origami	-13.3778
▁paragraph	-13.3778
▁portugal	-13.3778
▁profusely	-13.3778
▁rehab	-13.3778
▁scribble	-13.3778
▁shawl	-13.3778
▁shinano	-13.3778
▁skeleton	-13.3778
▁sluggish	-13.3778
▁stewardess	-13.3778
▁submarine	-13.3778
▁sydney	-13.3778
▁transfusion	-13.3778
▁understaffed	-13.3778
▁unimaginable	-13.3778
▁vienna	-13.3778
▁voluntarily	-13.3778
▁buffalo	-13.3778
▁capacity	-13.3778
▁chorus	-13.3778
▁courtesy	-13.3778
▁dignified	-13.3778
▁emphasis	-13.3778
▁grapefruit	-13.3778
▁hacksaw	-13.3778
▁innovative	-13.3778
▁molehill	-13.3778
▁monument	-13.3778
▁obama	-13.3778
▁opportunistic	-13.3778
▁casino	-13.3778
▁compulsive	-13.3778
▁determination	-13.3778
▁sedative	-13.3778
▁unscrew	-13.3778
▁melody	-13.3778
▁prosperity	-13.3778
▁skull	-13.3778
▁discharged	-13.3778
▁meditate	-13.3778
▁parlor	-13.3778
▁accordion	-13.3778
▁limitations	-13.3778
▁warrior	-13.3778
▁jellyfish	-13.3778
▁motorboat	-13.3778
▁invaders	-13.3778
▁reagan	-13.3778
▁heartburn	-13.3778
▁institution	-13.3778
▁transport	-13.3778
▁dripping	-13.3778
▁weakness	-13.3778
▁stereo	-13.3778
▁superstitious	-13.3778
▁clapping	-13.3778
▁philosopher	-13.3778
▁disrespect	-13.3778
▁kidnap	-13.3778
▁jumpsuit	-13.3778
▁queasy	-13.3778
▁universal	-13.3778
▁shattered	-13.3778
▁inheritance	-13.3778
▁distinction	-13.3778
▁unanimously	-13.3778
▁geologist	-13.3778
▁spoonful	-13.3778
▁circulation	-13.3778
▁gallery	-13.3778
▁jeep	-13.3778
▁cartoonist	-13.3778
▁rainforest	-13.3778
▁rioters	-13.3778
▁mourning	-13.3779
▁hitler	-13.3779
▁thickheaded	-13.3779
▁negotiator	-13.3779
▁substantial	-13.3779
▁radical	-13.3779
▁choking	-13.3779
kko	-13.3779
▁straightforward	-13.3779
▁apron	-13.3779
▁biography	-13.3779
▁plotting	-13.3779
▁pacifist	-13.3779
▁autobiography	-13.3779
▁preacher	-13.3779
▁heartwarming	-13.3779
▁ferris	-13.3779
▁mastermind	-13.3779
▁profound	-13.3779
▁puzzling	-13.3779
▁shotgun	-13.3779
▁imaginary	-13.3779
▁violation	-13.3779
▁unrelated	-13.3779
▁buddy	-13.3779
▁unnatural	-13.3779
▁moldy	-13.3779
▁receptionist	-13.3779
▁jammed	-13.3779
▁conviction	-13.3779
▁feverish	-13.378
▁misled	-13.378
▁dvd	-13.378
▁situat	-13.378
▁crafty	-13.378
▁socialist	-13.378
▁pear	-13.378
▁crybaby	-13.378
▁imitation	-13.378
▁utmost	-13.378
urban	-13.378
▁juggling	-13.378
▁nonsmoker	-13.378
▁luckiest	-13.378
▁humanity	-13.378
▁reverse	-13.378
▁wasteful	-13.3781
▁gunfire	-13.3781
▁cringed	-13.3781
▁classified	-13.3781
▁gasping	-13.3781
▁wavy	-13.3781
▁debating	-13.3781
▁unfounded	-13.3781
▁intolerant	-13.3781
▁illustrated	-13.3782
▁hideous	-13.3782
▁poland	-13.3782
▁prosecut	-13.3782
▁pause	-13.3782
▁selfie	-13.3782
▁growled	-13.3783
▁valve	-13.3783
▁abolished	-13.3783
▁exploit	-13.3783
▁swiss	-13.3783
▁rhine	-13.3783
▁chestnut	-13.3783
▁obsessive	-13.3783
▁unimportant	-13.3783
▁inexcusable	-13.3784
▁overpriced	-13.3785
▁audio	-13.3785
▁alps	-13.3785
▁fractured	-13.3785
▁attraction	-13.3785
▁tuba	-13.3786
▁technically	-13.3786
▁grudge	-13.3786
▁vomited	-13.3786
▁conductor	-13.3786
▁impressionable	-13.3787
▁stepsister	-13.3787
▁binge	-13.3787
▁folder	-13.3787
▁inferior	-13.3788
▁swerve	-13.3788
▁underwater	-13.3788
▁wipers	-13.3788
▁justify	-13.3789
▁mittens	-13.3789
▁altered	-13.3789
▁repainted	-13.3789
▁tramp	-13.379
▁ambushed	-13.379
▁alter	-13.379
▁brightest	-13.3791
▁skateboarding	-13.3791
▁explorers	-13.3791
▁tariffs	-13.3791
▁headlines	-13.3791
com	-13.3792
natured	-13.3792
▁ashore	-13.3793
▁unpacking	-13.3793
▁germs	-13.3793
▁snowboarding	-13.3793
▁tentative	-13.3793
▁nile	-13.3794
▁passive	-13.3795
▁speculate	-13.3796
▁fle	-13.3796
▁adjoin	-13.3796
▁sighed	-13.3797
▁engines	-13.3797
▁allergy	-13.3797
▁admitting	-13.3797
▁oath	-13.3798
▁weirdest	-13.3799
▁burr	-13.38
▁weatherman	-13.38
▁restrained	-13.3801
▁painless	-13.3804
▁gossiping	-13.3806
▁milton	-13.3806
▁weekdays	-13.3807
▁louis	-13.3809
▁oddly	-13.381
ogen	-13.381
▁treasurer	-13.3811
▁dusty	-13.3811
▁inspect	-13.3812
▁disadvantages	-13.3813
▁constellations	-13.3813
▁corrections	-13.3814
▁flatly	-13.3815
▁schoolteacher	-13.3815
▁performing	-13.3816
▁machinery	-13.3817
▁heroine	-13.3817
▁intervened	-13.3818
▁blindfold	-13.3818
▁sneezed	-13.3818
▁hedge	-13.3818
▁intentional	-13.382
▁descend	-13.3821
▁buff	-13.3824
▁scorpion	-13.3824
▁educational	-13.3826
ability	-13.3828
▁photography	-13.383
▁neuro	-13.383
▁twist	-13.3831
▁urgently	-13.3832
▁ribs	-13.3833
▁confine	-13.3835
▁penguins	-13.3836
▁snowflakes	-13.3836
▁cracking	-13.3837
▁cock	-13.3837
▁suv	-13.3838
▁bulk	-13.3844
▁deceased	-13.3848
▁observed	-13.385
▁freshly	-13.3854
▁photographed	-13.3858
▁cupcakes	-13.3859
▁hammered	-13.386
▁judgmental	-13.3862
▁tattooed	-13.3866
▁arose	-13.387
▁visibl	-13.3871
▁unde	-13.3871
▁olives	-13.3871
▁mounted	-13.3872
▁rivals	-13.3872
▁baker	-13.3872
▁contractor	-13.3873
▁slide	-13.3877
▁bribed	-13.388
▁agreeable	-13.3881
▁subtitles	-13.3881
▁souvenirs	-13.3881
▁markets	-13.3883
▁witch	-13.3889
▁figur	-13.389
▁smack	-13.3893
▁narrowed	-13.3897
▁payday	-13.3897
ey	-13.3901
▁sixth	-13.3902
▁oneself	-13.3904
▁accommodate	-13.3904
▁publicly	-13.3906
ari	-13.3907
▁berries	-13.391
▁touches	-13.3913
▁wrench	-13.3917
apping	-13.3919
▁decades	-13.3925
▁romans	-13.3925
▁scraps	-13.3926
▁influenced	-13.3928
▁impose	-13.3932
▁acute	-13.3938
▁rea	-13.3939
boy	-13.3939
▁disbelie	-13.3947
armed	-13.395
▁failing	-13.3951
serves	-13.3952
▁outlaw	-13.3953
▁motives	-13.3954
girlfriends	-13.3956
▁workman	-13.3958
▁withered	-13.396
▁lotion	-13.396
cement	-13.3963
▁beliefs	-13.3963
▁ballots	-13.3965
▁interfered	-13.3967
▁sails	-13.3968
▁brace	-13.3969
cing	-13.3969
thless	-13.3971
▁rabi	-13.3975
▁dies	-13.3976
▁howling	-13.3978
▁cultured	-13.3983
beat	-13.3985
▁ugl	-13.3988
▁fees	-13.3988
nts	-13.3997
week	-13.4002
▁cro	-13.4013
▁vary	-13.402
rying	-13.4021
oo	-13.4029
▁wires	-13.403
skinned	-13.4033
ery	-13.4037
▁sumo	-13.4038
▁assumptions	-13.4041
eat	-13.4042
oni	-13.4042
▁grad	-13.4047
▁cigars	-13.4048
▁charger	-13.4052
▁samples	-13.4055
▁com	-13.4057
▁sal	-13.4059
▁pearls	-13.406
▁nieces	-13.4062
▁paramedics	-13.4064
▁tab	-13.4072
▁google	-13.4076
▁vice	-13.4078
▁sorted	-13.4085
▁revive	-13.4091
▁updates	-13.4092
▁ph	-13.4102
▁proverbs	-13.4109
▁recommendations	-13.411
lessly	-13.4112
▁freed	-13.4112
nt	-13.4119
▁goof	-13.4124
▁greeks	-13.4127
za	-13.4127
▁cal	-13.413
▁showered	-13.4134
▁jailed	-13.4134
▁sizes	-13.4138
▁tow	-13.414
vering	-13.4142
ache	-13.4145
ory	-13.4152
▁dodge	-13.4157
▁assignments	-13.4178
▁improvements	-13.4178
▁kites	-13.4179
▁orphans	-13.4182
▁carded	-13.4185
ou	-13.4186
believable	-13.419
air	-13.4201
▁conve	-13.4203
▁botani	-13.4203
▁brew	-13.4205
ited	-13.4207
▁gown	-13.4214
▁exile	-13.4237
▁chart	-13.4239
arks	-13.4239
▁elbows	-13.4242
ify	-13.4245
▁touchy	-13.4246
▁maps	-13.4251
▁donation	-13.4254
hal	-13.4257
▁designers	-13.4266
stract	-13.4274
▁shutter	-13.4275
opping	-13.4278
▁horns	-13.4279
▁protests	-13.4281
ons	-13.4293
body	-13.4296
▁emails	-13.4298
▁leaks	-13.4305
▁railroads	-13.4314
aternity	-13.4317
▁glanc	-13.4322
smart	-13.4324
▁wha	-13.4329
▁shou	-13.4337
▁roar	-13.4337
▁wr	-13.4357
loaded	-13.4383
van	-13.4396
▁sc	-13.4403
▁purr	-13.4409
▁tents	-13.4416
than	-13.4418
waiting	-13.4433
reckles	-13.4434
ants	-13.4437
hey	-13.4443
▁bou	-13.4447
▁fashioned	-13.4448
punk	-13.4452
debt	-13.4455
▁lazie	-13.4465
▁coll	-13.4468
lipped	-13.4472
ph	-13.4477
▁journalists	-13.4512
▁costumes	-13.4519
▁gallon	-13.4532
post	-13.4548
▁def	-13.4553
▁anyhow	-13.4557
der	-13.4559
ries	-13.4559
tempted	-13.458
▁enroll	-13.4582
▁floods	-13.4583
▁spells	-13.4584
▁handkerchiefs	-13.4589
ndered	-13.4599
nce	-13.4617
▁tease	-13.463
any	-13.4645
prints	-13.4663
▁violat	-13.4669
only	-13.4681
▁painters	-13.4684
ts	-13.4684
liable	-13.4688
▁zi	-13.4745
mashed	-13.4759
▁shifts	-13.477
▁generate	-13.4774
▁magnif	-13.4791
▁viola	-13.4797
▁wip	-13.4806
lly	-13.4808
▁interrogat	-13.4809
▁daydream	-13.4809
ept	-13.4811
▁camps	-13.482
two	-13.4833
your	-13.4855
▁dread	-13.4863
▁spl	-13.4876
ments	-13.4881
▁tro	-13.4907
cake	-13.4909
legible	-13.4934
▁fir	-13.4937
▁deliberate	-13.4944
▁copie	-13.4957
ila	-13.4961
▁fashions	-13.4967
▁murders	-13.4969
willed	-13.4971
ul	-13.5031
▁scoot	-13.5038
▁minors	-13.5049
oyal	-13.505
ang	-13.5062
view	-13.5071
▁gro	-13.5076
▁indulge	-13.5093
▁stroll	-13.5119
▁pros	-13.5123
smoking	-13.5156
▁participa	-13.5157
enched	-13.5181
▁models	-13.5187
▁crowds	-13.519
▁chas	-13.5194
▁lon	-13.5204
▁clash	-13.5212
ilient	-13.5214
▁pilots	-13.5215
making	-13.5228
▁pools	-13.5233
▁professors	-13.5245
ured	-13.5251
▁patte	-13.5253
schooled	-13.5257
experienced	-13.5263
▁bugg	-13.5268
▁sens	-13.5271
▁cel	-13.5274
vis	-13.528
▁moist	-13.5293
ud	-13.5294
▁taj	-13.5325
ahead	-13.5327
rate	-13.5336
▁contacts	-13.5338
▁tickle	-13.5342
▁speculati	-13.5351
iped	-13.537
▁gre	-13.5384
ury	-13.5396
welcome	-13.5398
▁ac	-13.5404
▁ob	-13.5405
paying	-13.5407
▁trim	-13.5407
writer	-13.5423
ze	-13.5425
guard	-13.5429
fall	-13.5441
ri	-13.5444
ia	-13.5444
▁oceans	-13.5445
rowing	-13.5461
▁forests	-13.5463
page	-13.5467
rank	-13.5479
uled	-13.5481
▁hail	-13.5497
efficient	-13.5497
bone	-13.5516
boiled	-13.5517
▁vacations	-13.5527
ty	-13.5532
▁justifie	-13.5534
dison	-13.5558
due	-13.556
rated	-13.5573
▁fetch	-13.5579
conclusi	-13.5584
▁whip	-13.5586
▁pla	-13.5593
▁3,	-13.5598
▁expire	-13.5629
▁ninja	-13.563
▁liquid	-13.563
wood	-13.5631
anda	-13.5633
▁ki	-13.5636
▁cu	-13.5637
▁brick	-13.5638
nched	-13.5642
▁zombie	-13.5643
▁possession	-13.5643
▁pedestrian	-13.5648
▁sunflower	-13.5652
▁coaster	-13.5652
▁souvenir	-13.5653
▁subtitle	-13.5653
bal	-13.5654
▁setback	-13.5655
▁snowball	-13.5656
▁mathematic	-13.5657
▁bolt	-13.5658
▁preparation	-13.5658
▁turtle	-13.5658
▁kidnapper	-13.566
▁symptom	-13.566
▁panda	-13.5663
▁grape	-13.5664
▁rival	-13.5665
▁giant	-13.5669
▁spice	-13.5673
▁failures	-13.5675
brain	-13.5678
▁structure	-13.5683
band	-13.5684
▁stool	-13.5692
▁calculation	-13.5693
▁harass	-13.5697
▁criticiz	-13.57
▁fla	-13.5702
▁mc	-13.5708
▁satur	-13.5715
atch	-13.5717
▁intern	-13.5721
▁charg	-13.5731
▁olive	-13.5733
▁rescu	-13.5738
▁intrude	-13.5742
vi	-13.5743
▁decrease	-13.5752
▁eliminate	-13.5753
▁compensate	-13.5753
▁assemble	-13.5756
▁provoke	-13.5761
nounced	-13.5762
▁discipline	-13.5763
▁acquire	-13.5764
▁devote	-13.5765
▁volcan	-13.5766
▁introvert	-13.5768
▁vomit	-13.5768
▁seiz	-13.5768
▁dismiss	-13.5769
▁bluff	-13.577
▁hypocri	-13.5771
▁chuckle	-13.5771
▁potter	-13.5774
▁journal	-13.5778
▁pessimist	-13.5778
▁toy	-13.5778
▁contempt	-13.5778
▁kabu	-13.5778
inflicted	-13.5778
▁adequate	-13.5778
▁afghanistan	-13.5778
▁amsterdam	-13.5778
▁antenna	-13.5778
▁antidote	-13.5778
▁apprentice	-13.5778
▁archaeology	-13.5778
▁authentic	-13.5778
▁backgammon	-13.5778
▁bashful	-13.5778
▁billionaire	-13.5778
▁brooch	-13.5778
▁cabbage	-13.5778
▁cathedral	-13.5778
▁centigrade	-13.5778
▁collision	-13.5778
▁contaminated	-13.5778
▁credibility	-13.5778
▁croatia	-13.5778
▁deceptive	-13.5778
▁deteriorated	-13.5778
▁deteriorating	-13.5778
▁diabetes	-13.5778
▁discouraging	-13.5778
▁domineering	-13.5778
▁ecstatic	-13.5778
▁excruciating	-13.5778
▁excursion	-13.5778
▁explicit	-13.5778
▁fahrenheit	-13.5778
▁feasible	-13.5778
▁fisherman	-13.5778
▁formidable	-13.5778
▁fragile	-13.5778
▁gloomy	-13.5778
▁graffiti	-13.5778
▁hibernate	-13.5778
▁historian	-13.5778
▁improbable	-13.5778
▁inadequate	-13.5778
▁indonesia	-13.5778
▁infectious	-13.5778
▁insinuating	-13.5778
▁insomnia	-13.5778
▁intellectual	-13.5778
▁intimidating	-13.5778
▁judaism	-13.5778
▁leukemia	-13.5778
▁lightbulb	-13.5778
▁lukewarm	-13.5778
▁merchandise	-13.5778
▁meticulous	-13.5778
▁modifications	-13.5778
▁moscow	-13.5778
▁mountaineering	-13.5778
▁nitrogen	-13.5778
▁perceptive	-13.5778
▁petrified	-13.5778
▁plumbing	-13.5778
▁probability	-13.5778
▁prognosis	-13.5778
▁recruit	-13.5778
▁repulsive	-13.5778
▁revelation	-13.5778
▁sacred	-13.5778
▁sapporo	-13.5778
▁seminar	-13.5778
▁shepherd	-13.5778
▁shizuoka	-13.5778
▁shrimp	-13.5778
▁sniper	-13.5778
▁snobbish	-13.5778
▁somersault	-13.5778
▁soprano	-13.5778
▁tangerines	-13.5778
▁tennessee	-13.5778
▁triathlon	-13.5778
▁ukrain	-13.5778
▁ulcer	-13.5778
▁universities	-13.5778
▁versatile	-13.5778
▁wrinkles	-13.5778
▁xylophone	-13.5778
▁appalling	-13.5778
▁banister	-13.5778
▁bureau	-13.5778
▁crucial	-13.5778
▁denmark	-13.5778
▁detention	-13.5778
▁hypnotized	-13.5778
▁integrity	-13.5778
▁limousine	-13.5778
▁merchant	-13.5778
▁persecuted	-13.5778
▁pliers	-13.5778
▁potholes	-13.5778
▁secrecy	-13.5778
▁staircase	-13.5778
▁supreme	-13.5778
▁auction	-13.5778
▁clubbing	-13.5778
▁maximum	-13.5778
▁puddle	-13.5778
▁receding	-13.5778
▁sermon	-13.5778
▁appendix	-13.5778
▁autism	-13.5778
▁earphones	-13.5778
▁gadget	-13.5778
▁panama	-13.5778
▁prenup	-13.5778
▁widespread	-13.5778
▁concise	-13.5778
▁enlighten	-13.5778
▁ostrich	-13.5778
▁prophet	-13.5778
▁vocal	-13.5778
▁raisins	-13.5778
▁illogical	-13.5778
▁suspense	-13.5778
▁civilization	-13.5778
▁flabb	-13.5778
▁hospitable	-13.5778
▁reconfirm	-13.5778
▁tedious	-13.5778
▁convertible	-13.5778
▁unprejudiced	-13.5778
▁yolks	-13.5778
▁starvation	-13.5778
▁amazement	-13.5778
▁basque	-13.5778
▁perseverance	-13.5778
▁rummag	-13.5778
▁geology	-13.5778
▁hymn	-13.5778
▁kidnapping	-13.5778
▁surfboard	-13.5778
▁campsite	-13.5778
▁disability	-13.5778
▁famished	-13.5778
▁corps	-13.5778
▁newcomer	-13.5778
▁phase	-13.5778
▁shellfish	-13.5778
▁brazilian	-13.5778
▁tornado	-13.5778
▁juliet	-13.5778
▁grappl	-13.5778
▁terminated	-13.5778
▁disconcert	-13.5778
▁hydrant	-13.5778
▁patriotic	-13.5778
▁anchor	-13.5778
▁streak	-13.5778
▁recital	-13.5778
▁unambitious	-13.5778
▁glitter	-13.5778
▁spokesman	-13.5778
▁imminent	-13.5778
▁overcast	-13.5778
▁cobra	-13.5779
▁humidity	-13.5779
▁introduction	-13.5779
▁meadow	-13.5779
▁finland	-13.5779
▁pocketknife	-13.5779
▁inspiring	-13.5779
▁radioactive	-13.5779
▁hatchet	-13.5779
▁cider	-13.5779
▁drastically	-13.5779
▁resistance	-13.5779
▁hippopotamuses	-13.5779
▁shoebox	-13.5779
▁unattended	-13.5779
▁moaned	-13.5779
▁category	-13.5779
▁rematch	-13.5779
▁mahal	-13.5779
▁browser	-13.5779
▁pushups	-13.5779
▁astronomer	-13.5779
▁slander	-13.5779
▁sunbathing	-13.5779
▁sneakers	-13.5779
▁continuously	-13.5779
▁leadership	-13.5779
▁madrid	-13.5779
▁flask	-13.5779
▁apprehended	-13.5779
▁corporation	-13.5779
▁saddle	-13.5779
▁encyclopedia	-13.5779
▁humorous	-13.5779
▁abnormal	-13.578
▁logging	-13.578
▁lilies	-13.578
▁crab	-13.578
▁decode	-13.578
▁nagging	-13.578
▁humbling	-13.578
▁unsatisfied	-13.578
▁summoned	-13.578
▁random	-13.578
▁snowfall	-13.578
▁publishing	-13.578
▁powder	-13.578
▁lenses	-13.578
▁tux	-13.578
▁literally	-13.578
yea	-13.5781
▁shiny	-13.5781
▁biwa	-13.5781
▁profitable	-13.5781
▁stab	-13.5781
▁ultimately	-13.5781
▁detector	-13.5781
▁persever	-13.5781
▁stepbrother	-13.5781
▁shipping	-13.5781
▁frail	-13.5781
▁operator	-13.5781
▁trespassing	-13.5781
▁regulated	-13.5781
centered	-13.5781
▁abstain	-13.5782
▁restricted	-13.5782
▁crazier	-13.5782
▁trembling	-13.5782
▁disclosed	-13.5782
pical	-13.5782
▁clap	-13.5782
▁queue	-13.5782
▁bouncer	-13.5782
tial	-13.5782
▁paulo	-13.5782
▁viruses	-13.5782
▁accelerated	-13.5783
▁sadness	-13.5783
▁ransom	-13.5783
▁panicking	-13.5783
▁misery	-13.5783
▁undressing	-13.5783
▁straightened	-13.5784
▁subtract	-13.5784
▁contradiction	-13.5784
▁injustice	-13.5784
▁imprisoned	-13.5784
▁greenhouse	-13.5784
▁buddhism	-13.5785
▁grace	-13.5785
▁hairline	-13.5785
▁defect	-13.5785
▁tumor	-13.5785
▁vividly	-13.5786
▁disabled	-13.5786
▁embrace	-13.5786
▁extinguished	-13.5786
▁shivered	-13.5786
▁undressed	-13.5787
▁blogger	-13.5787
▁delud	-13.5787
▁recharged	-13.5787
▁initially	-13.5788
▁casually	-13.5788
▁roadside	-13.5789
▁condone	-13.5789
▁worsened	-13.579
▁embroider	-13.579
▁haiti	-13.579
▁inhaled	-13.579
▁inconvenient	-13.579
▁blender	-13.579
▁leash	-13.5791
▁qual	-13.5791
▁analyze	-13.5791
▁psycho	-13.5792
▁treehouse	-13.5793
▁overcooked	-13.5793
▁workshop	-13.5793
▁finaliz	-13.5793
▁flinch	-13.5794
▁hippie	-13.5794
▁explosives	-13.5794
▁uptight	-13.5794
▁pic	-13.5794
▁hijackers	-13.5794
▁misfortunes	-13.5794
▁spectators	-13.5794
▁qualifications	-13.5794
▁requirements	-13.5795
▁retreated	-13.5795
▁mosque	-13.5796
▁demolish	-13.5796
▁bounced	-13.5798
▁appreciative	-13.5798
▁likeable	-13.5799
▁limo	-13.5799
▁shipment	-13.5799
▁thicker	-13.5799
▁cpr	-13.58
▁cheerfully	-13.5801
▁geniuses	-13.5801
▁dryer	-13.5802
▁decreased	-13.5804
▁disappearing	-13.5804
▁decay	-13.5804
▁nerd	-13.5804
▁imply	-13.5804
▁offline	-13.5805
▁bunk	-13.5805
▁trifle	-13.5806
▁thorns	-13.5807
▁plaid	-13.5808
▁fluor	-13.5808
terminat	-13.5808
▁nodding	-13.5809
top	-13.581
▁crunch	-13.581
▁calf	-13.581
▁hitchhike	-13.5811
▁consumed	-13.5812
▁proofreading	-13.5813
▁civilized	-13.5813
▁wrestle	-13.5814
▁daylight	-13.5814
▁crank	-13.5814
▁hatched	-13.5814
talented	-13.5814
▁sympathized	-13.5816
▁awarded	-13.5816
▁blooming	-13.5816
▁handstand	-13.5817
▁maze	-13.5817
mpact	-13.5818
▁nutrition	-13.5818
▁analyst	-13.5819
▁scatter	-13.5819
▁paroled	-13.5821
▁zebras	-13.5822
▁coworkers	-13.5822
▁administrati	-13.5823
▁freight	-13.5824
▁pep	-13.5824
▁strive	-13.5826
▁alright	-13.5827
▁chained	-13.5827
▁judo	-13.5828
▁checkup	-13.5828
▁conducted	-13.5828
▁supporters	-13.5829
cule	-13.5831
▁latex	-13.5833
▁adams	-13.5834
▁healing	-13.5836
▁op	-13.5836
▁swi	-13.5836
▁diagnosis	-13.5843
▁realist	-13.5843
▁grams	-13.5844
▁carelessly	-13.5844
occasi	-13.5846
▁crosses	-13.5847
▁peep	-13.5847
plugged	-13.5849
▁electronics	-13.585
▁thunderstorms	-13.585
▁vampires	-13.585
▁snails	-13.585
▁startle	-13.585
▁firearms	-13.585
▁hermit	-13.5851
▁rays	-13.5853
▁deeds	-13.5855
▁stern	-13.5858
path	-13.5863
witted	-13.5864
star	-13.5864
▁grader	-13.5866
▁feathers	-13.5866
▁underestimat	-13.5866
stepp	-13.5867
▁combat	-13.587
▁lodge	-13.5872
▁insulated	-13.5875
▁hitch	-13.5876
▁sustained	-13.5877
▁features	-13.5878
▁implications	-13.5878
▁hiccups	-13.5879
▁shifted	-13.5881
▁rolling	-13.5887
▁purposely	-13.5887
▁snored	-13.589
▁spices	-13.5891
▁syn	-13.5895
▁confe	-13.59
▁investigated	-13.5901
▁bricks	-13.5903
▁marsh	-13.5904
▁calculations	-13.5906
▁snowballs	-13.5906
▁sunflowers	-13.5908
▁rap	-13.5908
▁kicking	-13.5909
aft	-13.5909
▁crashing	-13.5913
▁cuff	-13.5915
ature	-13.5919
▁shined	-13.592
▁scales	-13.5922
▁goodness	-13.5922
▁grin	-13.593
▁begg	-13.593
▁replying	-13.5933
▁peas	-13.5938
▁qui	-13.5942
▁guarded	-13.5943
▁limb	-13.5955
▁snooze	-13.5957
▁frankl	-13.5962
porter	-13.5963
▁aground	-13.5964
▁tiles	-13.5965
▁perspir	-13.5967
▁turnout	-13.5967
▁console	-13.5968
▁anthem	-13.597
▁marking	-13.5971
▁homemade	-13.5973
ade	-13.5974
▁rocky	-13.5974
▁cables	-13.5974
▁ticking	-13.5975
▁frames	-13.5975
▁guaranteed	-13.5975
▁schoolgirl	-13.5978
ovation	-13.5979
▁competitors	-13.5989
▁devices	-13.5989
▁correspond	-13.5989
▁trends	-13.5993
▁rebels	-13.5994
ba	-13.5997
fetched	-13.6001
dex	-13.6006
▁comply	-13.6007
▁fixes	-13.6016
▁migraines	-13.602
▁sneezes	-13.6021
▁accounting	-13.6025
▁prospects	-13.6025
ened	-13.6036
▁prisons	-13.6036
▁catcher	-13.605
▁hanger	-13.6052
▁gums	-13.6054
▁ox	-13.6055
▁cooker	-13.6057
▁abra	-13.606
▁doable	-13.6064
▁transmit	-13.6065
▁locket	-13.6068
▁apes	-13.6071
▁exhibits	-13.6075
iming	-13.6076
rview	-13.6077
agging	-13.6078
tle	-13.6079
ligible	-13.6087
▁wrapp	-13.6087
▁critics	-13.6102
▁deadly	-13.6103
▁outlook	-13.6104
▁petition	-13.6107
▁lag	-13.6122
▁resolutions	-13.6132
▁ri	-13.6133
▁towns	-13.6133
nine	-13.615
rimmed	-13.6153
▁mango	-13.6167
▁freely	-13.6169
▁ducks	-13.6173
▁residential	-13.6178
▁defi	-13.6184
icked	-13.6185
▁punches	-13.619
▁reforms	-13.6195
▁bas	-13.6195
▁fin	-13.6202
▁seasons	-13.6206
▁relent	-13.6207
▁asians	-13.621
▁county	-13.6214
▁canal	-13.6215
▁infections	-13.6215
▁paddle	-13.6218
▁wiggle	-13.6227
▁arts	-13.6235
▁companion	-13.6235
▁chi	-13.6236
▁litter	-13.6247
ut	-13.6253
▁hunters	-13.6257
▁spared	-13.6259
▁unsettl	-13.6273
dium	-13.6277
▁payments	-13.6278
▁lun	-13.6279
▁fuels	-13.6279
▁proves	-13.6285
▁crown	-13.6291
▁mic	-13.63
▁procedures	-13.6303
▁lever	-13.632
▁finals	-13.6323
ving	-13.6335
▁rod	-13.6346
▁reread	-13.6352
▁sightsee	-13.6354
three	-13.6359
▁sociologi	-13.6377
▁angels	-13.6379
▁gymnas	-13.6381
▁expressions	-13.6387
▁paged	-13.6387
warming	-13.639
▁reload	-13.6393
▁sites	-13.6409
▁tomboy	-13.6412
▁balloons	-13.6415
umbled	-13.6415
life	-13.6417
▁buck	-13.642
▁res	-13.643
▁favorites	-13.6432
▁wept	-13.645
▁perish	-13.6462
▁blanks	-13.6467
▁quarrels	-13.6471
▁investments	-13.6474
▁fre	-13.6478
▁cuter	-13.6481
▁pose	-13.6486
▁pad	-13.6486
agonize	-13.6495
▁tours	-13.6495
ckon	-13.6496
dered	-13.6503
fish	-13.6514
best	-13.6531
▁senses	-13.6534
stating	-13.6535
▁jars	-13.6541
os	-13.6554
▁bay	-13.6562
▁runners	-13.6562
pot	-13.6564
sitting	-13.6574
rk	-13.6576
ative	-13.6579
tious	-13.6579
▁millionaires	-13.6616
▁assert	-13.6621
▁chippe	-13.6631
▁libra	-13.6636
▁hers	-13.6641
licked	-13.6642
dated	-13.6648
▁cru	-13.6681
powered	-13.6694
ested	-13.6696
list	-13.67
▁expresse	-13.6705
▁flock	-13.6706
people	-13.6712
▁babysitt	-13.6716
▁dressing	-13.6717
food	-13.6717
nder	-13.6718
▁forth	-13.6729
ave	-13.6732
lf	-13.6742
rine	-13.6743
hopping	-13.6751
dies	-13.6767
dded	-13.6776
▁longing	-13.6782
im	-13.6786
▁discriminate	-13.6789
▁slit	-13.6796
look	-13.6803
died	-13.6823
▁oppos	-13.6847
▁rec	-13.6866
▁rake	-13.6876
▁beds	-13.6896
▁ponder	-13.6904
▁experiments	-13.6907
▁itching	-13.6917
▁ridicule	-13.6933
▁implie	-13.6939
val	-13.6942
▁rehearse	-13.6944
come	-13.6966
▁cub	-13.6978
▁reli	-13.6987
mped	-13.6992
▁lectures	-13.7
ization	-13.7003
▁mich	-13.7004
ckin	-13.7008
war	-13.7012
▁despis	-13.7021
teres	-13.7031
minent	-13.7035
▁illeg	-13.7038
▁essays	-13.7049
stalled	-13.7076
ament	-13.7081
▁inhal	-13.709
▁numbered	-13.709
▁poets	-13.7102
▁manufactur	-13.7112
nsils	-13.7122
ika	-13.7124
lease	-13.7126
▁desires	-13.7143
▁dancers	-13.7157
ns	-13.717
▁secretari	-13.7173
interested	-13.7179
▁radi	-13.7182
▁dep	-13.7201
hok	-13.7202
rent	-13.7224
cation	-13.7225
▁ea	-13.7226
asking	-13.7232
▁gaz	-13.7234
sister	-13.7239
em	-13.7239
▁scor	-13.7245
rected	-13.7245
▁smith	-13.7251
▁swarm	-13.7262
▁col	-13.7275
thetic	-13.7289
had	-13.7296
came	-13.7299
▁gul	-13.7322
▁scores	-13.7326
▁knot	-13.733
ried	-13.733
▁oversleep	-13.7335
▁fasting	-13.7375
ky	-13.7394
bated	-13.7397
▁rev	-13.7397
rich	-13.7416
cited	-13.7425
escent	-13.7428
▁boot	-13.7435
▁incidents	-13.7439
cent	-13.7441
still	-13.7443
killed	-13.7453
de	-13.7455
▁spear	-13.7459
atched	-13.7469
▁continual	-13.7471
tained	-13.7476
▁swu	-13.7487
▁examin	-13.7497
▁corpora	-13.7502
ana	-13.7507
certainly	-13.7528
death	-13.7531
▁caps	-13.7539
▁cleans	-13.7555
saw	-13.7565
▁hallucinat	-13.7602
▁ye	-13.7605
▁fights	-13.7607
person	-13.7628
▁rubbi	-13.7628
▁agreements	-13.7671
rage	-13.7674
phone	-13.7687
▁22.	-13.77
control	-13.7701
respect	-13.7707
▁operations	-13.7708
neither	-13.7709
injured	-13.7711
▁atoms	-13.7714
easily	-13.7726
itch	-13.773
gas	-13.7742
boston	-13.7755
book	-13.7764
grandmother	-13.7772
▁pleasures	-13.7772
cover	-13.7775
hing	-13.7785
ologist	-13.7786
native	-13.7794
lated	-13.7798
ayed	-13.7799
ckered	-13.7801
▁hop	-13.7808
▁drunke	-13.781
igned	-13.782
ag	-13.783
▁defian	-13.7844
got	-13.7849
ways	-13.785
▁gal	-13.785
▁virtual	-13.7851
▁mos	-13.7856
bedroom	-13.7857
▁chip	-13.7858
ceased	-13.7864
grateful	-13.7865
▁scenes	-13.7866
▁produc	-13.7875
distance	-13.788
▁minorit	-13.7884
igible	-13.7886
deep	-13.7889
inter	-13.7922
core	-13.7929
clutter	-13.7935
thanks	-13.7935
▁cor	-13.7946
▁smarte	-13.7949
▁airs	-13.795
security	-13.7965
skate	-13.7996
▁mob	-13.7997
axed	-13.7998
loving	-13.7999
win	-13.8001
educated	-13.8003
jar	-13.8006
▁hatch	-13.801
▁bra	-13.8011
regarded	-13.8018
rity	-13.8019
ai	-13.8024
boys	-13.8028
▁recycl	-13.8032
duct	-13.8032
really	-13.8032
cuba	-13.8039
faithful	-13.804
▁skeptic	-13.804
▁pal	-13.804
▁sneake	-13.8066
▁repetiti	-13.8079
sed	-13.8084
▁stat	-13.8101
discreet	-13.8101
▁fu	-13.8104
▁duet	-13.8105
ere	-13.8108
▁lakes	-13.8115
▁shiver	-13.8118
smith	-13.8121
▁cardiologist	-13.8129
art	-13.8132
▁economist	-13.8134
high	-13.8136
▁hiccup	-13.8141
▁crocodile	-13.8142
▁misprint	-13.8142
▁revenue	-13.8142
divided	-13.8145
▁shrine	-13.8145
▁interruption	-13.8146
▁burger	-13.8146
▁miniskirt	-13.8148
▁kangaroo	-13.8148
▁implication	-13.8151
▁feature	-13.8152
▁fiber	-13.8153
▁kilometer	-13.8155
▁ingredient	-13.8155
▁measurement	-13.8156
▁cucumber	-13.8156
▁cupcake	-13.8157
▁obstacle	-13.8157
▁immigrant	-13.8158
▁wagon	-13.8159
▁reference	-13.816
▁websites	-13.8165
ough	-13.8166
held	-13.8167
pin	-13.8169
bs	-13.817
vol	-13.8171
udged	-13.8178
▁container	-13.818
▁atheist	-13.818
▁feather	-13.8181
▁blossom	-13.819
ending	-13.8191
▁siren	-13.8197
▁scorpio	-13.8206
▁pronounc	-13.8207
▁experienc	-13.8208
▁giggl	-13.8219
peak	-13.8219
▁jew	-13.8224
▁approv	-13.8228
▁persuad	-13.8231
▁cycle	-13.8242
tched	-13.8243
eek	-13.8245
▁sabotage	-13.825
rench	-13.825
▁strangle	-13.8254
▁prejudice	-13.8254
▁fascinate	-13.8254
▁exhaust	-13.8257
▁complicate	-13.8258
▁strip	-13.8259
▁rattle	-13.8261
▁entertain	-13.8263
▁extinguish	-13.8265
▁villa	-13.8266
▁monitor	-13.8267
▁appoint	-13.8267
▁cramp	-13.8267
▁bounce	-13.8269
▁prohibit	-13.827
▁grouch	-13.8272
▁recogni	-13.8274
▁abrupt	-13.8275
own	-13.8275
▁ultimate	-13.8275
▁appetiz	-13.8276
▁shorthand	-13.8276
▁phenomen	-13.8277
craft	-13.8278
▁grandchild	-13.8278
▁traumati	-13.8278
▁tyrann	-13.8278
▁accuracy	-13.8278
▁aerobics	-13.8278
▁aggravat	-13.8278
▁allegedly	-13.8278
▁alligator	-13.8278
▁ambiguous	-13.8278
▁anorexic	-13.8278
▁antarctic	-13.8278
▁biscuit	-13.8278
▁bourbon	-13.8278
▁burrito	-13.8278
▁catastrophe	-13.8278
▁catastrophic	-13.8278
▁celebrities	-13.8278
▁centuries	-13.8278
▁chemotherapy	-13.8278
▁cinnamon	-13.8278
▁coconut	-13.8278
▁column	-13.8278
▁complacent	-13.8278
▁condolence	-13.8278
▁cuisine	-13.8278
▁deputy	-13.8278
▁destructive	-13.8278
▁detergent	-13.8278
▁disgruntled	-13.8278
▁distribution	-13.8278
▁earplugs	-13.8278
▁emperor	-13.8278
▁epidemic	-13.8278
▁equator	-13.8278
▁exuberant	-13.8278
▁flabbergasted	-13.8278
▁florence	-13.8278
▁fragments	-13.8278
▁frisbee	-13.8278
▁geneva	-13.8278
▁granola	-13.8278
▁guinness	-13.8278
▁gunpowder	-13.8278
▁honolulu	-13.8278
▁immaculate	-13.8278
▁incorr	-13.8278
▁indisputable	-13.8278
▁invasion	-13.8278
▁janeiro	-13.8278
▁javascript	-13.8278
▁karuizawa	-13.8278
▁kerosene	-13.8278
▁lavatory	-13.8278
▁lieutenant	-13.8278
▁loneliness	-13.8278
▁ludicrous	-13.8278
▁malarkey	-13.8278
▁mandarin	-13.8278
▁marijuana	-13.8278
▁massacre	-13.8278
▁metaphor	-13.8278
▁militia	-13.8278
▁moustache	-13.8278
▁muttering	-13.8278
▁nintendo	-13.8278
▁nostalgic	-13.8278
▁obstruct	-13.8278
▁oxford	-13.8278
▁pediatric	-13.8278
▁pedicure	-13.8278
▁penicillin	-13.8278
▁pioneer	-13.8278
▁podcast	-13.8278
▁pompous	-13.8278
▁prioritize	-13.8278
▁procrastinating	-13.8278
▁raffle	-13.8278
▁rambling	-13.8278
▁resuscitat	-13.8278
▁scrawny	-13.8278
▁sergeant	-13.8278
▁siberia	-13.8278
▁significance	-13.8278
▁simultaneous	-13.8278
▁sniffed	-13.8278
▁snorkel	-13.8278
▁stradivarius	-13.8278
▁subscription	-13.8278
▁suffocat	-13.8278
▁syria	-13.8278
▁unbuckle	-13.8278
▁unstoppable	-13.8278
▁vinegar	-13.8278
▁volatile	-13.8278
▁waltz	-13.8278
▁lizard	-13.8278
▁province	-13.8278
▁rattlesnake	-13.8278
▁threshold	-13.8278
▁beehive	-13.8278
▁colonies	-13.8278
▁dictator	-13.8278
▁florist	-13.8278
▁irregular	-13.8278
▁squealed	-13.8278
▁toddler	-13.8278
▁traumatized	-13.8278
▁akita	-13.8278
▁clutch	-13.8278
▁salaries	-13.8278
▁seashore	-13.8278
▁colonel	-13.8278
▁delightful	-13.8278
▁cocoa	-13.8278
▁coherent	-13.8278
▁desperation	-13.8278
▁gourmet	-13.8278
▁immigration	-13.8278
▁micro	-13.8278
▁outnumbered	-13.8278
▁punctuation	-13.8278
▁sweden	-13.8278
▁contemptible	-13.8278
▁exclusive	-13.8278
▁forklift	-13.8278
▁jackpot	-13.8278
▁cleanliness	-13.8278
▁graveyard	-13.8278
▁impostor	-13.8278
▁resemblance	-13.8278
▁shoreline	-13.8278
▁friction	-13.8278
▁moderation	-13.8278
▁stamina	-13.8278
▁fingertip	-13.8278
▁capsized	-13.8278
▁inclination	-13.8278
▁ohio	-13.8278
▁jewish	-13.8278
▁stylish	-13.8278
▁sculpture	-13.8278
▁unconvincing	-13.8278
▁curveball	-13.8278
▁radiation	-13.8278
▁candlestick	-13.8278
▁disney	-13.8278
▁appreciation	-13.8278
▁refined	-13.8278
▁campground	-13.8278
▁altitude	-13.8278
▁cultivate	-13.8278
▁nickel	-13.8278
▁syllable	-13.8278
▁cloning	-13.8278
▁dissolve	-13.8278
▁racism	-13.8278
▁alaska	-13.8278
▁baggy	-13.8278
▁eyelid	-13.8278
▁holland	-13.8278
▁savage	-13.8278
▁lucid	-13.8278
▁ethical	-13.8279
valent	-13.8279
▁fourteen	-13.8279
▁salesgirl	-13.8279
▁dusk	-13.8279
▁feud	-13.8279
▁unapproachable	-13.8279
▁confrontation	-13.8279
▁decoration	-13.8279
▁daunting	-13.8279
▁quaker	-13.8279
▁advisable	-13.8279
▁bodybuilder	-13.8279
▁installation	-13.8279
▁enterprising	-13.8279
▁nineties	-13.8279
▁chick	-13.8279
▁spooky	-13.8279
▁diagram	-13.8279
▁swans	-13.8279
▁leverage	-13.8279
▁diesel	-13.8279
▁unintelligent	-13.8279
▁teetotal	-13.8279
▁conspiracy	-13.8279
▁frantically	-13.8279
▁escalator	-13.8279
▁symphony	-13.8279
▁analogy	-13.8279
▁pedal	-13.8279
▁eggplant	-13.8279
▁meaningful	-13.8279
▁emergenc	-13.8279
▁sucker	-13.8279
▁wildlife	-13.8279
▁indicted	-13.828
▁inspection	-13.828
▁landline	-13.828
jointed	-13.828
▁spaceship	-13.828
▁lawsuit	-13.828
▁mumps	-13.828
▁preschool	-13.828
▁chapped	-13.828
▁friendlier	-13.828
▁inflammat	-13.828
▁dioxide	-13.828
▁horribly	-13.828
▁hardships	-13.828
▁unwise	-13.828
▁plowing	-13.828
▁shaky	-13.828
▁viewpoint	-13.828
▁swelling	-13.828
▁hairbrush	-13.8281
▁sexist	-13.8281
▁negotiating	-13.8281
▁dipper	-13.8281
▁foolishness	-13.8281
▁gagged	-13.8281
▁courthouse	-13.8281
▁widened	-13.8281
▁martini	-13.8281
▁birthrate	-13.8281
▁advisor	-13.8281
▁envied	-13.8281
▁relate	-13.8281
▁alumin	-13.8281
▁encore	-13.8281
▁admirable	-13.8281
▁odor	-13.8281
▁abruptly	-13.8282
▁newsworthy	-13.8282
▁uninvited	-13.8282
▁keyhole	-13.8282
▁overqualified	-13.8282
▁quibble	-13.8282
▁shredded	-13.8282
▁refusal	-13.8282
▁proposing	-13.8282
▁distributed	-13.8282
▁supervising	-13.8282
▁nursing	-13.8282
▁stifle	-13.8283
▁peck	-13.8283
▁bmw	-13.8283
▁dehydrated	-13.8283
▁condemned	-13.8283
▁shameless	-13.8283
▁downstream	-13.8283
▁volcanoes	-13.8283
▁rainfall	-13.8283
▁endanger	-13.8283
▁futon	-13.8283
▁limitless	-13.8284
▁widower	-13.8284
derate	-13.8284
▁maria	-13.8284
▁roared	-13.8284
▁goatee	-13.8284
▁venice	-13.8284
▁patronizing	-13.8284
▁tryouts	-13.8285
▁pluto	-13.8285
▁restore	-13.8285
▁texan	-13.8285
passing	-13.8285
▁meddle	-13.8285
▁idiotic	-13.8285
▁deliberating	-13.8285
▁truman	-13.8286
▁extroverted	-13.8286
▁sponge	-13.8287
▁paved	-13.8288
▁panels	-13.8288
▁tasteless	-13.8289
▁brook	-13.8289
▁feast	-13.8289
▁villain	-13.829
▁regrettable	-13.829
▁expressway	-13.829
▁bolted	-13.829
▁recycling	-13.8291
▁rhythm	-13.8291
▁ineffective	-13.8291
▁carpool	-13.8291
▁reef	-13.8292
▁magical	-13.8292
▁twig	-13.8292
▁abdom	-13.8292
▁knockout	-13.8292
▁crazie	-13.8293
▁counseling	-13.8293
▁clogs	-13.8293
▁bumper	-13.8293
▁mangoes	-13.8293
▁banner	-13.8294
▁pricing	-13.8294
▁athens	-13.8295
▁insensitive	-13.8295
▁pollute	-13.8296
sippi	-13.8296
▁carols	-13.8296
▁cordial	-13.8296
▁eraser	-13.8296
▁nests	-13.8297
▁warranty	-13.8297
▁almonds	-13.8297
▁overhearing	-13.8297
▁basin	-13.8299
▁airlines	-13.8299
▁considerably	-13.8299
▁instructed	-13.8299
▁moistur	-13.8299
ecutive	-13.8299
▁substances	-13.8299
▁videogames	-13.83
▁spray	-13.8302
▁squeak	-13.8303
▁selection	-13.8303
▁businessmen	-13.8303
▁sweetest	-13.8303
▁strangled	-13.8304
labber	-13.8305
▁restored	-13.8305
▁subsid	-13.8305
▁retail	-13.8306
▁voters	-13.8306
▁sax	-13.8306
▁smirk	-13.8307
▁rewarding	-13.8307
▁complement	-13.8309
▁violently	-13.831
▁redecorate	-13.831
▁orient	-13.831
▁salute	-13.8311
▁q	-13.8313
▁distinguished	-13.8313
▁averted	-13.8314
▁falsely	-13.8316
▁newsstand	-13.8317
▁quot	-13.8318
handedly	-13.8319
▁luis	-13.832
▁assess	-13.8322
▁respectable	-13.8323
000	-13.8323
▁initiati	-13.8324
▁reputable	-13.8326
▁proportion	-13.8327
▁scowl	-13.8327
▁scotch	-13.8328
▁nineteen	-13.8328
should	-13.833
▁disconnect	-13.8333
▁complications	-13.8335
▁protesting	-13.8335
▁cpa	-13.8339
▁truthfully	-13.8339
▁rental	-13.8339
▁branded	-13.834
▁lumber	-13.834
oh	-13.8343
▁resident	-13.8344
arius	-13.8344
▁faking	-13.8344
▁alerted	-13.8346
▁doomed	-13.8348
▁benches	-13.8349
▁stripes	-13.8349
▁rescheduled	-13.8351
▁visual	-13.8352
▁aspects	-13.8354
▁medium	-13.8354
▁cork	-13.8355
▁dozing	-13.8359
aper	-13.8364
▁inquire	-13.8364
▁unjust	-13.8367
▁vices	-13.8367
▁drunkard	-13.8368
▁rituals	-13.837
▁shaker	-13.837
▁youngsters	-13.8372
jack	-13.8373
uckle	-13.8375
▁ammo	-13.8377
▁hayes	-13.8378
▁fil	-13.8379
▁convict	-13.8379
▁experimenting	-13.8383
▁hustle	-13.8386
▁weirder	-13.8388
port	-13.8389
aves	-13.8391
▁ko	-13.8395
▁remarkabl	-13.8395
▁wilder	-13.8396
aced	-13.8396
ism	-13.8397
▁blade	-13.8398
▁needy	-13.8399
▁domain	-13.84
▁shyly	-13.8406
▁skydive	-13.8406
▁clamp	-13.8408
▁kangaroos	-13.841
▁containers	-13.841
▁miniskirts	-13.841
▁negligent	-13.8421
▁shivers	-13.8422
rang	-13.8423
kling	-13.8426
▁charter	-13.843
▁bolts	-13.843
▁mowed	-13.8435
stream	-13.8438
▁receiver	-13.8439
▁spark	-13.844
new	-13.844
▁bombing	-13.8442
tiles	-13.8443
▁bonds	-13.8443
▁tamper	-13.8447
▁pedestrians	-13.8447
▁hives	-13.8453
▁melons	-13.8454
oline	-13.8459
▁plums	-13.8464
▁jumpy	-13.8469
rassment	-13.847
siege	-13.8471
▁atlanti	-13.8472
▁employers	-13.8475
hower	-13.8477
▁mal	-13.848
▁cheerleaders	-13.8484
▁spank	-13.8491
▁scott	-13.8505
▁takeoff	-13.8507
▁rejoi	-13.8508
▁trainee	-13.8514
▁bamb	-13.8514
▁ached	-13.8516
▁rib	-13.8518
emaker	-13.852
▁cherish	-13.8521
▁bombed	-13.8523
appropriately	-13.8526
▁arson	-13.8527
▁marines	-13.8528
▁skim	-13.8539
▁ivy	-13.8541
wise	-13.8547
▁wonderfully	-13.8553
▁attackers	-13.8553
30,000	-13.8554
▁canyon	-13.8555
▁shadows	-13.8557
nighter	-13.8557
▁senators	-13.8559
▁giraffes	-13.8559
lord	-13.8565
sanity	-13.8567
▁letdown	-13.857
▁researcher	-13.8573
▁info	-13.8576
▁bri	-13.8582
▁flee	-13.8582
last	-13.8585
▁burp	-13.8586
educti	-13.8588
▁progressed	-13.8592
▁frenchman	-13.8593
▁primar	-13.8593
▁quitter	-13.8597
▁overstate	-13.8601
▁yo	-13.8619
▁farming	-13.8621
▁champions	-13.8628
inium	-13.8632
▁sam	-13.8634
ious	-13.8636
▁judges	-13.8645
ening	-13.8648
aries	-13.8654
iness	-13.8656
ess	-13.8657
▁quoted	-13.8659
▁avenge	-13.8668
▁departs	-13.8674
▁controll	-13.8674
▁compromised	-13.8674
▁steer	-13.8679
▁crus	-13.8679
▁reminding	-13.8682
▁bleach	-13.8682
▁christians	-13.869
▁spouses	-13.8697
▁origins	-13.8698
▁kittens	-13.87
▁bulbs	-13.8701
▁reviews	-13.8705
▁squir	-13.8708
▁executives	-13.8708
▁fridays	-13.8712
▁manipulat	-13.8714
▁slaughter	-13.8714
▁freeway	-13.8715
▁thi	-13.8715
ami	-13.872
▁poop	-13.8738
▁bend	-13.8742
give	-13.8744
▁mac	-13.8747
▁buyers	-13.8747
▁tofu	-13.8748
▁circulat	-13.8752
▁overreact	-13.8758
▁fe	-13.8761
▁swallows	-13.8767
gle	-13.8769
▁mock	-13.8778
▁nearer	-13.8779
▁links	-13.8781
ost	-13.8791
▁renting	-13.8803
▁inbox	-13.8808
▁nep	-13.8808
ab	-13.8809
▁abomina	-13.8815
missions	-13.8822
▁morals	-13.8823
▁supervisi	-13.8829
ounty	-13.8834
▁speculat	-13.8838
logged	-13.884
lut	-13.8844
▁paw	-13.8844
▁pit	-13.8849
▁optimists	-13.885
stop	-13.8853
▁cape	-13.8854
▁restrooms	-13.8857
allows	-13.8858
mologist	-13.8862
▁regions	-13.8872
▁evaporate	-13.8872
severance	-13.8881
▁mp	-13.8884
▁uni	-13.8894
▁shortages	-13.8898
ten	-13.8917
maniac	-13.8921
▁originate	-13.893
▁souls	-13.8939
▁tons	-13.8958
keep	-13.896
▁paste	-13.8961
▁3.	-13.8971
▁cooled	-13.8978
▁gardeners	-13.898
▁bandages	-13.8989
▁marina	-13.8996
▁raid	-13.9006
▁probable	-13.9007
▁compact	-13.9017
▁overdo	-13.9019
▁hens	-13.902
▁spa	-13.9024
▁biker	-13.9025
▁accompani	-13.903
▁ref	-13.9033
▁chains	-13.9034
▁weddings	-13.9038
ics	-13.9051
▁erupt	-13.9055
▁winters	-13.9057
ugging	-13.9058
hou	-13.9059
nze	-13.9064
▁spli	-13.9078
aked	-13.9089
med	-13.9118
▁tags	-13.9123
▁daytime	-13.9128
▁continu	-13.9137
▁colorful	-13.9142
izes	-13.9147
▁abs	-13.9154
▁luna	-13.9156
▁inventions	-13.9156
ailed	-13.9157
▁dries	-13.9161
32	-13.9164
ex	-13.9165
▁cle	-13.9168
▁aunts	-13.9169
▁coop	-13.917
shi	-13.9171
▁drifte	-13.9173
ended	-13.9179
▁worm	-13.9191
▁cam	-13.9196
hit	-13.9202
▁lac	-13.9212
▁clues	-13.9213
▁hating	-13.9219
▁arise	-13.9237
▁metals	-13.9243
ome	-13.9244
▁powers	-13.9256
scene	-13.9276
ial	-13.9287
▁extract	-13.9293
dling	-13.9294
▁freaks	-13.9296
other	-13.932
▁logs	-13.9326
▁practic	-13.933
ties	-13.9348
▁homeschool	-13.9351
isn	-13.9354
ture	-13.9355
tric	-13.9362
ears	-13.9376
nsistent	-13.9388
▁hog	-13.9401
▁token	-13.9406
▁seller	-13.9409
ale	-13.9411
▁alcoholics	-13.9418
▁honors	-13.9423
▁hotte	-13.9428
▁bled	-13.9444
▁weep	-13.9461
make	-13.9462
▁boyfriends	-13.9475
▁washe	-13.9477
▁curs	-13.9484
▁hurrying	-13.9492
▁nav	-13.9498
lot	-13.9498
▁sled	-13.9499
▁shells	-13.9499
yen	-13.9503
▁fishy	-13.9518
ipping	-13.9521
▁improvise	-13.9526
▁sor	-13.953
▁squi	-13.9537
▁sl	-13.9543
▁linen	-13.9554
met	-13.9566
▁receipts	-13.9568
trained	-13.9575
▁pap	-13.9584
▁ankles	-13.9585
ck	-13.9587
ol	-13.9587
well	-13.9607
▁bands	-13.961
▁anime	-13.9614
▁compile	-13.964
▁ret	-13.9664
▁mumble	-13.9666
▁unwrap	-13.9679
▁kilt	-13.9679
lived	-13.9686
round	-13.9706
tracked	-13.9706
log	-13.9721
days	-13.9746
▁disasters	-13.9756
▁courses	-13.9773
▁apartments	-13.9774
lin	-13.9781
▁hips	-13.9784
▁picnics	-13.9797
▁glances	-13.9826
ys	-13.9827
▁adapte	-13.983
lie	-13.9831
▁sle	-13.9852
called	-13.9855
▁projects	-13.9862
▁rust	-13.9889
▁hoot	-13.9898
▁sno	-13.9917
ched	-13.9918
gical	-13.9925
pounded	-13.994
tter	-13.995
disposed	-13.997
▁throats	-13.9974
sex	-13.9983
▁blo	-13.9983
▁governments	-13.999
▁prun	-13.9993
▁pl	-13.9994
▁dispose	-14.0006
▁trades	-14.0025
▁goodbyes	-14.0027
▁sen	-14.0028
▁belch	-14.0029
tale	-14.0044
▁z	-14.0047
▁treatments	-14.006
cut	-14.0062
izer	-14.0071
▁backfire	-14.0082
▁workout	-14.0087
▁qu	-14.0105
ella	-14.0108
io	-14.0123
row	-14.0135
ron	-14.0138
gallons	-14.0143
were	-14.0145
▁fats	-14.0146
step	-14.0147
▁latch	-14.0148
ny	-14.0149
ese	-14.0156
conditioned	-14.0181
ease	-14.0188
▁cur	-14.019
light	-14.0227
uck	-14.0232
▁witnesse	-14.0235
▁unsol	-14.0235
▁homes	-14.0236
▁goner	-14.0255
different	-14.0257
izing	-14.0257
▁deb	-14.0259
▁squeez	-14.0266
aki	-14.0284
▁masters	-14.0287
ast	-14.0306
▁barbe	-14.0328
something	-14.0336
through	-14.0363
▁stimulate	-14.0395
face	-14.0397
▁dement	-14.0411
▁bon	-14.0434
gging	-14.0443
▁catche	-14.0453
▁unc	-14.0455
country	-14.0457
▁minu	-14.0474
cile	-14.048
▁attain	-14.0481
▁emphasize	-14.0487
woman	-14.0489
▁diver	-14.0505
pong	-14.0505
graph	-14.054
tible	-14.0542
born	-14.0543
oc	-14.055
rest	-14.0557
▁crum	-14.056
ick	-14.0564
revi	-14.0576
▁sel	-14.0579
▁cells	-14.0582
iding	-14.0589
bag	-14.0592
lic	-14.0599
▁toes	-14.0615
ught	-14.0617
▁gymnast	-14.0618
been	-14.0625
opened	-14.0632
▁inca	-14.0644
▁renovate	-14.068
ula	-14.0689
check	-14.0697
ach	-14.0714
▁tucke	-14.0723
▁layer	-14.0728
▁insure	-14.0747
bar	-14.0747
ustling	-14.075
ania	-14.0766
annibal	-14.0768
pan	-14.0769
figure	-14.0784
▁nutt	-14.0786
gone	-14.0795
certain	-14.0795
trusted	-14.0796
▁weaken	-14.0799
▁elder	-14.0803
▁classy	-14.0809
guided	-14.0814
▁prep	-14.0828
▁gods	-14.0829
nter	-14.0836
▁aims	-14.0843
smarte	-14.0859
informed	-14.0861
table	-14.087
ssing	-14.088
case	-14.089
ez	-14.0896
gue	-14.0906
ear	-14.0907
▁possess	-14.0908
iful	-14.0916
terred	-14.0916
▁cruis	-14.093
ists	-14.0931
▁drumme	-14.0931
▁hagg	-14.0935
▁toilets	-14.0942
▁knitt	-14.0949
▁battles	-14.095
ging	-14.0956
ken	-14.0977
abb	-14.0977
▁swimmers	-14.0978
▁dais	-14.098
▁escapes	-14.0985
sk	-14.0986
▁edo	-14.0991
kick	-14.0993
spoken	-14.0998
behaved	-14.0999
shop	-14.1
built	-14.1033
see	-14.1035
li	-14.1038
iable	-14.104
▁bla	-14.1043
gi	-14.1048
power	-14.105
mposed	-14.106
od	-14.1063
▁mugg	-14.1063
field	-14.1071
boat	-14.1072
bird	-14.1075
▁capitals	-14.1079
ometer	-14.108
▁overthink	-14.1105
▁cramm	-14.1106
brush	-14.1107
▁insufficient	-14.1108
▁beast	-14.1111
taught	-14.112
parked	-14.1124
mple	-14.1128
▁mold	-14.1129
action	-14.1188
▁springs	-14.1189
ars	-14.1191
professional	-14.1192
▁bio	-14.1198
holding	-14.12
▁lea	-14.1218
owner	-14.1219
▁ash	-14.122
▁extrem	-14.122
▁bikes	-14.1225
chief	-14.1231
click	-14.1232
date	-14.1237
style	-14.1239
witness	-14.1243
opportun	-14.1247
▁illuminat	-14.1269
▁acknowledg	-14.1272
▁brewe	-14.1275
crossed	-14.1277
gan	-14.1277
rawl	-14.128
▁cherishe	-14.1285
degree	-14.1285
▁disc	-14.1286
tempered	-14.1286
wide	-14.1287
real	-14.1287
grown	-14.1293
wa	-14.1294
tune	-14.1294
seller	-14.1298
fiction	-14.1306
alcoholic	-14.1307
millionaire	-14.1308
thirties	-14.1309
shooter	-14.1309
wheel	-14.1312
collection	-14.1315
reported	-14.1318
gus	-14.1325
cooperative	-14.1326
songwriter	-14.1329
collar	-14.1333
quoted	-14.1336
ruff	-14.1338
bump	-14.134
ban	-14.1344
dish	-14.1344
pronounce	-14.1349
▁sn	-14.1349
fitting	-14.1353
▁poach	-14.1358
cking	-14.1365
base	-14.1366
wax	-14.1369
▁rabbi	-14.138
apart	-14.1387
▁mugge	-14.1391
▁interrogati	-14.1398
heart	-14.1398
paw	-14.14
▁div	-14.1401
▁lib	-14.1405
oul	-14.1411
▁activat	-14.1414
logist	-14.1419
eodor	-14.142
tude	-14.1424
▁await	-14.1425
▁terroris	-14.1425
wind	-14.1431
icle	-14.1434
uff	-14.1438
ading	-14.1443
mitted	-14.145
ranged	-14.1455
▁groan	-14.1462
▁seagull	-14.1463
▁endeavor	-14.1463
refund	-14.1466
▁portion	-14.1468
▁bikini	-14.1476
▁puppet	-14.1477
▁pickpocket	-14.1477
ntries	-14.1479
og	-14.1484
▁vampire	-14.1484
▁electronic	-14.1484
▁thunderstorm	-14.1485
▁neighbour	-14.1485
▁ritual	-14.1485
▁wonders	-14.1486
▁snowflake	-14.1486
▁penguin	-14.1486
▁dinosaur	-14.149
▁muslim	-14.1491
▁applicant	-14.1491
poster	-14.1494
▁snail	-14.1495
▁kilo	-14.1496
▁firearm	-14.1497
▁youngster	-14.1498
▁stripe	-14.1499
▁surrounding	-14.15
▁postpon	-14.1502
ft	-14.1504
▁sleepless	-14.1524
hill	-14.1524
drops	-14.1525
▁fut	-14.1525
doesn	-14.1526
▁bubbl	-14.153
▁collector	-14.1533
ragging	-14.1536
▁script	-14.1541
tologist	-14.1549
atic	-14.1551
ette	-14.1554
▁futur	-14.1559
▁aquariu	-14.156
▁unl	-14.1561
▁calcul	-14.1564
need	-14.1564
▁thr	-14.1565
pick	-14.1566
ware	-14.1571
▁declar	-14.1573
orked	-14.1579
▁fatigue	-14.1581
▁engage	-14.1583
▁unbearabl	-14.1584
▁exemp	-14.1585
▁furnish	-14.1588
▁desir	-14.1589
▁choke	-14.159
▁remodel	-14.1592
▁surround	-14.1594
▁occupie	-14.1595
▁enthusiast	-14.1596
▁climber	-14.1598
▁extrovert	-14.1601
▁undress	-14.1601
▁abolish	-14.1601
▁acquaint	-14.1602
▁establish	-14.1602
▁reject	-14.1602
▁twirl	-14.1603
ub	-14.1603
▁windsurf	-14.1603
▁spoils	-14.1603
▁practi	-14.1603
▁unload	-14.1603
▁distress	-14.1604
▁quantit	-14.1605
▁sprinkle	-14.1605
▁imprison	-14.1607
▁pierc	-14.1607
▁patroniz	-14.1609
▁conclude	-14.1609
▁paul	-14.1609
▁polk	-14.1609
▁apologetic	-14.1611
▁twinkle	-14.1611
turbed	-14.1611
▁christ	-14.1611
▁automatic	-14.1611
▁charisma	-14.1611
▁aristocra	-14.1611
dynamic	-14.1611
anesthesiologist	-14.1611
consuming	-14.1611
depressants	-14.1611
focals	-14.1611
fragmented	-14.1611
tatoeba	-14.1611
▁achievable	-14.1611
▁acrobat	-14.1611
▁algebra	-14.1611
▁alumnus	-14.1611
▁ambiguit	-14.1611
▁archaic	-14.1611
▁archeology	-14.1611
▁arthritis	-14.1611
▁barbarian	-14.1611
▁barbaric	-14.1611
▁barcelona	-14.1611
▁camouflage	-14.1611
▁cauliflower	-14.1611
▁chauvinist	-14.1611
▁cheetah	-14.1611
▁chiropractor	-14.1611
▁cinderella	-14.1611
▁civic	-14.1611
▁conspicuous	-14.1611
▁coordination	-14.1611
▁corkscrew	-14.1611
▁cosmetic	-14.1611
▁coyotes	-14.1611
▁cuckoo	-14.1611
▁cushion	-14.1611
▁custodian	-14.1611
▁cyclist	-14.1611
▁deactivate	-14.1611
▁deceitful	-14.1611
▁declining	-14.1611
▁delicacy	-14.1611
▁density	-14.1611
▁destruction	-14.1611
▁disillusioned	-14.1611
▁dyslexic	-14.1611
▁electrocut	-14.1611
▁elitist	-14.1611
▁embezzle	-14.1611
▁empathy	-14.1611
▁evaluate	-14.1611
▁evaluation	-14.1611
▁eyepatch	-14.1611
▁feminine	-14.1611
▁ferocious	-14.1611
▁fertilizer	-14.1611
▁fiasco	-14.1611
▁generosity	-14.1611
▁glaciers	-14.1611
▁harajuku	-14.1611
▁harpsichord	-14.1611
▁honshu	-14.1611
▁hypothermia	-14.1611
▁intruding	-14.1611
▁irritable	-14.1611
▁istanbul	-14.1611
▁jeopardize	-14.1611
▁juvenile	-14.1611
▁kleenex	-14.1611
▁kuwait	-14.1611
▁lavender	-14.1611
▁licorice	-14.1611
▁linux	-14.1611
▁malaria	-14.1611
▁margarita	-14.1611
▁marmalade	-14.1611
▁masculine	-14.1611
▁massachusetts	-14.1611
▁matsuyama	-14.1611
▁mediterranean	-14.1611
▁microsoft	-14.1611
▁miraculous	-14.1611
▁montgomery	-14.1611
▁multilingual	-14.1611
▁nagasaki	-14.1611
▁oklahoma	-14.1611
▁orchids	-14.1611
▁overdramatic	-14.1611
▁painkiller	-14.1611
▁pelican	-14.1611
▁penmanship	-14.1611
▁perception	-14.1611
▁pertinent	-14.1611
▁pheasant	-14.1611
▁pizzeria	-14.1611
▁plaintiff	-14.1611
▁pomegranate	-14.1611
▁potassium	-14.1611
▁poultry	-14.1611
▁pragmatic	-14.1611
▁presumptuous	-14.1611
▁redundant	-14.1611
▁reggae	-14.1611
▁reservoir	-14.1611
▁rheumat	-14.1611
▁samurai	-14.1611
▁sarcasm	-14.1611
▁scenario	-14.1611
▁schnapps	-14.1611
▁scoffed	-14.1611
▁semicolon	-14.1611
▁serbia	-14.1611
▁shibuya	-14.1611
▁shikoku	-14.1611
▁sideburns	-14.1611
▁skyscraper	-14.1611
▁sponsor	-14.1611
▁steroids	-14.1611
▁strenuous	-14.1611
▁subordinate	-14.1611
▁sukiyaki	-14.1611
▁sympathies	-14.1611
▁synchronize	-14.1611
▁tantrum	-14.1611
▁technician	-14.1611
▁telegraph	-14.1611
▁tempura	-14.1611
▁territories	-14.1611
▁tranquilizer	-14.1611
▁triumph	-14.1611
▁trophies	-14.1611
▁tsunami	-14.1611
▁turbulen	-14.1611
▁umpire	-14.1611
▁unmanageable	-14.1611
▁uranus	-14.1611
▁vacancy	-14.1611
▁vaccinated	-14.1611
▁vaccination	-14.1611
▁wheelbarrow	-14.1611
▁wikipedia	-14.1611
▁wizard	-14.1611
▁zucchini	-14.1611
▁asparagus	-14.1611
▁atrocious	-14.1611
▁communism	-14.1611
▁encrypt	-14.1611
▁giddy	-14.1611
▁lavish	-14.1611
▁mantelpiece	-14.1611
▁presley	-14.1611
▁psychological	-14.1611
▁vessel	-14.1611
▁abhor	-14.1611
▁abortion	-14.1611
▁bongos	-14.1611
▁conjuncti	-14.1611
▁fluency	-14.1611
▁himalaya	-14.1611
▁loophole	-14.1611
▁migrate	-14.1611
▁nanny	-14.1611
▁necessities	-14.1611
▁pavement	-14.1611
▁persistence	-14.1611
▁philosophical	-14.1611
▁quintet	-14.1611
▁subpoena	-14.1611
▁combustion	-14.1611
▁ebay	-14.1611
▁hyperactive	-14.1611
▁inquiries	-14.1611
▁librarian	-14.1611
▁midwest	-14.1611
▁obedience	-14.1611
▁peephole	-14.1611
▁presidency	-14.1611
▁residence	-14.1611
▁savior	-14.1611
▁subdue	-14.1611
▁unfazed	-14.1611
▁achille	-14.1611
▁hoarse	-14.1611
▁lagoon	-14.1611
▁bulgaria	-14.1611
▁electrons	-14.1611
▁galaxies	-14.1611
▁laziness	-14.1611
▁muscular	-14.1611
▁pendant	-14.1611
▁penpal	-14.1611
▁pigtails	-14.1611
▁retarded	-14.1611
▁sinister	-14.1611
▁turtleneck	-14.1611
orthodo	-14.1611
▁detonate	-14.1611
▁occupation	-14.1611
▁reduction	-14.1611
▁eccentricities	-14.1611
▁lonesome	-14.1611
▁prosperous	-14.1611
▁sitcoms	-14.1611
▁snickering	-14.1611
▁specimen	-14.1611
▁transition	-14.1611
▁vertical	-14.1611
▁motorbike	-14.1611
▁surplus	-14.1611
▁doodling	-14.1611
▁fertil	-14.1611
▁lifespan	-14.1611
▁skunk	-14.1611
▁tavern	-14.1611
▁thermostat	-14.1611
▁virtuoso	-14.1611
▁equation	-14.1611
▁bartending	-14.1611
▁dashboard	-14.1611
▁webcam	-14.1611
▁delhi	-14.1611
▁fundrais	-14.1611
▁inquiring	-14.1611
▁abusive	-14.1612
▁chamber	-14.1612
▁entertainment	-14.1612
▁fattening	-14.1612
▁remorseful	-14.1612
▁firefox	-14.1612
▁stitch	-14.1612
kaido	-14.1612
▁birthmark	-14.1612
▁forewarned	-14.1612
cades	-14.1612
▁gomez	-14.1612
▁idleness	-14.1612
▁dictatorship	-14.1612
▁grandkids	-14.1612
▁arctic	-14.1612
▁sniffl	-14.1612
▁kendo	-14.1612
▁diversity	-14.1612
▁mastercard	-14.1612
▁zealous	-14.1612
▁defective	-14.1612
▁simmer	-14.1612
▁toenails	-14.1612
▁preview	-14.1612
▁revised	-14.1612
▁christie	-14.1612
▁quotation	-14.1612
▁jiff	-14.1612
▁stairway	-14.1612
▁tightrope	-14.1612
▁evacuation	-14.1612
▁heathrow	-14.1612
▁recaptured	-14.1612
▁brunch	-14.1612
▁hostel	-14.1612
▁mystified	-14.1612
▁horizontal	-14.1612
oxide	-14.1612
▁waffles	-14.1612
▁wristwatch	-14.1612
▁torpedoes	-14.1612
▁minimal	-14.1612
▁stenographer	-14.1612
▁tutor	-14.1612
▁verified	-14.1612
▁facial	-14.1612
▁felony	-14.1612
▁eternity	-14.1612
▁rejection	-14.1612
▁sentimental	-14.1612
▁madonna	-14.1612
▁monopolies	-14.1612
▁viral	-14.1612
▁pigsty	-14.1612
▁radar	-14.1612
▁champ	-14.1612
▁embarrassment	-14.1612
▁instinctively	-14.1612
▁oslo	-14.1612
▁aircraft	-14.1612
▁craving	-14.1612
▁guardian	-14.1612
▁unhappiness	-14.1612
▁hitchhiking	-14.1612
▁correspondent	-14.1612
▁gliding	-14.1612
▁blueberries	-14.1612
▁definition	-14.1612
▁piggy	-14.1612
▁copilot	-14.1612
▁nauseat	-14.1612
▁persist	-14.1612
▁legendary	-14.1613
▁industries	-14.1613
▁uncertainty	-14.1613
▁confirmation	-14.1613
▁excess	-14.1613
▁reinforce	-14.1613
▁kansa	-14.1613
▁nearsighted	-14.1613
▁recognizable	-14.1613
▁airtight	-14.1613
▁buzzer	-14.1613
▁discoveries	-14.1613
▁foxhole	-14.1613
▁sonata	-14.1613
▁gallop	-14.1613
▁chanting	-14.1613
▁literal	-14.1613
▁unavailable	-14.1613
▁upbringing	-14.1613
▁impractical	-14.1613
▁taboo	-14.1613
▁googling	-14.1613
▁weightlift	-14.1613
▁mode	-14.1613
▁earshot	-14.1613
▁landmine	-14.1613
▁slurred	-14.1613
▁settlement	-14.1613
▁whirl	-14.1613
▁greenland	-14.1613
▁saddened	-14.1613
▁addiction	-14.1613
▁clarinetist	-14.1613
▁prematurely	-14.1614
▁shrunk	-14.1614
▁overflowed	-14.1614
▁salesmen	-14.1614
▁copyrighted	-14.1614
▁jones	-14.1614
▁walnut	-14.1614
▁mistreated	-14.1614
▁expectantly	-14.1614
▁selfishness	-14.1614
▁bassist	-14.1614
▁juicy	-14.1614
▁caroling	-14.1614
▁brainstorm	-14.1614
▁gratify	-14.1614
▁misinterpreted	-14.1614
▁packaging	-14.1614
▁peasant	-14.1614
▁bellboy	-14.1614
▁platter	-14.1614
▁fortress	-14.1615
▁wobbly	-14.1615
▁appetizer	-14.1615
▁ballpark	-14.1615
▁unpopular	-14.1615
▁hummingbird	-14.1615
pecked	-14.1615
▁coloss	-14.1615
▁damaging	-14.1615
▁spooked	-14.1615
▁virgin	-14.1615
▁entertainer	-14.1615
▁attachment	-14.1615
▁luxurious	-14.1615
▁paperweight	-14.1615
▁powerpoint	-14.1615
▁wriggle	-14.1615
▁overpopulation	-14.1615
▁limber	-14.1615
▁frowning	-14.1616
▁glowing	-14.1616
▁tourism	-14.1616
▁miser	-14.1616
▁prosecutor	-14.1616
▁hoops	-14.1616
▁luncheon	-14.1616
▁automat	-14.1616
▁madison	-14.1616
▁thwart	-14.1616
▁omelette	-14.1616
▁pathologist	-14.1616
▁outrage	-14.1617
▁margin	-14.1617
▁snoop	-14.1617
▁soundproof	-14.1617
▁merciless	-14.1617
▁yield	-14.1617
▁speakerphone	-14.1617
▁digger	-14.1617
▁conceive	-14.1617
▁claws	-14.1617
▁gaga	-14.1617
naire	-14.1617
▁stammered	-14.1617
▁reelection	-14.1618
▁scroll	-14.1618
▁pierce	-14.1618
▁botany	-14.1618
▁reimbursed	-14.1618
▁delight	-14.1618
▁grumbled	-14.1618
▁magni	-14.1618
▁sedan	-14.1618
▁brightened	-14.1618
▁dexter	-14.1618
▁smuggler	-14.1618
▁comprehensive	-14.1618
▁lifejacket	-14.1618
▁skype	-14.1618
▁workload	-14.1619
▁permissi	-14.1619
▁twinkl	-14.1619
▁chatty	-14.1619
▁fingerprinted	-14.1619
▁cursing	-14.1619
▁blanc	-14.1619
▁excel	-14.1619
▁polka	-14.1619
▁immensely	-14.1619
▁publicity	-14.1619
▁theoretical	-14.162
▁parad	-14.162
▁detour	-14.162
▁graciously	-14.162
▁rewritten	-14.162
▁oscar	-14.162
▁freshmen	-14.162
▁twirling	-14.162
▁reborn	-14.162
▁birdhouse	-14.162
▁sickened	-14.162
▁goofy	-14.1621
▁progressive	-14.1621
▁pasture	-14.1621
▁groaning	-14.1621
▁tenderly	-14.1621
▁remodeling	-14.1621
▁alternat	-14.1621
▁sonnet	-14.1621
den	-14.1621
monia	-14.1621
▁slipping	-14.1622
▁awareness	-14.1622
▁intruder	-14.1622
▁lanes	-14.1622
▁skillfully	-14.1622
▁markedly	-14.1622
▁remodeled	-14.1623
▁quench	-14.1623
▁inhabited	-14.1623
▁unreal	-14.1623
▁bulky	-14.1623
▁lovable	-14.1623
burton	-14.1623
▁spanking	-14.1623
▁striking	-14.1623
▁octo	-14.1624
▁countdown	-14.1624
▁zu	-14.1624
▁furnishing	-14.1624
low	-14.1625
▁entry	-14.1625
▁subjective	-14.1625
▁hiccuping	-14.1625
jam	-14.1625
▁coordinated	-14.1625
▁eloquently	-14.1625
▁negligen	-14.1625
zed	-14.1626
▁idolize	-14.1626
▁scum	-14.1626
▁collaborate	-14.1626
conception	-14.1627
caffein	-14.1627
▁cramped	-14.1627
▁monitored	-14.1627
▁spree	-14.1627
▁polar	-14.1628
▁buckled	-14.1628
▁adj	-14.1629
▁assassinated	-14.1629
brill	-14.1629
▁heartily	-14.163
▁ramen	-14.163
▁tactic	-14.163
▁bumpy	-14.163
▁worsening	-14.163
▁censor	-14.1631
▁expanding	-14.1631
▁extremist	-14.1631
▁cookbook	-14.1632
▁adam	-14.1632
▁overdressed	-14.1632
▁fade	-14.1632
▁upgrade	-14.1633
▁securely	-14.1633
▁reopen	-14.1633
▁injection	-14.1634
heartedly	-14.1634
▁rafting	-14.1634
▁anderson	-14.1634
▁tripod	-14.1634
▁connecting	-14.1635
▁strumm	-14.1635
▁hummer	-14.1635
▁holler	-14.1636
▁soothing	-14.1636
▁khan	-14.1636
sighted	-14.1637
▁capri	-14.1639
▁jointly	-14.1639
▁flawless	-14.1639
▁repaid	-14.164
▁cameraman	-14.1641
▁strained	-14.1641
▁faintly	-14.1641
▁ruling	-14.1641
▁preventable	-14.1641
▁termites	-14.1642
▁hazelnuts	-14.1642
▁restrictions	-14.1642
▁carbohydrates	-14.1642
▁lifeboats	-14.1642
▁philippines	-14.1642
▁lighthouse	-14.1643
▁globally	-14.1643
▁sheepish	-14.1643
▁depresse	-14.1644
▁fogg	-14.1644
▁hornet	-14.1644
uela	-14.1644
▁prevailed	-14.1645
▁memoriz	-14.1645
▁scanner	-14.1645
▁strap	-14.1645
▁distracting	-14.1646
▁shorthanded	-14.1646
▁durable	-14.1646
▁euphemistic	-14.1646
▁supervise	-14.1647
▁playful	-14.1647
▁launder	-14.1649
▁sabotaged	-14.165
▁bullfight	-14.1651
▁throne	-14.1653
▁potentially	-14.1653
▁cranberr	-14.1653
▁unrest	-14.1654
▁nursery	-14.1654
spected	-14.1655
▁yawned	-14.1655
▁hawaiian	-14.1656
▁gravely	-14.1657
▁blinked	-14.1657
▁drafted	-14.1657
▁censu	-14.1657
▁shirtless	-14.1658
▁fulfilled	-14.1658
▁heartless	-14.1659
petition	-14.1659
▁legibl	-14.1659
▁uneven	-14.166
too	-14.166
▁booze	-14.1661
▁assaulted	-14.1663
▁surfer	-14.1663
iling	-14.1664
▁complet	-14.1664
opia	-14.1664
▁graceful	-14.1665
▁inhabit	-14.1665
▁homeland	-14.1667
▁smash	-14.1668
▁directory	-14.1668
▁canoeing	-14.1669
ayama	-14.1669
▁knight	-14.167
▁polishing	-14.167
▁witches	-14.167
▁arisen	-14.1671
▁closure	-14.1672
▁negotia	-14.1672
▁verbal	-14.1674
▁choosy	-14.1675
▁nec	-14.1676
yama	-14.1676
▁aspect	-14.1678
▁vip	-14.168
▁unwanted	-14.168
▁riders	-14.1681
▁trop	-14.1681
▁matsu	-14.1681
lusive	-14.1681
▁ethnic	-14.1682
▁chords	-14.1682
▁sledding	-14.1683
▁triangle	-14.1683
▁hub	-14.1683
▁cult	-14.1685
▁missile	-14.1685
▁wrecked	-14.1686
▁versa	-14.1686
entials	-14.1687
▁yearbook	-14.1691
▁bomber	-14.1691
iographies	-14.1692
▁photocopies	-14.1692
▁envelopes	-14.1693
▁dialects	-14.1695
▁bland	-14.1695
▁raccoons	-14.1695
▁playfully	-14.1695
▁organiz	-14.1699
hara	-14.1702
▁preserved	-14.1703
▁showroom	-14.1703
▁dipping	-14.1703
▁giggle	-14.1705
▁modifi	-14.1705
▁drier	-14.1705
▁bowing	-14.1705
▁dismount	-14.1707
mini	-14.1707
▁varie	-14.171
anus	-14.171
mad	-14.1711
▁possessed	-14.1712
▁iowa	-14.1714
▁spong	-14.1715
▁scot	-14.1716
▁beasts	-14.1718
▁drained	-14.1718
▁unwa	-14.1718
ejected	-14.1722
▁positively	-14.1722
▁rebellio	-14.1725
▁synonym	-14.1726
▁matured	-14.1727
tician	-14.1727
▁manipulated	-14.1729
▁spirited	-14.1729
▁puncture	-14.1732
▁presentable	-14.1732
▁gases	-14.1733
▁freshen	-14.1737
▁marriages	-14.1739
▁neighbours	-14.174
▁glide	-14.1741
▁archer	-14.1741
perative	-14.1742
▁lining	-14.1743
▁supplier	-14.1744
▁skies	-14.1745
love	-14.1747
▁flooding	-14.1747
▁puppets	-14.1748
▁bikinis	-14.1748
▁monarch	-14.1749
▁groans	-14.1752
▁thorn	-14.1752
▁illegally	-14.1753
hap	-14.1755
▁pursui	-14.1756
elated	-14.1757
▁bargaining	-14.1759
vities	-14.1759
▁evasi	-14.1759
lugged	-14.1762
▁bulletin	-14.1763
▁resisting	-14.1764
dang	-14.1767
▁transparent	-14.1767
▁briefing	-14.1771
▁indige	-14.1773
▁prosper	-14.1773
attentive	-14.1773
▁sideline	-14.1773
ff	-14.1773
▁invoice	-14.1776
▁donkeys	-14.1782
▁affordable	-14.1786
▁voluntary	-14.1787
rhea	-14.1788
▁fibers	-14.1789
▁coincidental	-14.1791
▁crib	-14.1792
▁bur	-14.1793
▁stocky	-14.1795
▁cheaply	-14.1796
wled	-14.1797
▁jimm	-14.1797
▁blunt	-14.1798
▁shrines	-14.18
▁atheists	-14.18
▁yak	-14.1802
▁interruptions	-14.1802
▁revenues	-14.1803
▁crocodiles	-14.1803
▁misprints	-14.1804
achi	-14.1805
▁gritt	-14.1806
▁myths	-14.1807
azzled	-14.1807
▁hassle	-14.1808
▁sinner	-14.1811
▁stools	-14.1814
thinking	-14.1817
anything	-14.1821
▁seventie	-14.1821
▁hippo	-14.1828
▁luxuri	-14.1838
▁stocking	-14.1845
▁chatter	-14.1846
▁inventi	-14.1846
▁pou	-14.1847
▁offices	-14.1847
▁saturn	-14.185
ue	-14.1854
▁structures	-14.1856
mission	-14.1856
▁setbacks	-14.1857
▁possessions	-14.1857
▁zombies	-14.1858
▁axis	-14.1859
▁socializ	-14.186
pers	-14.186
ator	-14.1862
▁unlatch	-14.1862
winded	-14.187
ripple	-14.1871
achiever	-14.1874
▁overwork	-14.1875
▁strain	-14.1879
▁doctorate	-14.1881
▁simpl	-14.1891
▁inflat	-14.1893
▁strengthen	-14.1897
▁heir	-14.1901
▁sash	-14.1903
▁magnets	-14.1904
20,	-14.1904
▁stalled	-14.1905
▁porc	-14.1905
▁axe	-14.191
▁doughnuts	-14.1913
▁granddaughters	-14.1913
▁stump	-14.1921
▁schemes	-14.1925
▁ou	-14.1925
laws	-14.1926
▁piles	-14.1926
▁disagreeing	-14.1931
▁strait	-14.1932
▁greene	-14.1933
unch	-14.1935
▁curses	-14.1939
minated	-14.1946
talkie	-14.1948
▁derive	-14.1952
cla	-14.1955
▁smear	-14.1959
▁misinform	-14.1959
covered	-14.1965
▁mammals	-14.1967
▁neckties	-14.1968
▁cubes	-14.197
acent	-14.1976
uz	-14.1978
teen	-14.1979
into	-14.1984
▁provok	-14.1986
▁conclusi	-14.1993
▁jerks	-14.1996
▁tortur	-14.2
▁aback	-14.2001
nplu	-14.2003
▁chops	-14.2014
▁rushing	-14.2015
▁legit	-14.2016
▁cred	-14.2017
shot	-14.2017
▁autographs	-14.2021
▁brochures	-14.2022
rched	-14.2022
▁cheeseburgers	-14.2022
▁shooter	-14.2023
ader	-14.2024
▁clowns	-14.2025
▁personable	-14.203
▁vene	-14.2034
▁bal	-14.2038
▁falsif	-14.2041
▁moons	-14.2044
▁ste	-14.2047
struck	-14.2049
▁getaway	-14.2052
▁dow	-14.2052
▁lifting	-14.2071
assed	-14.2074
▁superiors	-14.2077
▁drinkable	-14.2089
▁deli	-14.209
▁legends	-14.2096
▁bums	-14.2097
▁clearer	-14.2109
▁overlooking	-14.2109
leans	-14.2113
00-	-14.212
▁tractors	-14.2125
▁soothe	-14.2125
▁astound	-14.2127
izzy	-14.2131
venge	-14.2134
wall	-14.2139
pending	-14.2142
▁swearing	-14.2143
▁mone	-14.2147
▁downside	-14.215
▁blaze	-14.2153
▁astrolog	-14.2154
▁inmate	-14.2157
▁mistak	-14.2157
▁greed	-14.2159
▁oily	-14.2161
▁ja	-14.2167
▁ointment	-14.2176
▁straighten	-14.2179
▁composers	-14.2179
children	-14.2183
▁napkins	-14.2184
▁psychiatrists	-14.2185
▁developments	-14.2186
told	-14.2188
acre	-14.2194
▁classics	-14.2205
agram	-14.2207
▁seasoning	-14.2209
▁dangerously	-14.2215
efl	-14.2218
bus	-14.2229
literate	-14.2237
▁riots	-14.2241
pit	-14.2245
▁manicure	-14.2246
▁saf	-14.2247
▁verb	-14.2251
holstere	-14.2252
tes	-14.2262
▁trucks	-14.2262
▁controls	-14.2267
rum	-14.2269
▁rally	-14.2271
▁virg	-14.2276
devil	-14.2288
▁deaths	-14.2289
▁beggars	-14.229
▁forearm	-14.2291
▁believer	-14.2291
▁disputes	-14.2301
▁settings	-14.2315
▁clarifi	-14.2316
▁weeded	-14.2332
pol	-14.2339
phy	-14.2341
▁lobsters	-14.2349
▁distrust	-14.2355
ulation	-14.2359
wi	-14.237
ingle	-14.2379
▁pirates	-14.2386
ering	-14.2392
▁slacks	-14.2398
▁stingi	-14.2401
▁forum	-14.2402
▁amateurs	-14.2404
▁electrif	-14.2406
▁pubs	-14.241
▁knead	-14.2415
▁respecting	-14.2418
rential	-14.2418
▁dime	-14.2421
▁kan	-14.2422
▁overpower	-14.2423
far	-14.2429
▁ven	-14.2429
lling	-14.2435
says	-14.2449
morning	-14.2453
▁compost	-14.2458
▁swimsuits	-14.2459
▁itches	-14.2465
eebie	-14.2465
▁reign	-14.2467
ugh	-14.2472
care	-14.248
▁swell	-14.2498
▁alex	-14.2503
ampered	-14.2503
▁plumbers	-14.2511
obbing	-14.2515
op	-14.2521
ummy	-14.2524
sized	-14.2528
rment	-14.2544
▁valued	-14.2545
ets	-14.256
▁persi	-14.2561
abs	-14.2565
▁slic	-14.2566
▁cashed	-14.2576
reamed	-14.2585
▁faked	-14.2601
▁pitche	-14.2602
▁amuse	-14.2608
sburg	-14.261
▁ideals	-14.2611
eyed	-14.2633
▁hungr	-14.2634
▁indoor	-14.2641
lexes	-14.2654
▁nets	-14.2658
arden	-14.2658
oped	-14.2667
▁addressing	-14.267
▁sham	-14.2676
ris	-14.2683
▁gree	-14.2691
▁memo	-14.2705
onia	-14.2705
▁cla	-14.2712
▁fences	-14.2714
▁pag	-14.2715
fired	-14.2718
▁announcements	-14.2736
position	-14.274
ds	-14.274
▁restraint	-14.275
▁dire	-14.2752
▁kin	-14.2752
ens	-14.2757
tory	-14.2767
▁eradicate	-14.2776
▁brands	-14.278
ada	-14.2784
eration	-14.2794
▁wishe	-14.2796
▁immor	-14.2797
▁tickl	-14.2801
▁spi	-14.2802
won	-14.2805
iden	-14.2809
litary	-14.2817
pitalized	-14.2821
▁clam	-14.2828
▁impersonate	-14.2829
▁imp	-14.2831
▁catholics	-14.2843
nds	-14.2847
▁salva	-14.285
▁industrializ	-14.2856
▁rigor	-14.2863
sizing	-14.2882
ton	-14.2884
lung	-14.2884
mile	-14.2885
▁cola	-14.2886
▁reco	-14.2889
agit	-14.29
▁pricey	-14.2901
▁em	-14.2911
▁bowlin	-14.2919
ka	-14.2927
▁refresh	-14.2931
▁gloat	-14.2937
▁dys	-14.2939
▁pins	-14.2964
▁blogs	-14.2971
etting	-14.2971
▁circles	-14.2993
▁stimulat	-14.2994
around	-14.2994
▁chuckl	-14.2996
▁shovels	-14.2997
▁signals	-14.2999
sight	-14.3016
▁lis	-14.3018
▁verse	-14.3028
▁elements	-14.3029
inal	-14.3029
ple	-14.304
name	-14.3048
wine	-14.3048
▁ambitions	-14.3052
▁diar	-14.3053
iff	-14.3058
▁wobbl	-14.307
ures	-14.3072
▁chil	-14.3075
pr	-14.3082
▁sweaters	-14.3106
▁icky	-14.3116
▁compliments	-14.3118
▁scoote	-14.3147
▁clo	-14.3152
▁mus	-14.3162
kies	-14.3168
today	-14.318
▁dough	-14.3199
hur	-14.3213
▁villages	-14.3216
stick	-14.3221
▁sunsets	-14.3222
▁curt	-14.3222
icles	-14.3228
rept	-14.3229
▁pee	-14.3232
▁deliberat	-14.3232
▁multipl	-14.3236
▁tur	-14.3238
while	-14.3244
fight	-14.3246
▁mill	-14.3252
rge	-14.3255
▁passports	-14.3257
ainly	-14.3259
indulgent	-14.3275
teacher	-14.3277
▁swa	-14.3282
mailing	-14.3284
▁retract	-14.3288
trick	-14.3289
hold	-14.329
awa	-14.3317
▁har	-14.3317
retriev	-14.3349
ask	-14.3367
locked	-14.3369
pass	-14.3379
▁inf	-14.3384
▁minimize	-14.3386
▁exercised	-14.3388
▁bl	-14.3388
▁edit	-14.3399
▁surpasse	-14.3409
▁theirs	-14.3411
▁ros	-14.3411
packed	-14.3421
glas	-14.3427
eman	-14.343
▁bearing	-14.3434
▁dispos	-14.3444
tari	-14.3447
tributed	-14.3449
ench	-14.3457
▁pil	-14.3464
▁penetrate	-14.3472
sa	-14.3474
cial	-14.3478
▁careers	-14.3485
nable	-14.3495
▁overheat	-14.3497
▁kee	-14.3498
ativity	-14.3505
sake	-14.3509
later	-14.3521
▁br	-14.3523
abid	-14.3523
cold	-14.3537
rd	-14.354
▁shouts	-14.3545
acy	-14.3546
easter	-14.355
shin	-14.356
lled	-14.3568
▁pains	-14.3568
pled	-14.3572
git	-14.3606
▁sca	-14.3608
▁audit	-14.3614
lang	-14.3614
nctua	-14.3619
lay	-14.3633
lit	-14.3634
talk	-14.3639
oda	-14.364
alized	-14.3641
▁rai	-14.3649
▁strolle	-14.3652
▁alibis	-14.3656
times	-14.3665
tripped	-14.3669
crat	-14.3671
▁dart	-14.3678
quality	-14.3687
▁cracks	-14.3695
uri	-14.3701
▁tasks	-14.3702
▁guitarists	-14.3723
▁translations	-14.3736
ence	-14.3737
▁industri	-14.374
lor	-14.3749
stable	-14.375
bon	-14.3754
▁sling	-14.3764
▁cane	-14.3772
ctions	-14.3774
▁discounts	-14.3785
late	-14.3804
nobody	-14.3811
▁rehears	-14.3818
ops	-14.382
ates	-14.3823
ew	-14.3825
▁lamps	-14.3829
sy	-14.3841
▁collections	-14.3843
taur	-14.3852
▁autobiographi	-14.3853
fast	-14.3865
▁blows	-14.3877
▁trump	-14.388
▁statements	-14.3885
▁lat	-14.3892
dle	-14.3899
▁interrogate	-14.3905
▁commen	-14.3916
▁equip	-14.3917
linked	-14.392
pane	-14.3926
hered	-14.3959
afternoon	-14.3972
▁graph	-14.3992
ta	-14.3997
anz	-14.4003
iate	-14.4006
▁towed	-14.4011
grad	-14.4037
intend	-14.404
sung	-14.4044
generated	-14.4051
▁authors	-14.4076
strac	-14.408
▁opposites	-14.4125
ermission	-14.4129
tchy	-14.4137
from	-14.4139
even	-14.415
ime	-14.416
▁measur	-14.4189
anned	-14.4201
nstructive	-14.422
▁jackets	-14.4221
fun	-14.4222
story	-14.4222
▁unab	-14.4222
izab	-14.4232
wo	-14.4233
▁soak	-14.4235
rain	-14.4253
playing	-14.4256
▁cri	-14.4257
felt	-14.427
▁boost	-14.4286
akes	-14.4288
▁steaks	-14.4289
▁und	-14.429
▁breaths	-14.4292
kais	-14.4316
hair	-14.4322
▁ap	-14.4324
▁captiv	-14.4348
▁improvis	-14.4348
elt	-14.4349
rch	-14.435
ocked	-14.4357
say	-14.4366
▁traps	-14.4367
▁preach	-14.437
igh	-14.4379
dging	-14.4381
▁multipli	-14.4384
world	-14.44
▁lick	-14.4405
oiled	-14.4406
oops	-14.4416
▁scalpe	-14.4418
▁biologi	-14.4421
mo	-14.4439
ings	-14.444
omeo	-14.445
turned	-14.4457
actually	-14.4462
▁adver	-14.4468
[...]
