<unk>	0
<s>	0
</s>	0
<pad>	0
.	-2.07846
▁tom	-2.96266
'	-3.68725
▁bir	-3.82217
?	-3.84729
,	-4.41003
a	-4.52859
▁o	-4.63973
▁mary	-4.64734
▁bu	-4.67436
un	-4.74296
▁için	-4.93479
▁çok	-4.94737
n	-4.95249
▁ne	-5.04909
▁bunu	-5.16472
▁onu	-5.18089
▁ben	-5.19648
e	-5.32819
▁var	-5.33773
nin	-5.35447
▁ve	-5.36518
▁daha	-5.45508
▁olduğunu	-5.45853
m	-5.48093
▁değil	-5.48235
▁şey	-5.50644
▁kadar	-5.55294
▁bana	-5.55637
▁her	-5.5982
▁iyi	-5.63228
▁mi	-5.64176
ye	-5.64957
▁söyledi	-5.71917
▁onun	-5.72148
den	-5.76407
▁i	-5.81103
u	-5.83606
̇	-5.87263
dan	-5.89909
▁zaman	-5.90041
yi	-6.0512
▁hiç	-6.09221
da	-6.10181
▁neden	-6.11368
▁gerçekten	-6.12317
▁boston	-6.12857
▁benim	-6.13109
▁burada	-6.15477
▁sana	-6.15793
▁mı	-6.16349
▁yardım	-6.18139
la	-6.1986
▁sadece	-6.20212
▁nasıl	-6.27167
▁istiyorum	-6.30914
▁hakkında	-6.30988
▁biz	-6.32205
▁oldu	-6.36481
i	-6.36542
▁senin	-6.37127
▁yok	-6.37427
▁gibi	-6.3806
yı	-6.38267
▁musun	-6.39345
▁yapmak	-6.39522
▁misin	-6.40181
▁sen	-6.40741
▁beni	-6.42593
▁onlar	-6.42762
▁biraz	-6.43582
▁önce	-6.4467
k	-6.45304
▁şimdi	-6.50156
ya	-6.53586
▁etti	-6.5717
▁seni	-6.5735
▁de	-6.58714
▁en	-6.59887
▁şeyi	-6.62593
▁bunun	-6.63601
▁ona	-6.68407
▁sanırım	-6.68485
▁üç	-6.68975
▁hâlâ	-6.71414
▁zorunda	-6.71724
▁fransızca	-6.71953
▁ile	-6.72716
▁lütfen	-6.74379
▁biliyorum	-6.74877
▁fazla	-6.77119
▁mu	-6.77222
▁sonra	-6.78629
▁bugün	-6.7874
▁asla	-6.79039
▁gece	-6.84238
ı	-6.87598
▁kimse	-6.88692
▁gün	-6.90599
▁görünüyor	-6.90824
lar	-6.94003
▁geri	-6.94999
▁yeni	-6.95491
▁izin	-6.95605
▁bütün	-6.95707
▁olarak	-6.96109
▁başka	-6.96131
▁tek	-6.96175
ki	-6.96847
▁dün	-6.97377
▁olacak	-6.99774
▁büyük	-6.99781
▁hiçbir	-7.00058
▁muhtemelen	-7.01105
▁iş	-7.01898
▁ama	-7.03981
▁yarın	-7.04368
kça	-7.05906
▁araba	-7.0791
▁gitmek	-7.08221
▁biliyor	-7.08807
▁artık	-7.08874
▁nerede	-7.09239
▁eve	-7.10507
▁bize	-7.11126
dır	-7.12665
▁para	-7.12829
▁kim	-7.1318
▁uzun	-7.13198
dir	-7.13267
▁istiyor	-7.13425
▁kişi	-7.13548
▁tekrar	-7.15339
▁etmek	-7.16558
▁olmadığını	-7.16774
▁gerektiğini	-7.16943
▁verdi	-7.17612
▁sık	-7.17853
▁hafta	-7.18648
▁birlikte	-7.18932
▁değilim	-7.20054
▁vardı	-7.21259
▁olmak	-7.22474
ler	-7.22842
▁yemek	-7.24332
▁son	-7.24711
▁saat	-7.24768
▁emin	-7.24923
▁birkaç	-7.25364
▁orada	-7.26022
▁doğru	-7.26144
▁gerekiyor	-7.26546
▁yaptı	-7.27734
▁değildi	-7.28135
▁güzel	-7.28235
▁ediyorum	-7.28679
▁da	-7.28858
▁geç	-7.28896
▁düşünüyor	-7.2974
▁herkes	-7.32096
nın	-7.32684
▁yıl	-7.33655
▁kötü	-7.33662
▁aldı	-7.34098
▁gitti	-7.36518
z	-7.36666
▁şu	-7.37036
▁seninle	-7.38253
▁istedi	-7.39033
▁öğle	-7.39625
▁olacağını	-7.40186
▁kız	-7.40639
▁söylüyor	-7.41229
hangi	-7.41235
▁sanmıyorum	-7.41765
▁merak	-7.42116
▁aynı	-7.42287
▁mutlu	-7.42789
▁yapmayı	-7.43426
▁karar	-7.43976
▁bilmiyorum	-7.44093
▁istemiyorum	-7.44094
le	-7.44097
▁henüz	-7.44923
▁evde	-7.45597
ce	-7.4588
p	-7.46368
▁biri	-7.46728
▁düşünüyorum	-7.46913
▁neredeyse	-7.48074
um	-7.48203
▁akşam	-7.48379
▁miyim	-7.48521
▁	-7.48702
▁zor	-7.49038
▁bizim	-7.49186
▁buraya	-7.49434
▁yoktu	-7.51301
▁satın	-7.52785
▁geçen	-7.53141
▁iki	-7.53302
▁kendi	-7.53415
▁geldi	-7.53487
▁yaptığını	-7.53815
▁şarkı	-7.53889
▁tam	-7.53968
de	-7.54009
▁yemeği	-7.54388
ne	-7.54628
▁düşündüm	-7.55094
▁onların	-7.55733
▁bile	-7.56275
▁istediğini	-7.56945
▁zaten	-7.58288
▁olur	-7.58636
▁söyle	-7.5932
▁ister	-7.60368
▁olabilir	-7.61088
▁adam	-7.62409
▁olduğu	-7.62678
▁erken	-7.63649
▁onunla	-7.64002
▁erkek	-7.64881
▁kez	-7.65039
▁yalnız	-7.65565
▁gelecek	-7.65866
▁kaç	-7.66293
▁keşke	-7.6658
▁kabul	-7.67229
▁eminim	-7.6723
▁az	-7.67668
▁bazı	-7.68578
▁sabah	-7.68825
▁okul	-7.69097
▁olan	-7.69387
▁hava	-7.69717
▁mısın	-7.69919
▁yapmaya	-7.7015
en	-7.70224
▁tüm	-7.71425
yle	-7.72824
uz	-7.73439
▁görünüyordu	-7.74122
▁benimle	-7.7467
▁nedir	-7.74681
▁dışarı	-7.75354
▁belki	-7.75403
▁tamam	-7.77038
▁hem	-7.77371
▁böyle	-7.77665
!	-7.77783
▁almak	-7.77795
▁gerek	-7.78016
yla	-7.78036
▁fark	-7.78614
▁birçok	-7.7871
▁oraya	-7.78861
▁şekilde	-7.79699
ğını	-7.79907
▁hazır	-7.79938
▁ediyor	-7.80319
▁sorun	-7.81104
▁kapı	-7.81308
▁meşgul	-7.8196
▁konuşmak	-7.83153
▁ihtiyacım	-7.83567
▁yanlış	-7.83742
▁ev	-7.83785
▁kesinlikle	-7.84106
▁devam	-7.84242
▁yağmur	-7.84267
▁süre	-7.84275
▁pazartesi	-7.84783
▁günü	-7.8567
▁başına	-7.8595
▁istemiyor	-7.86196
▁kolay	-7.86199
▁eski	-7.86546
tan	-7.86711
▁yapacağını	-7.87267
▁içinde	-7.87517
▁olduğumu	-7.87621
ndan	-7.87697
▁bizi	-7.87952
▁yer	-7.88163
▁ki	-7.882
▁görmek	-7.88201
▁ziyaret	-7.88292
▁söyledim	-7.88667
▁küçük	-7.88714
▁on	-7.8873
▁yapacak	-7.89294
▁çocuk	-7.89384
▁genellikle	-7.89649
▁bilmiyor	-7.89786
▁john	-7.90074
▁başladı	-7.90257
▁kitap	-7.90344
▁ver	-7.92341
▁dakika	-7.92507
▁bence	-7.92591
▁hemen	-7.9264
▁nereye	-7.92679
▁tarafında	-7.93378
▁benden	-7.93886
▁ilk	-7.94049
▁yakında	-7.94428
▁yalan	-7.94547
▁olmalı	-7.95437
▁bilmek	-7.95529
sin	-7.95822
▁yapması	-7.96157
▁avustralya	-7.96387
▁olduğun	-7.97143
▁söylemek	-7.97657
▁sahip	-7.97774
▁çalıştı	-7.97791
▁hızlı	-7.98607
▁misiniz	-7.98795
▁ettim	-7.99049
▁kimin	-8.00025
▁değildir	-8.00054
▁aldım	-8.00376
▁nefret	-8.00416
▁ihtiyacı	-8.01116
▁önemli	-8.01458
▁etmeye	-8.01735
▁anda	-8.01755
▁seviyorum	-8.02082
▁söz	-8.02254
▁harika	-8.02339
▁ikna	-8.02526
▁karşı	-8.02766
▁parti	-8.03575
▁kahve	-8.03769
▁yaptım	-8.03898
▁tane	-8.03943
▁düşünüyorsun	-8.04421
▁konuda	-8.04456
▁eğer	-8.04576
ni	-8.0475
▁bizimle	-8.04876
du	-8.04943
▁çalışıyor	-8.0497
▁çocuklar	-8.05026
▁ederim	-8.0519
▁düşündüğünü	-8.05275
ın	-8.05955
iz	-8.0614
▁su	-8.06389
▁kendini	-8.06477
▁size	-8.07095
▁yapıyor	-8.07435
▁insanlar	-8.07739
▁istedim	-8.08108
▁açık	-8.08691
▁kaldı	-8.101
▁zorundayım	-8.10111
▁ya	-8.1048
▁buna	-8.10736
▁gereken	-8.10754
▁öldü	-8.11552
▁öyle	-8.11738
r	-8.11756
▁üzerinde	-8.11819
▁polis	-8.11914
▁sever	-8.12102
▁gördüm	-8.12484
▁tür	-8.12511
ç	-8.12687
▁hayal	-8.1274
▁sordu	-8.12858
▁biliyordu	-8.13412
▁yerde	-8.13652
▁beri	-8.14104
di	-8.14421
sın	-8.14666
▁yaşıyor	-8.15214
▁umarım	-8.15427
▁mü	-8.16036
▁et	-8.16729
ydı	-8.17875
▁bilmiyordum	-8.17966
▁işi	-8.18154
▁hangi	-8.18576
▁birini	-8.18833
tır	-8.1914
▁babam	-8.19856
▁kısa	-8.19878
▁yardımcı	-8.19926
ten	-8.20021
▁olacağım	-8.20618
▁sürü	-8.20862
▁ilgili	-8.20972
▁cevap	-8.21116
tir	-8.21182
▁genç	-8.21214
▁siz	-8.21249
▁ay	-8.2131
▁hepimiz	-8.22097
▁şeyler	-8.2311
▁memnun	-8.23533
▁biliyordum	-8.23549
▁yeterin	-8.2374
▁aç	-8.23766
▁kitabı	-8.24357
sı	-8.24517
▁yaşlı	-8.24546
ngilizce	-8.24974
▁n	-8.25005
▁gerçek	-8.25126
▁yere	-8.25329
▁hepsi	-8.25924
dur	-8.26191
▁duydum	-8.2621
▁yapmasını	-8.26563
in	-8.26582
▁hata	-8.26639
im	-8.26788
ken	-8.27316
▁söylediğini	-8.27907
▁sizin	-8.27923
sine	-8.28611
▁yaz	-8.28736
▁insan	-8.28829
▁""	-8.28837
▁zorundayız	-8.28867
▁terk	-8.29209
dı	-8.29343
▁sonunda	-8.29527
için	-8.30166
▁bundan	-8.30414
▁otuz	-8.30717
▁yapar	-8.30762
ine	-8.3091
▁yakın	-8.31005
▁görünüyorsun	-8.31007
▁değilsin	-8.31936
▁olduğundan	-8.32173
▁soru	-8.33021
▁hasta	-8.33041
▁seviyor	-8.33171
▁yapmam	-8.33597
ları	-8.33651
lup	-8.33795
▁eder	-8.33982
▁hala	-8.3408
▁tavsiye	-8.34305
ğini	-8.34501
▁dikkatli	-8.3459
▁yaklaşık	-8.3492
▁severim	-8.35087
▁zamanı	-8.35528
▁gerçeği	-8.35824
▁tercih	-8.36106
▁ödün	-8.3614
nı	-8.3671
▁verdim	-8.36835
▁baktı	-8.36868
▁vardır	-8.37072
▁boyunca	-8.37085
▁söylemedi	-8.37192
▁an	-8.37218
na	-8.37348
▁geliyor	-8.37419
▁gidiyor	-8.38475
▁yeterli	-8.39021
▁yüzden	-8.39309
▁2.30'	-8.39502
▁park	-8.40303
▁yorgun	-8.40419
▁umuyorum	-8.40434
▁soğuk	-8.40639
▁üzgünüm	-8.40845
▁musunuz	-8.41211
sını	-8.42027
▁telefon	-8.42052
▁söylediği	-8.42585
▁biliyorsun	-8.42746
▁rahatsız	-8.43255
▁sigara	-8.43446
leri	-8.43775
ydi	-8.44203
▁bilmiyordu	-8.44311
si	-8.44661
▁çıktı	-8.44689
▁dolar	-8.45049
▁ikisi	-8.45149
▁ara	-8.45353
▁arkadaşım	-8.45359
▁düşündü	-8.45441
ız	-8.45482
▁kardeşim	-8.45514
▁istediği	-8.4553
▁gel	-8.4579
▁istemedi	-8.458
sini	-8.46064
▁farklı	-8.46446
▁şeyin	-8.46588
te	-8.46942
▁sorunu	-8.47118
▁yiyecek	-8.47146
▁"""	-8.4734
▁yoksa	-8.47675
▁sıcak	-8.47679
▁oda	-8.4778
▁göz	-8.47999
▁yol	-8.48007
▁onları	-8.48087
▁sizi	-8.48185
▁doktor	-8.48275
▁koydu	-8.48277
▁olmayacak	-8.48444
▁fakat	-8.49282
▁teşekkür	-8.49365
▁hissediyorum	-8.49609
▁yapacağım	-8.50108
▁dünya	-8.50847
▁beş	-8.50976
▁açtı	-8.51119
▁zengin	-8.51443
▁öğretmen	-8.52419
▁ihtiyacımız	-8.52511
▁gerekir	-8.52865
▁istediğim	-8.53541
▁aslında	-8.53547
larını	-8.53579
▁çalışmak	-8.5375
▁dans	-8.53906
▁görünmüyor	-8.54181
▁dair	-8.5427
▁çalışıyorum	-8.54934
▁senden	-8.55001
▁yapmasın	-8.55009
▁kendimi	-8.55115
▁süredir	-8.55164
▁göre	-8.55182
lı	-8.55758
▁istemediğini	-8.55821
▁kontrol	-8.55958
▁olmadan	-8.55968
▁bırak	-8.56089
daki	-8.5609
▁bak	-8.56267
▁evi	-8.56424
▁etmeyi	-8.56438
▁bildiğini	-8.56967
▁olmasını	-8.57745
▁zamanında	-8.5776
li	-8.58111
▁yüksek	-8.58422
▁fikir	-8.58973
▁yedi	-8.59036
▁ciddi	-8.59118
▁aptal	-8.59271
▁annem	-8.59427
▁istiyorsun	-8.59544
▁çıkardı	-8.60041
▁davet	-8.60455
▁pek	-8.60582
▁dışarıda	-8.60753
▁arkadaşı	-8.60805
▁yaptığı	-8.60944
▁alabilir	-8.6145
▁bazen	-8.61592
▁ihtiyacın	-8.61869
▁mümkün	-8.61926
▁dikkat	-8.6224
▁edecek	-8.62416
▁olması	-8.62503
▁sessiz	-8.62636
▁endişeli	-8.62975
▁köpek	-8.63188
▁yaptın	-8.63231
sına	-8.63251
masını	-8.63404
nsanlar	-8.6352
ca	-8.6436
▁edildi	-8.64507
▁bekliyor	-8.64725
▁arkadaş	-8.64727
▁tenis	-8.64789
▁doğum	-8.64868
▁zorundasın	-8.64966
▁yapmanı	-8.65029
▁balık	-8.65263
▁istediğin	-8.65317
▁vermek	-8.65433
▁oldum	-8.6564
▁kızgın	-8.65924
▁buradan	-8.65962
▁bunlar	-8.66037
▁yapmaktan	-8.66398
▁gittim	-8.66487
▁acele	-8.66793
▁özür	-8.66843
▁japonya	-8.67045
▁noel	-8.67286
▁gitmeyi	-8.67744
▁etme	-8.67916
▁adını	-8.67997
▁bıraktı	-8.68192
ş	-8.6825
lerini	-8.6863
▁konusunda	-8.69218
▁tren	-8.69371
yim	-8.69484
▁gider	-8.69715
▁üzgün	-8.69827
▁boş	-8.69877
"""	-8.70815
▁öğrenmek	-8.71443
▁yolu	-8.71491
▁evin	-8.71568
sun	-8.71605
▁etmedi	-8.71752
▁yanında	-8.72219
▁ilginç	-8.72258
▁istemedim	-8.72431
▁otobüs	-8.72838
▁gitme	-8.72885
▁aptalca	-8.73075
▁olurdu	-8.73583
▁kar	-8.73652
ip	-8.73755
▁kalmak	-8.74031
▁sevmiyorum	-8.74666
▁içki	-8.74715
▁ettiğini	-8.75012
▁birisi	-8.75044
▁hikaye	-8.75063
▁olduğum	-8.75181
▁müzik	-8.75504
▁kırıklığın	-8.75527
▁haber	-8.75573
ım	-8.75589
▁yapabilir	-8.75777
▁gittiğini	-8.76465
▁önünde	-8.76981
▁diğer	-8.77235
▁hoş	-8.77298
▁aldın	-8.77332
▁miyiz	-8.7748
▁nereden	-8.77592
▁altında	-8.7762
▁seyahat	-8.77662
▁oluyor	-8.78337
▁yaşında	-8.78423
▁gelir	-8.78442
▁derece	-8.78604
▁yapmamı	-8.78697
▁değildim	-8.78946
▁kendim	-8.78959
▁yüz	-8.79012
▁olmadı	-8.79156
▁gördü	-8.79875
▁özel	-8.79885
▁yapma	-8.79928
▁konuşma	-8.80143
▁yapacağımı	-8.80467
▁yaptığın	-8.80494
▁görünmüyordu	-8.80623
▁hep	-8.80973
▁edebilir	-8.81055
▁yapman	-8.81079
▁sonu	-8.81094
▁toplantı	-8.81358
▁birinin	-8.81535
▁mükemmel	-8.81587
▁döndü	-8.81607
▁görmedim	-8.8183
▁önümüzde	-8.81853
▁oturdu	-8.81983
▁iyidir	-8.82512
t	-8.82635
▁yine	-8.82714
▁içeri	-8.83499
▁hareket	-8.8361
▁reddetti	-8.83798
▁söyleme	-8.83872
▁kardeşi	-8.83938
▁parayı	-8.84074
▁geçirdi	-8.84129
▁attı	-8.84586
▁olmayı	-8.84807
▁kendine	-8.85378
▁istiyoruz	-8.85582
▁değiliz	-8.8561
▁film	-8.85833
▁öğrenci	-8.85969
▁kahvaltı	-8.86024
▁arasında	-8.86032
▁yapmamız	-8.86144
▁el	-8.86699
▁herkesin	-8.867
▁kaza	-8.86829
▁girdi	-8.86994
▁düşünmüyor	-8.87091
▁yavaş	-8.87149
▁geleni	-8.87732
▁elbise	-8.878
▁kaldım	-8.87806
▁al	-8.87866
▁yapmadı	-8.88112
▁okulda	-8.88239
▁buldu	-8.88732
▁ol	-8.88735
▁kaybetti	-8.8876
▁elinde	-8.89077
▁kadın	-8.8926
▁teşekkürler	-8.89282
▁sevdiğini	-8.89326
▁yürüyüş	-8.89535
▁eğlenceli	-8.89766
▁yaşamak	-8.89766
▁inanamıyorum	-8.8987
▁onlara	-8.90183
▁mektup	-8.90242
▁olduğumuz	-8.91042
▁yapabileceğini	-8.91324
▁planlıyor	-8.91869
▁uzak	-8.92351
▁olursa	-8.92574
▁pahalı	-8.92817
▁söyledin	-8.93193
▁yap	-8.93241
▁tamir	-8.9338
▁fikrim	-8.93529
?""	-8.9357
▁başıma	-8.93674
arak	-8.93858
▁olmaya	-8.93888
▁hediye	-8.93924
▁arabasını	-8.94097
ğünü	-8.94423
▁sarhoş	-8.95234
▁demek	-8.95376
▁gideceğim	-8.95443
▁alacağım	-8.95451
▁dışında	-8.9552
▁edeceğim	-8.95612
▁babası	-8.95615
yım	-8.95794
▁söyleyecek	-8.96364
tı	-8.96364
▁kırmızı	-8.96795
▁tv	-8.97073
▁gelmek	-8.9713
▁şans	-8.97253
▁geldim	-8.97348
lik	-8.97383
▁şarap	-8.97608
ta	-8.9767
▁dolayı	-8.98074
▁nadiren	-8.98083
▁yerine	-8.98259
▁yapan	-8.98275
▁alışveriş	-8.9836
▁yıldır	-8.98476
▁vermedi	-8.98668
▁ödeme	-8.98671
▁hayatta	-8.98697
▁geçti	-8.98905
▁akıllı	-8.98982
▁ayrıldı	-8.98993
▁buldum	-8.99041
▁verme	-8.99388
▁görmeye	-8.99441
▁çoğu	-8.99543
▁odada	-8.99645
▁gelmedi	-8.99665
▁güçlü	-8.99721
▁sürede	-9.00064
▁hayat	-9.00091
lık	-9.0017
▁söyleyebilir	-9.00332
▁konuşmayı	-9.00898
▁takım	-9.01005
▁haklı	-9.014
eceğini	-9.01401
▁üniversite	-9.01487
▁gidelim	-9.01675
▁muydun	-9.01846
▁gitmeye	-9.019
▁neler	-9.01972
▁konuşabilir	-9.02058
ktan	-9.02154
▁çalıştım	-9.0232
▁hastane	-9.02628
▁gördün	-9.02806
▁evli	-9.02827
▁hak	-9.02845
▁unutma	-9.02903
▁kedi	-9.02981
▁tuhaf	-9.02985
ti	-9.03207
erek	-9.03339
▁çaldı	-9.03397
▁pazar	-9.03482
▁acı	-9.03645
▁mal	-9.03781
▁köpeği	-9.04177
▁hatalı	-9.04635
▁söylediğin	-9.04779
▁pencere	-9.05289
▁bilmediğini	-9.05489
▁beyzbol	-9.05758
▁garip	-9.06
▁gösterdi	-9.06217
▁anne	-9.06454
▁oyun	-9.06572
▁olsa	-9.06646
▁konuşur	-9.07253
▁bitti	-9.07346
▁geldiğini	-9.07361
mi	-9.07372
▁televizyon	-9.07373
▁rica	-9.07574
▁söyler	-9.07578
şte	-9.07757
▁adı	-9.0799
▁bekliyorum	-9.0821
▁amerika	-9.08443
-	-9.0868
▁sıkı	-9.08728
▁günde	-9.08731
▁gurur	-9.08846
▁dört	-9.09106
▁saatler	-9.09219
▁sonraki	-9.09222
nız	-9.09239
▁anlamıyorum	-9.09277
▁yaptık	-9.09345
▁alacak	-9.0939
▁sürdü	-9.09684
▁almaya	-9.09876
▁kelime	-9.09954
lk	-9.09979
▁olmalısın	-9.1017
▁bilgi	-9.10174
▁elma	-9.1019
▁güneş	-9.10273
▁ifade	-9.10393
▁fincan	-9.10409
▁çocukları	-9.11257
▁bilir	-9.1176
▁durum	-9.11776
kten	-9.11803
▁gidecek	-9.1181
▁şaka	-9.11948
▁parası	-9.11996
▁elimde	-9.1225
▁gelen	-9.12454
▁vereceğim	-9.12727
▁alır	-9.12783
▁yazdı	-9.129
▁güvenli	-9.12901
▁taksi	-9.13031
▁söylemeye	-9.13412
▁unuttum	-9.13507
▁sanıyordum	-9.13564
▁yapılması	-9.13659
▁beyaz	-9.13736
▁kilo	-9.13839
▁üst	-9.13883
▁istiyordu	-9.13959
▁tehlikeli	-9.14026
▁süt	-9.14298
▁kalacak	-9.14314
▁bebek	-9.1444
▁at	-9.15077
▁etmesini	-9.1509
derhal	-9.1533
▁edeceğini	-9.15382
▁aradı	-9.15519
▁işim	-9.15713
▁ana	-9.15717
▁orta	-9.1575
▁git	-9.15753
▁uygun	-9.15866
▁çay	-9.16124
▁sınıf	-9.16514
▁yemeğini	-9.16515
▁komik	-9.16525
▁rağmen	-9.16533
▁tahmin	-9.16707
acağını	-9.16717
▁gidiyorum	-9.16962
▁buradaki	-9.17248
▁şeyim	-9.17253
▁itiraf	-9.17281
▁yapmama	-9.17582
▁sakin	-9.17777
▁piyano	-9.18002
▁gerekli	-9.18139
ü	-9.18148
▁jackson	-9.18205
▁emekli	-9.18246
▁şikayet	-9.18517
▁deli	-9.1863
▁zamanlarda	-9.18672
▁konuştu	-9.18677
▁söylemedim	-9.18699
▁zamanım	-9.18793
▁ailesi	-9.19075
▁zarar	-9.19112
▁mektubu	-9.19275
▁defa	-9.19294
l	-9.19447
▁geleceğini	-9.19578
▁fikri	-9.19747
▁vakit	-9.19841
▁sorunun	-9.19856
▁kanadalı	-9.19887
▁çıkmak	-9.19985
▁şapka	-9.20066
▁nedeni	-9.20227
▁sence	-9.20234
▁almayı	-9.20315
▁işini	-9.20701
▁yatakta	-9.20709
▁çalışır	-9.20778
▁olabileceğini	-9.2131
▁zevk	-9.21466
▁tanıyor	-9.21479
▁okumak	-9.21748
▁arkadaşın	-9.21862
▁şeyleri	-9.22157
▁etmedim	-9.22199
▁teklif	-9.22232
▁kendisi	-9.22244
▁sizinle	-9.22285
▁verir	-9.22321
▁biliyoruz	-9.22506
▁kimseyi	-9.22516
▁yaşadığını	-9.22823
zı	-9.22832
▁eden	-9.23081
▁yapıyorsun	-9.23108
▁sor	-9.23141
▁plan	-9.23249
▁sınıfta	-9.2346
▁ettin	-9.23474
▁başarılı	-9.23521
▁çalışmaya	-9.23596
▁param	-9.23698
▁çekti	-9.23732
▁ders	-9.23767
▁düştü	-9.23973
▁gitar	-9.24165
▁bekle	-9.24261
▁yerinde	-9.24317
yiz	-9.24364
▁konuşmaya	-9.24419
▁aşık	-9.24715
▁kişidir	-9.24731
▁bunları	-9.24968
▁baş	-9.24997
▁bardak	-9.25043
▁kapattı	-9.25054
▁korkunç	-9.25074
▁bulmak	-9.25147
siniz	-9.25682
▁ekim	-9.25737
▁yaptığım	-9.25916
▁değer	-9.26009
▁e	-9.2604
▁beklemek	-9.26082
▁istediğimi	-9.26171
▁sıra	-9.26265
sa	-9.26328
▁spor	-9.26345
▁futbol	-9.26572
▁istekli	-9.26613
▁üzerine	-9.26717
▁yürüdü	-9.26835
▁ediyordu	-9.26849
▁resim	-9.26971
▁arkadaşları	-9.27013
▁anlama	-9.27024
▁arabası	-9.27096
▁yapmadığını	-9.27099
▁sormak	-9.27248
▁yaptığımı	-9.27315
▁çalış	-9.27467
▁sayıd	-9.27541
▁çıkar	-9.2789
▁mısınız	-9.27953
▁hissetti	-9.28088
kinden	-9.28159
▁yabancı	-9.28194
▁yapıyorum	-9.28262
▁neyin	-9.28268
▁geçirdim	-9.28376
▁dürüst	-9.284
▁durdu	-9.28546
▁ağır	-9.28559
▁şanslı	-9.28712
▁zamanda	-9.28899
▁siyah	-9.29089
yız	-9.29156
▁kal	-9.29326
▁gerekmiyor	-9.29412
▁çift	-9.29615
zi	-9.2972
▁olma	-9.29896
▁korkuyor	-9.29928
▁yapmadım	-9.30078
▁planladığını	-9.3035
▁şehir	-9.30404
▁parkta	-9.30446
▁herkese	-9.30555
▁alıyor	-9.30683
▁yapabilirim	-9.30867
miz	-9.31098
şe	-9.31207
mı	-9.31465
▁benziyor	-9.31542
▁hissettim	-9.31601
▁annesi	-9.31738
siz	-9.31859
▁hepsini	-9.31936
▁çabuk	-9.31963
▁bina	-9.31994
▁kazandı	-9.32169
▁mıydı	-9.32331
▁şeker	-9.32365
▁yeri	-9.32439
▁konuşuyor	-9.32639
lardı	-9.32695
▁sevmiyor	-9.32962
▁masa	-9.33058
▁göründüğü	-9.33061
mız	-9.33096
▁konuy	-9.33276
▁güvende	-9.33492
▁gazete	-9.33535
▁gördüğüm	-9.33587
▁ünlü	-9.33638
▁oynamak	-9.33646
▁partide	-9.33662
▁oy	-9.33785
▁dil	-9.33885
▁yaşadı	-9.33899
▁insanların	-9.3391
▁kalmayı	-9.3401
▁etmesi	-9.34124
▁resmi	-9.3414
▁olacağız	-9.34399
▁olacağın	-9.34458
▁gürültü	-9.3449
▁başarısız	-9.34537
▁kavga	-9.34606
▁ülke	-9.34622
▁biçimde	-9.34737
▁rahat	-9.34823
malıyız	-9.34944
lerin	-9.35001
▁zordur	-9.35283
▁uyuyor	-9.35582
▁evini	-9.35694
▁olmaz	-9.35819
▁soruy	-9.36227
▁çalıştığını	-9.36296
dür	-9.36308
▁bisiklet	-9.3643
▁istemiyordu	-9.36658
▁ödevini	-9.36662
▁yapmayacağını	-9.36857
dim	-9.36944
▁söylemeyi	-9.36985
▁sağ	-9.37099
▁duyuyorum	-9.3734
▁kalacağım	-9.37787
▁sakınca	-9.38058
▁konser	-9.38242
▁giderim	-9.38484
▁olmayacağını	-9.38567
miş	-9.38573
▁konu	-9.38718
iyle	-9.38732
s	-9.38737
▁japon	-9.38772
▁ön	-9.38945
me	-9.39138
▁tokyo	-9.39189
malısın	-9.3934
▁verin	-9.39507
▁ateş	-9.39559
▁gitmem	-9.39593
▁ettiler	-9.39649
▁isterim	-9.39727
▁düşünmedim	-9.39756
▁altı	-9.39921
▁burası	-9.3995
▁pasta	-9.39953
▁yaparım	-9.39999
▁koy	-9.40031
▁hayatını	-9.40051
nden	-9.40061
▁anlaşma	-9.40076
▁arkadaşlar	-9.40081
▁durumda	-9.40312
▁tuttu	-9.40336
mesini	-9.40345
▁olmaktan	-9.40346
▁mutluyum	-9.40356
▁odasında	-9.4037
mış	-9.40419
▁yardımın	-9.40678
▁endişe	-9.41104
▁söylemedin	-9.41133
▁olmasın	-9.41195
▁biridir	-9.41253
▁trafik	-9.41441
▁saygı	-9.41483
▁hayır	-9.41507
▁sevindim	-9.41521
▁okuldan	-9.41527
▁olamaz	-9.41569
▁uzakta	-9.41699
▁kendin	-9.41915
▁getir	-9.41964
▁yüzmeye	-9.42207
▁takdir	-9.42233
▁tanıyorum	-9.42342
▁suçlu	-9.42514
▁mesaj	-9.43046
▁diye	-9.43241
▁iptal	-9.43462
▁giydi	-9.43518
▁aile	-9.43644
▁yaşıyorum	-9.43661
▁temiz	-9.43775
▁farkında	-9.43833
▁gizli	-9.43856
▁kızı	-9.44117
▁yapacağın	-9.44249
niz	-9.44283
▁yaralandı	-9.44301
▁parça	-9.44474
▁gitmesi	-9.44489
▁filmi	-9.44608
▁olsun	-9.44676
▁düşünüyordum	-9.44696
▁hastanede	-9.44841
▁toplantıy	-9.45012
▁hey	-9.45033
▁savaş	-9.45043
▁üstünde	-9.45063
▁kaçtı	-9.45188
▁masanı	-9.45351
▁hoşlanıyor	-9.45429
▁umurumda	-9.45461
▁birbirimiz	-9.455
▁içmek	-9.45522
▁düşünüyordu	-9.45642
▁mavi	-9.45751
▁göster	-9.45773
▁önerdi	-9.45818
▁acil	-9.45857
▁olmuş	-9.46146
▁zamandır	-9.46252
▁sevmediğini	-9.46303
▁koştu	-9.46412
se	-9.46781
san	-9.46843
▁ayında	-9.47023
▁yapamam	-9.47101
▁günleri	-9.47102
alım	-9.47158
▁ayak	-9.4722
▁gidi	-9.47248
▁hissettiğini	-9.47343
▁söylendi	-9.47345
▁tut	-9.47433
▁yalnızca	-9.47602
▁edin	-9.47634
▁yedim	-9.47685
▁hatırlamıyorum	-9.47926
▁derin	-9.47965
▁olman	-9.48037
▁sordum	-9.48283
▁mantıklı	-9.48306
▁favori	-9.4832
▁arkadaşlarım	-9.48332
▁getirdi	-9.48416
▁haftada	-9.48447
▁mezun	-9.48454
▁sağlıklı	-9.48696
▁giderken	-9.48794
▁yumurta	-9.48797
▁düşün	-9.48841
▁can	-9.48859
▁sefer	-9.489
▁ait	-9.49117
▁bin	-9.49119
ını	-9.49132
lere	-9.49139
▁arkasında	-9.4936
▁anlıyorum	-9.49625
▁tanıdığım	-9.49675
▁basit	-9.49683
▁yüzme	-9.49698
▁silah	-9.49829
▁hepiniz	-9.4988
▁kaybettim	-9.49924
▁aşırı	-9.50005
▁sahibi	-9.50069
▁zeki	-9.50093
▁bilgisayar	-9.50241
▁oday	-9.50305
▁görmez	-9.50455
▁başını	-9.50455
▁boşa	-9.50521
▁pişman	-9.50527
▁suyu	-9.50642
▁yaşın	-9.50725
▁gergin	-9.50797
▁dolu	-9.50825
’	-9.50848
▁takip	-9.50852
▁verecek	-9.5087
▁yoğun	-9.50886
▁beklemiyordu	-9.5092
▁berbat	-9.5103
▁işten	-9.51047
▁çocukların	-9.51111
▁kan	-9.51127
▁fikirde	-9.5116
▁duydu	-9.51221
▁hafif	-9.51275
▁öğrenciler	-9.51365
▁çin	-9.51425
▁kapalı	-9.51439
▁evlendi	-9.51466
▁çocuğu	-9.5155
▁adamı	-9.51635
▁arabamı	-9.5165
▁sır	-9.5169
▁görünmüyorsun	-9.51822
▁güldü	-9.51895
▁canım	-9.51938
▁tartışma	-9.51942
▁yoktur	-9.52026
▁yatmaya	-9.52181
▁üzere	-9.524
▁gitmesini	-9.52466
▁ekmek	-9.52591
▁yemeğinde	-9.5266
▁söylediğim	-9.52807
▁gideceğini	-9.52851
▁tatlı	-9.52969
▁çalışma	-9.52999
▁şişe	-9.5309
▁gittik	-9.53123
▁arkadaşların	-9.53185
▁tatil	-9.53254
▁yurt	-9.53289
▁ikiniz	-9.53424
▁açıkça	-9.53449
▁sandalye	-9.53656
▁cadde	-9.53899
▁ediyorsun	-9.53927
▁uyanık	-9.53981
▁mutsuz	-9.54141
▁avukat	-9.54187
▁ailem	-9.54234
▁teslim	-9.54298
▁içti	-9.54576
▁budur	-9.54598
nde	-9.547
▁sinirli	-9.54717
▁arıyor	-9.54788
▁alışkın	-9.5479
▁fikrini	-9.54814
▁çekici	-9.55096
▁vurdu	-9.55357
▁öğretmeni	-9.55547
▁değiştirdi	-9.55681
▁oyunu	-9.55687
▁inanıyor	-9.55696
▁okumayı	-9.55765
▁düşünmüyorum	-9.55766
▁arka	-9.55783
▁öptü	-9.5594
lardan	-9.56094
▁inanıyorum	-9.56159
lerden	-9.56208
▁gitmedi	-9.56371
▁etmiyor	-9.56405
▁anlattı	-9.56494
▁popüler	-9.56531
▁nefes	-9.56574
yu	-9.56718
▁olmam	-9.56781
sunuz	-9.56791
▁sevmez	-9.56817
▁sert	-9.5695
▁olduğunda	-9.57009
▁kesin	-9.57023
▁yerim	-9.57228
▁sebep	-9.57263
▁duymak	-9.57365
▁vermeyi	-9.57382
▁sorumlu	-9.57417
▁herkesi	-9.5749
cak	-9.57594
▁risk	-9.57599
▁dünyada	-9.57609
▁kardeşin	-9.57801
▁nazik	-9.57984
▁muydu	-9.58099
▁karısı	-9.58137
▁gerekiyordu	-9.58244
▁aldığını	-9.58318
▁golf	-9.58518
▁neydi	-9.58549
▁izledi	-9.58688
▁sevdiğin	-9.58724
▁bekledi	-9.58812
▁sorular	-9.58816
▁yapabileceğimiz	-9.59255
▁fotoğraf	-9.59299
▁verdin	-9.59319
▁baba	-9.59459
▁ayrılmak	-9.59479
▁istasyon	-9.59539
▁olsam	-9.59548
▁olacaksın	-9.59669
▁etmem	-9.59723
▁saniye	-9.5973
▁gelmesini	-9.59746
▁planı	-9.59896
▁çocukken	-9.59903
""	-9.59918
▁kilise	-9.59963
▁kalıyor	-9.60184
▁gemi	-9.60393
▁anlat	-9.60425
▁şaşırdım	-9.60484
▁bildiğim	-9.60535
▁iyisini	-9.60563
▁gönderdi	-9.60744
."	-9.60755
▁yatak	-9.60861
▁düşündüğüm	-9.60974
▁sürer	-9.60979
▁otel	-9.61018
▁olanlar	-9.61029
▁imkansız	-9.61057
▁görmedi	-9.61319
o	-9.61545
▁oğlu	-9.6189
▁hatırlıyor	-9.61931
▁zamanımız	-9.61948
▁yangın	-9.62
▁davrandı	-9.62047
▁pizza	-9.62121
▁sevdiğim	-9.62151
▁bitirmek	-9.62162
▁uçak	-9.6217
▁düşündüğün	-9.6248
▁normal	-9.62636
▁zamanlar	-9.62649
▁hatırlıyorum	-9.62657
▁adım	-9.62964
▁gelme	-9.63082
▁evinde	-9.63265
▁şüpheli	-9.63318
▁adil	-9.63373
ği	-9.63409
▁lise	-9.63429
▁haberi	-9.63452
▁değişti	-9.63527
▁veriyorum	-9.63614
▁olmayan	-9.6369
▁kayıp	-9.63722
▁olsaydı	-9.63882
▁ebeveynleri	-9.63972
▁şirket	-9.64088
▁dondurma	-9.64092
▁çalışacağım	-9.64112
▁belli	-9.64159
▁uykulu	-9.64247
▁bulundu	-9.64336
▁fikrin	-9.64467
▁arıyorum	-9.64601
▁dışı	-9.64671
▁işte	-9.64738
▁ettik	-9.64829
▁kişiydi	-9.64867
▁kibar	-9.64882
▁götürdü	-9.6494
▁ucuz	-9.64975
▁yiyor	-9.64985
▁toplantıda	-9.65063
▁unuttu	-9.65396
▁dersin	-9.65427
▁birbirimizi	-9.65495
▁inşa	-9.655
▁gülümsedi	-9.65593
▁hoşlanır	-9.65593
maya	-9.65851
▁öldürdü	-9.65972
▁iyiydi	-9.66035
▁not	-9.6627
▁günün	-9.66568
▁çiçek	-9.66695
▁yolda	-9.66881
▁hissediyor	-9.66922
▁sıkıcı	-9.67099
▁sahiptir	-9.67167
▁birbirlerin	-9.67302
▁söylüyorsun	-9.6737
▁boylu	-9.67375
▁çalar	-9.67375
dım	-9.67427
▁söyleyeceğim	-9.67535
▁hoşlanmıyorum	-9.67545
▁almadı	-9.67576
▁kırdı	-9.67687
▁söyleyen	-9.67711
y	-9.67721
▁yapmaz	-9.67808
▁denemek	-9.67814
▁ç	-9.67958
▁sesle	-9.68161
▁edemedi	-9.68166
▁öğretti	-9.68214
▁mağaza	-9.68219
▁kayak	-9.68285
▁sandviç	-9.68392
▁ölüm	-9.68402
▁dönecek	-9.68511
▁giyiyor	-9.68591
▁elini	-9.68704
▁anahtarı	-9.68777
▁konuştuğunu	-9.68795
▁ikimiz	-9.68795
▁öğrendim	-9.6882
▁okudu	-9.68901
▁geldiğinde	-9.68937
▁verici	-9.69042
▁sırasında	-9.69056
▁oynamayı	-9.69079
▁etmez	-9.69207
▁kamera	-9.6926
ıp	-9.69271
▁anlıyor	-9.69388
▁sürücü	-9.69454
▁çalışmayı	-9.69474
▁açıkladı	-9.69515
▁göze	-9.69722
▁konuşmam	-9.69908
▁olmayabilir	-9.6993
▁istifa	-9.70216
▁niye	-9.70415
▁sensin	-9.70497
▁düşünmek	-9.70533
▁baban	-9.70646
▁gerektiği	-9.70708
▁yapmayacağım	-9.70964
▁yazar	-9.70965
▁babasının	-9.70979
▁banyo	-9.70989
sen	-9.71049
▁buradayım	-9.7106
▁dönmek	-9.71091
▁çiçekler	-9.71106
▁yaşındayken	-9.7112
▁yılında	-9.71147
▁diledi	-9.71149
▁sekiz	-9.71252
▁kütüphane	-9.71353
ların	-9.71404
▁dedi	-9.71422
▁meyve	-9.71472
▁olmanı	-9.71511
▁bitirdi	-9.71595
▁deniz	-9.7162
▁sürekli	-9.71628
▁vermeyeceğim	-9.71643
▁ihtiyaç	-9.71687
▁cevabı	-9.71691
▁şüpheliyi	-9.71785
▁alma	-9.71883
▁şok	-9.71893
meliyiz	-9.71912
▁heyecanlı	-9.7208
▁ancak	-9.72181
▁içer	-9.72246
▁yaparken	-9.7226
▁görünüş	-9.72302
▁çocuklarını	-9.72333
▁çalışmıyor	-9.72504
▁sürpriz	-9.72595
▁iddia	-9.72721
▁gittin	-9.72728
▁aniden	-9.72755
▁kesti	-9.73002
çeri	-9.7302
▁etmeyecek	-9.73111
▁yetenekli	-9.73206
▁katta	-9.73388
▁yapabileceğim	-9.7343
▁kaçta	-9.73478
▁oğlum	-9.73524
▁etmemi	-9.73695
▁dur	-9.7374
▁açıklama	-9.73741
ğı	-9.73758
▁durumu	-9.73765
▁saçını	-9.73792
▁telefonu	-9.73954
▁fırtına	-9.74024
▁yakaladı	-9.74078
▁banka	-9.74104
▁almadım	-9.74204
▁edemem	-9.74288
▁kutuy	-9.74288
▁yapalım	-9.74305
▁buralarda	-9.74309
▁tutmaya	-9.74328
▁kalktı	-9.74521
▁istiyorsan	-9.74533
▁mutfakta	-9.74551
▁eskisi	-9.74685
▁ödemek	-9.74784
▁kere	-9.74844
▁kravat	-9.74857
▁kalacaksın	-9.74861
lu	-9.74887
▁olabilirim	-9.75057
▁şaşırmış	-9.75361
▁giden	-9.75372
▁bakmak	-9.75394
▁bildir	-9.75474
▁varsa	-9.75505
▁fiyat	-9.75529
▁gidebilir	-9.75631
▁istersin	-9.75642
▁olmalıyım	-9.75672
lerle	-9.75745
▁ödedi	-9.75778
▁karım	-9.75792
▁2013'	-9.7593
▁yakışıklı	-9.75947
▁sesi	-9.7599
tom	-9.76018
▁kazanmak	-9.76023
▁kalmadı	-9.76032
melisin	-9.76186
▁umuyor	-9.76241
▁mesele	-9.76354
▁meşgulüm	-9.76477
▁köprü	-9.76487
▁yapacağız	-9.76499
▁sandım	-9.76556
▁geldiğin	-9.76572
▁ayakkabı	-9.76612
▁bırakma	-9.7668
▁ellerini	-9.76787
▁kitaplar	-9.76849
▁yüzmeyi	-9.76876
▁kış	-9.76933
▁uzattı	-9.77025
▁bıraktım	-9.77154
▁otelde	-9.77426
▁nedeniyle	-9.7743
▁peki	-9.77506
▁kişinin	-9.77541
▁başa	-9.7763
▁ilgi	-9.77643
▁evlenmek	-9.77671
▁gençken	-9.77698
▁ceket	-9.77701
▁oynar	-9.77716
▁gelebilir	-9.77801
▁şansı	-9.77955
▁bakıyor	-9.7803
▁katı	-9.78111
▁korkmuş	-9.78131
▁beraber	-9.78247
▁hazırım	-9.78252
▁gözlerini	-9.78639
f	-9.78668
▁kaldık	-9.78682
▁verdiği	-9.78684
▁parasını	-9.78724
elim	-9.78785
▁sipariş	-9.78841
▁katılmak	-9.78956
▁kes	-9.79223
▁inanmıyorum	-9.7929
▁almam	-9.79296
▁yazık	-9.79344
▁eğitim	-9.79357
▁planlıyorum	-9.79399
▁ağrı	-9.79411
▁sınavı	-9.79607
larca	-9.79642
▁saatte	-9.79954
▁ses	-9.80017
▁başlıyor	-9.80142
▁yaşam	-9.80207
▁ilgisi	-9.80243
▁dinle	-9.80261
▁şemsiye	-9.80269
▁katıldı	-9.8028
inden	-9.80289
▁yeme	-9.80358
▁başkan	-9.80385
▁olun	-9.80476
▁işin	-9.80517
▁yanın	-9.80523
▁yola	-9.80706
şi	-9.80716
▁gelmiyor	-9.80756
▁kutu	-9.80842
▁şeyden	-9.80869
▁önemlidir	-9.80882
▁nedenini	-9.80894
▁"	-9.80969
▁yapamaz	-9.81013
▁şişman	-9.81026
▁verebilir	-9.81032
▁kazanacağını	-9.81084
▁ikinci	-9.8111
▁gördüğünü	-9.8118
ına	-9.81218
▁kadınlar	-9.81372
▁birbirleri	-9.81387
▁olası	-9.81436
▁raporu	-9.8154
▁20	-9.81554
▁edebilirim	-9.81626
▁bulaşıkları	-9.8176
▁kalmaya	-9.81807
▁hayatı	-9.81861
▁şaşkın	-9.81876
.""	-9.82059
▁gönüllü	-9.82119
▁şüpheleniyorum	-9.82142
▁odasını	-9.82146
▁yapmalıyız	-9.82171
▁aşk	-9.82212
larından	-9.82295
▁sorunları	-9.82307
▁gidiyoruz	-9.82321
▁şüphe	-9.82503
▁egzersiz	-9.82515
▁hızla	-9.82583
▁okudum	-9.82617
▁kaba	-9.82643
▁fakir	-9.82679
▁yapmaması	-9.82705
▁hadi	-9.82733
▁görüyorum	-9.82766
stediğin	-9.82825
▁çalışıyoruz	-9.82983
larına	-9.83022
sınız	-9.83295
▁30	-9.833
▁söyleyemem	-9.83327
▁doldurdu	-9.8335
▁bilet	-9.83411
▁hapiste	-9.83477
▁satranç	-9.83513
▁konuştum	-9.83517
▁ayakta	-9.8357
▁zordu	-9.83611
▁kime	-9.83614
▁bahçede	-9.83755
▁fazlasını	-9.83771
▁çıkma	-9.83784
▁geldiği	-9.83927
▁kazanma	-9.83933
▁bilim	-9.83957
▁çözüm	-9.83985
▁bağlı	-9.84013
▁oturuyordu	-9.84026
▁tutuklandı	-9.8404
▁iç	-9.84248
▁mıyız	-9.8427
▁arabam	-9.84351
▁başardı	-9.8442
▁işaret	-9.84448
▁öldürüldü	-9.8448
▁arabanı	-9.84636
▁çoktan	-9.84889
▁g	-9.85079
▁yedin	-9.85085
▁anlamıyor	-9.85112
▁geçirmek	-9.85154
▁kapat	-9.85192
▁erkekler	-9.85279
▁davranıyor	-9.85373
▁kulak	-9.85529
▁yapabileceğimi	-9.85612
▁cep	-9.85666
▁etmelisin	-9.85694
▁döneceğim	-9.8571
▁istersen	-9.85784
▁yapmış	-9.85786
▁zayıf	-9.85802
▁odası	-9.85836
▁kızlar	-9.8587
▁çek	-9.85894
▁etrafında	-9.85908
▁evet	-9.8596
▁kapının	-9.8621
▁görüşürüz	-9.86302
▁güvenilir	-9.86303
▁günlerde	-9.86373
▁çalma	-9.86422
▁hangisini	-9.86552
▁çabu	-9.86754
ini	-9.86774
▁zamanını	-9.8678
▁kalabalık	-9.86805
▁heyecan	-9.86822
▁izlemek	-9.86888
▁dili	-9.8689
▁hiçbiri	-9.86908
▁roman	-9.86926
nızı	-9.86959
▁sesini	-9.8698
▁mola	-9.87004
▁sevimli	-9.87084
▁kasaba	-9.87252
ünkü	-9.87278
▁miydi	-9.87328
▁ilgileniyor	-9.87509
▁kredi	-9.87528
▁gitmeliyim	-9.87545
▁bilen	-9.87624
ğine	-9.87839
kçe	-9.87886
▁izliyor	-9.87912
▁mıyım	-9.88085
▁yapmayacak	-9.88104
▁yağıyor	-9.88113
▁liste	-9.88117
▁lazım	-9.88143
▁kalacağız	-9.88151
▁korkarım	-9.88151
▁kirli	-9.88286
muş	-9.8831
zu	-9.88513
çe	-9.88619
▁olmadığımı	-9.88744
şler	-9.88768
▁hakkımda	-9.88805
lerinden	-9.8883
▁işleri	-9.89028
▁yan	-9.89044
▁söylediğimi	-9.89052
▁birinci	-9.89108
▁kimi	-9.89257
▁insanları	-9.89269
▁çikolata	-9.89284
▁adamın	-9.89336
▁ortak	-9.8938
▁nihayet	-9.89389
▁buldun	-9.89402
▁otur	-9.89429
▁bilmem	-9.89475
▁gözleri	-9.89516
▁bıktım	-9.89525
▁kafası	-9.89538
▁inanılmaz	-9.89579
▁avrupa	-9.89793
▁kullanıyor	-9.8987
▁bindi	-9.89891
inde	-9.89929
▁basketbol	-9.89943
▁mücadele	-9.89987
▁kalem	-9.89991
▁başlamak	-9.90114
▁yapabiliriz	-9.90122
▁planın	-9.90202
▁tanışmak	-9.90203
▁idi	-9.90335
▁yen	-9.9048
▁nehir	-9.90488
▁başlar	-9.90627
▁hangisi	-9.90649
▁tehdit	-9.90651
▁diş	-9.90754
▁yirmi	-9.90756
▁aldık	-9.9079
▁makine	-9.90946
▁sona	-9.90965
▁dışın	-9.91021
▁yemeyi	-9.91098
▁alın	-9.91238
▁şaşırtıcı	-9.91259
▁odasın	-9.91273
▁masum	-9.91411
▁endişelenme	-9.91435
▁başı	-9.91435
▁yapacaksın	-9.91489
▁eğitimi	-9.91497
▁treni	-9.91526
▁memnunum	-9.91595
▁sorunum	-9.91643
▁kek	-9.91834
▁kalan	-9.9185
▁sol	-9.91918
▁yapmalısın	-9.91956
▁tanımıyorum	-9.91959
▁çalıyor	-9.91973
▁proje	-9.91981
▁çalışıyorsun	-9.91994
▁üstüne	-9.92017
▁yapmamızı	-9.92021
▁sözünü	-9.92271
▁gitmemi	-9.92273
▁ediyoruz	-9.92296
▁yolunu	-9.92303
▁alması	-9.92308
▁geleceğim	-9.92333
▁okuyor	-9.92361
▁samimi	-9.92472
▁yapıldı	-9.92546
▁üçüncü	-9.92574
▁pencereden	-9.92681
▁gitmeme	-9.92778
kimiz	-9.92886
▁gitmesin	-9.929
▁kağıt	-9.92902
▁çocuklarım	-9.92922
▁korktuğun	-9.92952
▁yapamayacağını	-9.93116
▁yüzünden	-9.93131
▁özellikle	-9.93219
▁hariç	-9.93223
▁sabırsızlanıyor	-9.93224
▁buz	-9.93276
▁dinlemek	-9.93364
▁oynuyor	-9.93368
▁konuş	-9.93473
▁söylemem	-9.9365
▁köpeğini	-9.93686
▁kamyon	-9.9369
▁başında	-9.93694
▁vermeyecek	-9.93759
▁birbirlerini	-9.93784
▁azından	-9.93878
▁yıllardır	-9.93923
▁alıyorum	-9.93994
▁ruh	-9.94044
▁köpeğin	-9.94065
▁götür	-9.94226
▁hatırlayamıyor	-9.94235
▁yaş	-9.94252
▁benzer	-9.94281
▁öfkeli	-9.9429
▁annen	-9.94492
▁fransızcada	-9.9451
▁göründüğünü	-9.94541
▁edebileceğini	-9.94759
▁olmadığı	-9.94963
▁şeyimiz	-9.95207
▁isteyen	-9.95222
▁konuşan	-9.9523
▁okuma	-9.95295
▁bildiğin	-9.95315
▁dik	-9.95357
▁yemeğin	-9.95394
▁korkuyordu	-9.95438
▁ileri	-9.95517
▁geldin	-9.95529
▁zamanın	-9.95684
▁başladım	-9.95792
deki	-9.95846
▁kaybı	-9.95849
▁kurşun	-9.95864
▁bulmaya	-9.9588
▁amerikan	-9.95885
yken	-9.95906
▁kişisel	-9.95938
▁new	-9.96
▁yana	-9.96156
▁başarı	-9.96163
▁yardımı	-9.96191
▁duyduğum	-9.96277
▁etmekten	-9.96348
lerde	-9.96397
mızı	-9.96405
▁değiştirmek	-9.96568
▁kitapları	-9.96793
▁olduklarını	-9.96902
▁duyuyor	-9.96908
▁bitirdim	-9.97077
▁ölü	-9.97145
▁bugünkü	-9.97211
▁içiyor	-9.97293
▁plaj	-9.97345
▁altına	-9.97413
▁resmini	-9.9744
▁dön	-9.97503
▁sinemay	-9.9751
▁umuyordum	-9.9753
▁daire	-9.97569
▁gezi	-9.97638
▁cumartesi	-9.97892
▁şiddetli	-9.97962
▁giyiyordu	-9.97977
▁arayacağım	-9.98015
▁yapabileceğin	-9.9809
▁çarptı	-9.9815
▁telefonda	-9.98243
▁kalır	-9.98259
▁köpeğim	-9.98331
▁çevirdi	-9.98336
lığı	-9.98348
▁gösteri	-9.98374
▁aşağı	-9.98475
▁bağırdı	-9.98553
▁bırakmak	-9.98759
▁babamın	-9.9904
▁utangaç	-9.99192
▁intihar	-9.99275
▁kalacağını	-9.99355
▁restoranda	-9.99393
▁kararı	-9.99401
▁sene	-9.99405
▁sahibim	-9.99471
▁ele	-9.99587
▁yarım	-9.99653
▁doğdu	-9.99824
▁londra	-9.9996
▁şikâyet	-9.9996
▁numara	-10.0006
▁elimizde	-10.0007
▁adamdır	-10.0014
▁ayağ	-10.0021
▁taşındı	-10.0028
▁yılda	-10.0029
▁evimi	-10.0031
▁duydun	-10.0037
▁çıkıyor	-10.0038
▁rapor	-10.0039
▁tehlikede	-10.0048
▁bozuk	-10.005
▁duş	-10.0056
▁serbest	-10.0066
▁edemiyorum	-10.0067
▁yasa	-10.007
▁üniversitede	-10.0084
▁lisede	-10.0085
▁kayboldu	-10.0089
▁durdurdu	-10.009
▁yüzü	-10.0099
▁restoran	-10.0108
nsanların	-10.0142
▁konuştuk	-10.0144
▁evim	-10.0153
▁tehlike	-10.016
▁gördüğün	-10.0162
▁söyleyeceğini	-10.0166
▁içmeyi	-10.0169
▁rüya	-10.0174
▁evlenme	-10.0177
▁sayfa	-10.018
▁meşguldü	-10.0183
▁korku	-10.0192
▁kazada	-10.0203
▁harvard	-10.0207
▁öğrencisi	-10.0214
▁tedavi	-10.0216
▁masada	-10.0219
▁düşünmemiştim	-10.022
▁öğrenmeye	-10.0226
▁kamp	-10.0234
▁onda	-10.0241
▁duvar	-10.0247
▁kırık	-10.0254
▁ofis	-10.0258
▁düşündün	-10.0262
▁kapıya	-10.0268
▁çık	-10.0269
▁edelim	-10.0279
▁işler	-10.0284
▁istediğimiz	-10.0289
▁sabırlı	-10.0291
▁numarasını	-10.0297
▁kitabın	-10.0298
▁diğerleri	-10.0299
▁görmeyi	-10.0307
▁verildi	-10.0311
sel	-10.0333
▁kalma	-10.0347
▁york	-10.0352
▁vermezdi	-10.0363
▁er	-10.04
▁yağdı	-10.0402
▁sınav	-10.0409
▁isteksiz	-10.0411
▁vermeye	-10.0417
▁tekne	-10.0424
▁edersin	-10.0439
▁ilaç	-10.044
▁isteyeceğini	-10.044
▁istemediğin	-10.0448
▁söylemeyeceğim	-10.0492
▁paris	-10.0496
▁yapılacağını	-10.0497
▁oynadı	-10.05
▁uykuy	-10.0503
lara	-10.0509
▁hoşlanmadığını	-10.0509
▁seçim	-10.0513
▁eti	-10.0519
▁hatalar	-10.0522
▁görebilir	-10.0526
▁kaldığını	-10.0529
▁görüyor	-10.0531
▁isteyi	-10.0536
▁veriyor	-10.0563
▁duruyor	-10.0565
▁karmaşık	-10.0567
▁neyi	-10.057
▁sabahleyin	-10.0572
▁günlük	-10.0572
▁yaşar	-10.0579
▁düşük	-10.058
▁etmiyorum	-10.058
▁gerekirdi	-10.0583
▁fatura	-10.0585
▁kullanabilir	-10.0586
▁yatağ	-10.0588
▁bekliyoruz	-10.0588
▁tanıştım	-10.0588
▁otobüsle	-10.0588
▁öğrendi	-10.0599
▁olmadığından	-10.0602
▁olay	-10.0606
▁indi	-10.0608
▁yapmıyor	-10.061
acağım	-10.0611
mizi	-10.0616
▁suç	-10.0626
ğım	-10.0633
▁görmüyorum	-10.0646
▁hissetmiyorum	-10.0646
▁gerekecek	-10.0646
▁muyum	-10.0652
▁miydin	-10.0659
▁karşılaştım	-10.0662
▁yorgunum	-10.0674
▁vazgeçti	-10.0682
▁şarkıcı	-10.0684
▁müze	-10.0689
▁yarı	-10.0696
▁kazasında	-10.0717
▁çığlık	-10.0719
▁yağacak	-10.0719
▁çoğunlukla	-10.072
▁hapishanede	-10.0727
▁istemiyorsun	-10.0729
▁çaldığını	-10.0734
▁babasın	-10.0735
▁gönder	-10.0737
▁partisin	-10.0737
▁hayatımı	-10.0741
▁gitmiyor	-10.0742
▁bildin	-10.0744
▁bilmiyorsun	-10.0757
▁atladı	-10.0759
leşik	-10.0768
▁hayvanlar	-10.0768
esinden	-10.0768
▁olmadığın	-10.0777
▁rüzgar	-10.0777
▁etmeyin	-10.0778
▁giy	-10.0781
▁yaptırdı	-10.0783
▁yeşil	-10.0785
▁kafa	-10.0787
▁ısrar	-10.0793
lıkta	-10.0796
▁bakalım	-10.0797
▁temas	-10.0799
▁ağaç	-10.0809
tur	-10.081
▁bela	-10.0813
▁gündür	-10.0816
▁kimle	-10.0824
▁amcam	-10.0835
▁problemi	-10.0849
▁saçı	-10.0861
▁pratik	-10.0869
▁düzenli	-10.0878
▁aradım	-10.0903
▁arkasın	-10.0906
▁hoşlanmaz	-10.0908
▁havaalanın	-10.0911
▁ebeveynlerim	-10.0918
▁oyuncusu	-10.0925
▁durdurma	-10.0926
▁yapı	-10.0933
▁doğal	-10.0946
▁planlıyorsun	-10.0947
▁oradaki	-10.0949
▁sorunumuz	-10.0953
▁içecek	-10.0956
▁yaşadım	-10.0958
▁düşünmediğin	-10.0961
▁oturuyor	-10.0962
▁çoğunu	-10.0962
▁çocuğun	-10.0975
▁bilmiyoruz	-10.0985
▁ceketini	-10.0986
▁yaptığımız	-10.0987
▁testi	-10.0993
▁cesur	-10.1
▁şaşırdı	-10.1
mak	-10.1011
ün	-10.1015
▁gelmez	-10.1019
▁yazın	-10.102
▁gitmedim	-10.102
▁etmeni	-10.1023
▁ettiğin	-10.1025
▁veremem	-10.1026
▁yukarı	-10.1035
▁uyku	-10.1052
▁masaya	-10.1054
lamıyorum	-10.1066
meyeceğini	-10.1071
dığını	-10.1092
▁maalesef	-10.11
▁ayda	-10.1103
▁alacağını	-10.112
▁düşman	-10.1127
▁posta	-10.1127
nizi	-10.1131
▁tarzını	-10.1142
▁çiçekleri	-10.1153
▁olmazdı	-10.1154
▁gördüğümde	-10.1158
▁yürümek	-10.116
▁konuşması	-10.1166
▁olurum	-10.1172
▁yapmalıyım	-10.1181
▁bol	-10.1181
▁ettiğim	-10.1182
▁geçmeden	-10.1187
▁ebeveynlerin	-10.1188
▁kullandı	-10.1189
▁oturma	-10.1212
▁yapıyoruz	-10.1213
▁sürece	-10.1213
▁istemez	-10.1217
▁uyudu	-10.1221
▁takıyor	-10.1229
▁borçlu	-10.1239
▁kızım	-10.1247
▁edici	-10.1255
▁yapılacak	-10.1258
▁okumaya	-10.1259
sız	-10.1262
▁baktım	-10.1262
▁doktora	-10.1265
dum	-10.1269
▁sürecek	-10.1275
▁t	-10.1279
▁bahçe	-10.1289
▁göstermek	-10.131
▁müziği	-10.1323
posta	-10.1324
▁yapmalı	-10.1331
▁alay	-10.1332
▁affedersiniz	-10.1337
▁edeceğiz	-10.1337
▁açıkçası	-10.1341
▁gidiyorsun	-10.1344
▁yazmayı	-10.1346
▁olabilirdi	-10.136
ça	-10.1364
▁bisikleti	-10.1373
min	-10.1374
▁olmuştu	-10.1379
▁istasyonda	-10.1382
▁gitmiş	-10.1386
▁vermedim	-10.1391
▁suçladı	-10.1392
▁olanı	-10.1404
▁görev	-10.1406
▁yağmaya	-10.1406
▁çözme	-10.1407
▁kapıda	-10.1409
▁polisi	-10.1409
▁fırsat	-10.141
▁yürüy	-10.141
▁ağrıyor	-10.1414
▁parlak	-10.1416
▁geçirdik	-10.1416
▁konuşalım	-10.1417
▁yemin	-10.1421
▁ormanda	-10.1423
▁aramak	-10.1424
▁gördük	-10.1425
▁verdiğini	-10.1425
▁ağladı	-10.1427
▁yapabilirsin	-10.1427
▁olmalıyız	-10.1428
▁sorunlar	-10.1429
▁canlı	-10.1433
▁mil	-10.144
▁kuş	-10.1443
▁ödevimi	-10.1447
▁oku	-10.1448
▁dene	-10.146
▁geçiriyor	-10.1462
▁adresini	-10.1468
▁sırada	-10.1468
▁öneri	-10.1483
▁tarih	-10.1485
▁beklediğim	-10.1488
▁yararlı	-10.149
▁karanlık	-10.1493
▁gömlek	-10.1499
▁sonsuz	-10.1501
▁odam	-10.1501
▁konuşacak	-10.1502
▁yedik	-10.1505
▁kütüphanede	-10.1511
▁bahsetti	-10.1512
ebileceğini	-10.1515
▁sonuçlar	-10.1523
▁umut	-10.1528
▁verdik	-10.154
▁anlayamadı	-10.1541
▁çalışıyordu	-10.1546
▁kendisini	-10.1557
▁ayakkabılarını	-10.156
▁atıyor	-10.1569
▁tutar	-10.1573
▁tembel	-10.1575
abilir	-10.1577
▁profesyonel	-10.1578
▁uzandı	-10.1583
▁hayvana	-10.1592
▁bazıları	-10.1595
▁kokuyor	-10.1606
▁hoşum	-10.1608
▁söylememi	-10.1609
▁köpekler	-10.1611
▁yazdım	-10.1618
▁şehirde	-10.1624
▁kopya	-10.1629
▁vazgeç	-10.1641
▁renk	-10.1643
▁yarışı	-10.1656
▁görme	-10.1657
▁kolaydır	-10.166
▁harcadı	-10.1664
▁arabada	-10.1665
▁bulamadı	-10.1671
▁postane	-10.1676
▁sevdiği	-10.1679
▁değerli	-10.1679
▁gitmen	-10.168
▁iyilik	-10.1681
▁yanımda	-10.1682
▁vereceğini	-10.169
▁tanıdık	-10.1692
▁zorundaydım	-10.1699
▁çizgi	-10.17
▁test	-10.1701
▁yaşamıyor	-10.1703
▁otobüste	-10.1707
▁seçenek	-10.1713
▁geriye	-10.1717
ğımı	-10.1719
▁fiyatı	-10.1731
▁sözleşme	-10.1739
▁olmamız	-10.174
▁pişirdi	-10.1741
▁kat	-10.1742
▁flört	-10.1743
▁anlayamıyor	-10.1743
▁alice	-10.1743
▁yaşayan	-10.1743
▁öneriri	-10.1745
▁gördüğümü	-10.1751
▁yüzünü	-10.1761
sında	-10.1761
▁umutsuz	-10.1765
▁düşündüğü	-10.1765
▁sevmem	-10.1769
▁isterse	-10.1773
▁bekleme	-10.1792
stasyon	-10.181
▁doğruy	-10.1813
▁top	-10.1821
▁inatçı	-10.1822
▁cuma	-10.1826
▁âşık	-10.1826
▁düşündüren	-10.1827
▁kaldırdı	-10.1831
▁hoşlandığını	-10.1847
▁duymadım	-10.1852
▁giriş	-10.1884
▁açlık	-10.1887
▁konuşmaktan	-10.189
▁tarihi	-10.189
▁yapmanız	-10.1903
▁inanmadı	-10.1908
▁uğramış	-10.191
▁çalışmadı	-10.1914
▁gitmekten	-10.1918
▁parçası	-10.1918
▁acıktı	-10.1919
▁yapmada	-10.1927
▁yaparsın	-10.1927
▁yakalandı	-10.1927
▁fransa	-10.1949
▁ayın	-10.1952
▁ulaştı	-10.1952
▁kıskanç	-10.1978
▁uyumak	-10.1984
▁düşünmedi	-10.1985
▁mevcut	-10.1987
▁planlamadığını	-10.1998
▁tadı	-10.2
▁etmeliyiz	-10.2001
▁başlıyorum	-10.2004
▁eğlendi	-10.2005
▁oturmak	-10.2013
ğimi	-10.2022
▁sevdim	-10.2029
▁çanta	-10.2032
▁hatası	-10.2034
▁ailen	-10.2039
▁kuru	-10.2052
▁evime	-10.206
▁öğrendin	-10.2074
▁milyon	-10.2079
▁patron	-10.2089
ğinden	-10.209
▁yolun	-10.2091
▁isim	-10.2092
▁aşağıya	-10.2099
▁yarısı	-10.2104
▁cinayet	-10.2106
▁hepimizi	-10.2118
d	-10.2135
▁uzman	-10.2137
▁harita	-10.2142
▁altıda	-10.2142
ydim	-10.2143
▁anlamın	-10.2149
▁lezzetli	-10.2156
▁listede	-10.2158
▁allah	-10.2162
▁gitmelisin	-10.2167
▁alırım	-10.2172
▁bahse	-10.2172
yor	-10.2181
▁girmek	-10.2186
▁vakti	-10.2186
mıyor	-10.2197
▁alt	-10.2198
▁gelmesi	-10.221
▁salladı	-10.2211
▁iyimser	-10.2225
▁sözlük	-10.2227
▁dinlenme	-10.2235
▁saati	-10.2244
▁iyiyim	-10.2254
▁meydan	-10.2255
▁ağladığını	-10.2258
▁sorum	-10.2267
▁kuralları	-10.2267
▁kadarıyla	-10.2271
▁korumak	-10.2272
sinden	-10.2277
▁fransız	-10.2278
▁dikkatle	-10.2281
▁yılın	-10.229
▁gittiler	-10.2293
▁başlama	-10.2296
▁zamanki	-10.2301
▁kurtarma	-10.2302
▁tıraş	-10.2303
▁öğren	-10.2309
▁yemekten	-10.2326
ladı	-10.2332
▁ücretsiz	-10.2334
▁akıcı	-10.2342
▁iletişim	-10.2344
▁karanlıkta	-10.2344
▁hayvan	-10.2348
▁rastladım	-10.2349
mıştı	-10.2355
▁arama	-10.2359
▁pişirme	-10.2369
▁cesaret	-10.2377
▁kolunu	-10.2378
▁kişisin	-10.2384
▁ofisinde	-10.2391
▁karıştı	-10.2397
▁olacağımı	-10.2406
▁cümle	-10.2415
▁derecede	-10.2419
▁içme	-10.2424
▁söylemeni	-10.2425
▁öğrenme	-10.2425
▁teşvik	-10.243
▁görelim	-10.243
▁bebeği	-10.2432
▁grup	-10.2434
▁anlamak	-10.2439
yacağını	-10.245
▁geleceğin	-10.2453
▁dua	-10.2458
▁yolculuk	-10.2458
▁çorba	-10.2462
▁veya	-10.2463
▁aldığı	-10.2465
▁arkadaşını	-10.2479
▁zorundaydı	-10.2481
▁sorabilir	-10.2484
▁yatma	-10.2489
▁bağlantı	-10.2495
▁dönme	-10.2497
▁dediğini	-10.2502
▁topu	-10.2503
▁kanıt	-10.2508
▁başkanı	-10.2512
▁silahı	-10.2514
▁umurunda	-10.2519
▁altın	-10.2521
▁değişiklik	-10.2521
▁genelde	-10.2524
▁yapıyordu	-10.2529
▁kalın	-10.2541
▁sebebi	-10.2543
cı	-10.2547
▁istemiyoruz	-10.2567
▁hoşlanmam	-10.2573
▁güçlükle	-10.2578
▁amerikalı	-10.2589
▁anahtarlarını	-10.2598
▁yolunda	-10.2606
▁umuyordu	-10.2607
▁düşünmüştüm	-10.2613
▁gelmeyecek	-10.2615
▁faydası	-10.2616
▁seviyorsun	-10.2616
▁gözle	-10.2622
▁seçti	-10.2628
▁polisler	-10.2634
▁sarı	-10.2636
▁devletleri	-10.2637
▁ofiste	-10.2639
yuz	-10.2645
acak	-10.2654
▁uğradı	-10.2662
▁ters	-10.2662
▁okulun	-10.2666
▁büyüdü	-10.267
▁sanat	-10.2671
▁portakal	-10.2679
▁izler	-10.268
▁temizledi	-10.2696
▁başta	-10.2697
▁inkar	-10.27
▁hastalık	-10.2716
▁kurdu	-10.2719
▁patates	-10.2723
▁televizyonda	-10.2723
▁adında	-10.2726
▁ediyordum	-10.2728
▁kurallar	-10.2733
▁kasabada	-10.2737
▁yaşamayı	-10.2739
▁baskı	-10.2743
▁aşçı	-10.2743
▁sırrı	-10.2747
▁keyif	-10.2765
▁konuşmamız	-10.2778
▁gerekirse	-10.2797
▁başım	-10.2807
▁konuşmadı	-10.2815
▁iğrenç	-10.2826
▁kalmasını	-10.2829
▁radyo	-10.2833
▁oyuncak	-10.2838
▁dergi	-10.2844
▁çantasını	-10.2853
▁verdiler	-10.2862
▁insanın	-10.2863
▁kurabiye	-10.288
▁makul	-10.2884
▁kira	-10.2889
▁kimdir	-10.2889
▁sonun	-10.289
▁adımı	-10.2893
▁gitmeyecek	-10.2896
▁kurtardı	-10.2905
▁olmalıydı	-10.2911
▁barış	-10.2912
▁oğlan	-10.2913
▁japonca	-10.2925
▁alındı	-10.2928
▁kalp	-10.2928
▁dönüyor	-10.2935
larla	-10.2937
▁kullan	-10.2939
▁buradaydı	-10.2943
ğim	-10.2951
▁karnın	-10.2954
er	-10.2956
▁edemez	-10.2972
ngiltere	-10.2978
maktadır	-10.2979
▁eğildi	-10.298
▁çekiyor	-10.298
▁sırt	-10.2988
▁kanepede	-10.2989
▁kör	-10.299
▁video	-10.3003
▁göreceğim	-10.3006
▁sağlık	-10.3007
▁şeydir	-10.3008
▁gitmemiz	-10.3012
▁çalışacak	-10.3016
▁belada	-10.3025
▁etmemiz	-10.3026
▁ayı	-10.303
▁öğretmenim	-10.3035
▁yalancı	-10.3037
▁zorluk	-10.3061
bileceğini	-10.3067
▁uyumaya	-10.3077
amıyorum	-10.3084
▁aldığım	-10.309
▁ameliyat	-10.3092
mü	-10.3096
▁sevdiğimi	-10.3099
▁hoşlanmıyor	-10.3101
▁gözde	-10.3101
▁iyisin	-10.3104
▁saf	-10.3104
▁benimki	-10.3107
▁nasıldı	-10.3112
▁alamadı	-10.3114
▁karışmış	-10.3119
▁hayatım	-10.3121
▁vaktim	-10.3131
▁fırsatı	-10.3159
▁ayrıldığını	-10.3164
▁şaşırttı	-10.3168
▁problem	-10.3168
▁dilerim	-10.3168
▁unutmayacağım	-10.3168
▁etmeliyim	-10.3171
▁ağacın	-10.3171
▁izlemeyi	-10.3173
▁aradığını	-10.3175
▁tepki	-10.3178
▁tartışmak	-10.3182
▁yazmak	-10.3193
▁bulunmadı	-10.3195
▁ihtiyacınız	-10.3231
▁müsün	-10.3235
▁kalabilir	-10.3237
▁yara	-10.3239
▁saçma	-10.324
▁bitirmedi	-10.3246
▁bekar	-10.3249
▁bekledim	-10.3257
▁yapamadı	-10.3258
▁kilitli	-10.3263
▁pirinç	-10.3264
▁tanrı	-10.3264
▁büyüktür	-10.3268
▁işine	-10.3273
▁söyleyebilirim	-10.3274
ıyor	-10.3283
▁ülkede	-10.3289
▁miktarda	-10.329
▁konuşmaz	-10.329
▁kadını	-10.329
▁ağlamaya	-10.3295
▁bende	-10.3295
▁izle	-10.3303
re	-10.331
landı	-10.3311
▁kullanmak	-10.3316
▁yapın	-10.3317
▁yaktı	-10.3319
▁gelmeyi	-10.332
▁döneceğin	-10.3329
▁şehrin	-10.333
▁şehri	-10.3339
▁s	-10.3351
▁kızın	-10.3355
▁kyoto	-10.3361
▁epey	-10.3361
▁web	-10.3361
▁nakit	-10.3361
▁engelledi	-10.3361
ır	-10.3361
▁ilacı	-10.3376
▁nehirde	-10.3386
▁borç	-10.3389
▁seçeneği	-10.3395
▁olmayacağım	-10.3396
▁kullanır	-10.3404
▁günüm	-10.3407
sam	-10.3408
larımız	-10.3408
▁söylemelisin	-10.3411
▁ettiğimi	-10.3417
▁olmasaydı	-10.3418
▁tepe	-10.3426
▁istedin	-10.3439
▁kendiniz	-10.3442
▁sebebini	-10.3445
▁ağacı	-10.345
▁kardeş	-10.3454
▁edilmiş	-10.3456
▁gidemem	-10.3459
▁hemşire	-10.3459
▁sohbet	-10.3459
▁yüzebilir	-10.3459
▁yaratıcı	-10.3459
▁getirdim	-10.3462
▁üyesi	-10.3462
▁bekleniyor	-10.3464
▁dava	-10.3467
▁söylemesini	-10.3468
▁hali	-10.3478
▁makale	-10.3479
▁ediyorlar	-10.3481
▁yaptığımızı	-10.3505
yum	-10.3512
▁300	-10.3518
▁hükümet	-10.3521
▁duygularını	-10.3522
mıyorum	-10.353
▁sizden	-10.3539
ydu	-10.354
▁davran	-10.3544
ıyorum	-10.3552
▁döktü	-10.3564
▁çalışırken	-10.3566
h	-10.357
▁uyar	-10.3585
larımı	-10.3589
▁ettiği	-10.3592
▁bıçak	-10.3592
▁işimiz	-10.3598
▁endişeliyi	-10.3599
▁bunda	-10.3619
▁taş	-10.3633
▁silahını	-10.3633
▁anahtar	-10.3638
▁gitmeni	-10.364
▁yaralı	-10.3644
▁kaybetme	-10.3647
▁pul	-10.3648
▁izledim	-10.3649
▁bili	-10.3651
▁kalmış	-10.3652
▁saç	-10.3655
▁mahcup	-10.3657
▁domuz	-10.3658
▁doluydu	-10.3658
▁öneriyorum	-10.3659
▁talep	-10.366
▁incitmek	-10.3664
▁istemediğimi	-10.3677
▁çatı	-10.3679
▁eksik	-10.3686
▁gömleği	-10.3695
▁gideceğimi	-10.3704
ci	-10.3704
▁söylediler	-10.3705
▁değilsiniz	-10.3707
▁istiyordum	-10.3711
▁asker	-10.3712
▁olacağı	-10.3714
▁aydır	-10.3727
▁ağrısı	-10.3731
▁çocuklarına	-10.3736
▁annesinin	-10.3742
▁öldürmek	-10.3744
▁kazanır	-10.3749
▁döndüm	-10.3755
▁çılgın	-10.3756
▁gerekmediğini	-10.3765
▁almanya	-10.377
▁oradaydı	-10.3772
▁sahibiz	-10.3774
▁sıklık	-10.3775
▁korkuyorum	-10.3776
▁gitmeyeceğim	-10.3781
▁neyse	-10.3787
▁söylüyorlar	-10.3793
▁anlamadım	-10.3794
▁yolcu	-10.3795
▁anladı	-10.3799
▁yaparsan	-10.3803
▁gelecekte	-10.3809
▁olabilirsin	-10.3812
▁hırsız	-10.3816
▁gelmeyeceğini	-10.3817
▁sorunla	-10.382
▁isteme	-10.3826
▁açtım	-10.3827
▁gerektiğin	-10.384
▁kazanabileceğin	-10.3843
▁çalışırı	-10.3844
▁koltuk	-10.3847
▁alerji	-10.385
▁haftadır	-10.3854
▁genel	-10.3858
▁kahverengi	-10.3861
▁tatmin	-10.3861
▁gitmeliyiz	-10.3864
▁kararlı	-10.3865
▁anlamı	-10.3865
daydım	-10.3874
▁kokusu	-10.3875
▁etmeyeceğim	-10.3875
▁hale	-10.3896
▁yemedim	-10.3901
izi	-10.3907
▁arkadaşlarını	-10.3908
▁etmen	-10.3908
▁öğrencilerin	-10.3911
▁sebze	-10.3915
▁zamanıdır	-10.3923
mek	-10.3926
▁gücü	-10.3926
▁bahset	-10.3927
▁sanatçı	-10.393
▁istemem	-10.3932
▁bakma	-10.3949
▁güzeldi	-10.3955
▁müşteri	-10.3962
▁belge	-10.3965
▁düşünce	-10.3966
▁eğleniyor	-10.3966
▁karnınız	-10.3971
▁karısını	-10.3973
▁yerel	-10.3975
▁kaça	-10.3976
▁otobüsü	-10.3979
▁almamı	-10.3988
▁ışığı	-10.3991
▁odanı	-10.3995
▁araştırma	-10.3999
▁elde	-10.3999
▁kenar	-10.4002
▁partisi	-10.4014
▁gerekeni	-10.4019
▁mıydın	-10.4023
▁çalındı	-10.4026
lıyız	-10.4031
dayken	-10.4034
ngiliz	-10.4039
▁caddede	-10.4042
▁adamlar	-10.4046
▁bilmesini	-10.4051
▁deprem	-10.4066
eşlik	-10.4067
▁bomba	-10.4068
▁meryem	-10.4068
▁umuyoruz	-10.4076
▁ciddiye	-10.4077
▁kendimiz	-10.4078
▁nedenle	-10.4079
▁umduğunu	-10.408
▁paramı	-10.4083
▁içeride	-10.4084
▁manzara	-10.4096
▁satmak	-10.4097
▁sarıldı	-10.4099
ri	-10.4104
▁inanmak	-10.4112
▁kalkar	-10.4118
▁ayakkabılar	-10.412
▁cesareti	-10.412
▁bisikletini	-10.412
▁yardımını	-10.4126
▁farkı	-10.4128
▁olmayacağın	-10.4133
▁zamana	-10.4137
▁abd	-10.4139
▁değiller	-10.4143
▁kırk	-10.4147
▁ateşi	-10.415
▁taktı	-10.4153
▁yapardı	-10.4169
▁anlamaya	-10.4174
▁bankta	-10.4175
▁edilir	-10.4175
▁sanki	-10.4177
▁çalışarak	-10.4177
▁yaşamaya	-10.418
▁yaptılar	-10.4186
▁kata	-10.4188
▁alabilirim	-10.419
▁kazanacak	-10.4195
▁temel	-10.4197
▁oğlun	-10.421
▁sevdi	-10.4218
▁hiçbirini	-10.4219
▁durdur	-10.422
▁bekleyeceğim	-10.4226
▁söylediğinde	-10.4229
▁verdiğin	-10.4233
▁bakıyordu	-10.4236
▁geçirme	-10.4255
▁zamanımı	-10.4256
▁veren	-10.4258
▁çalışan	-10.4258
▁ye	-10.4262
liği	-10.4263
lerimi	-10.4277
▁belediye	-10.428
▁başlayalım	-10.428
▁sürmeyi	-10.4291
▁ince	-10.4292
▁gözlük	-10.4298
▁çalıştığı	-10.4301
▁kararını	-10.4304
▁matematik	-10.4307
▁yaşadığı	-10.4323
▁sensiz	-10.433
▁söyleyebilirsin	-10.4336
dü	-10.4339
▁saattir	-10.4345
▁seçeneğim	-10.4352
▁yazı	-10.4354
nu	-10.4355
▁söylemesi	-10.4356
▁geldik	-10.4356
▁suyun	-10.4357
mayacak	-10.436
▁ata	-10.4362
▁söylemeli	-10.4363
▁çirkin	-10.4373
▁şanslıydı	-10.4373
▁bankada	-10.4374
▁sahilde	-10.4376
▁olduk	-10.4379
▁canı	-10.4381
▁muhtemel	-10.4382
▁kocası	-10.4386
▁savaşı	-10.4388
▁katılıyorum	-10.4389
▁muhteşem	-10.4406
▁servis	-10.4411
▁gülümseme	-10.4417
▁yönetici	-10.4429
▁denedim	-10.443
▁günler	-10.4434
▁çekmek	-10.4435
▁güven	-10.4439
▁yapabileceği	-10.4443
▁düşünme	-10.4451
▁oyuncu	-10.4458
▁üzereydi	-10.446
▁örnek	-10.4464
▁tutuyor	-10.4488
▁yağ	-10.449
▁100	-10.4493
▁seçildi	-10.4496
▁harcama	-10.4499
▁istersiniz	-10.4519
▁garson	-10.4525
▁tehlikelidir	-10.4526
▁kalkmak	-10.4531
eceğim	-10.4537
▁yaptırmak	-10.4538
▁barda	-10.4542
▁iken	-10.4543
▁görünüyorlar	-10.4545
▁hediyesi	-10.4549
▁ederdi	-10.4553
▁sonuçları	-10.4554
▁yemeye	-10.4561
▁buradayız	-10.4565
▁sarhoştu	-10.4572
▁koydum	-10.4579
▁denedi	-10.4584
▁olacaktır	-10.4586
▁çıktım	-10.4588
▁açıklamak	-10.4591
▁etmeme	-10.4593
amayız	-10.4595
▁fiyatlar	-10.4597
▁yemem	-10.4597
▁yemedi	-10.4598
▁evlilik	-10.4602
▁açıktı	-10.4604
▁hizmet	-10.4605
▁yapabilecek	-10.4606
▁yüzer	-10.4607
▁beklediğini	-10.4607
▁ayrılma	-10.4611
▁gösterir	-10.4611
▁diliyoru	-10.4611
▁konuşurken	-10.4616
▁itti	-10.4624
▁aramaya	-10.4627
▁tuz	-10.4631
▁çalan	-10.4633
▁neredeydin	-10.4634
▁politika	-10.4636
▁okur	-10.4637
▁kazanıyor	-10.4641
ar	-10.4642
▁anladım	-10.4651
▁sinir	-10.4652
▁uğradım	-10.4657
▁kapısını	-10.4657
▁çalışmaktan	-10.4675
▁açar	-10.4684
▁deneyim	-10.4684
▁vermez	-10.4686
▁duyduğunu	-10.4698
▁saatimi	-10.4703
yelim	-10.4712
larının	-10.4713
▁daldı	-10.4713
▁tırmandı	-10.4716
▁bekleyin	-10.4718
▁gelince	-10.4722
▁çağrı	-10.4723
▁ailesini	-10.4723
mayacağım	-10.4725
▁kendisin	-10.4726
▁yasal	-10.4727
▁faydalı	-10.473
▁meraklı	-10.4731
mediğini	-10.4733
▁yerini	-10.4736
▁gıda	-10.4746
▁kazak	-10.4753
▁tuvalet	-10.4754
▁10	-10.4755
▁girme	-10.4756
▁kesme	-10.4758
▁bıçağı	-10.4767
▁istiyorlar	-10.4776
▁tavsiyesini	-10.4779
▁doğrudur	-10.4781
▁topladı	-10.4786
▁pencereleri	-10.4789
▁yanıt	-10.48
▁kişiyim	-10.4801
▁edeceğin	-10.4803
▁masasında	-10.4816
▁giyer	-10.4821
▁aklında	-10.4821
▁kural	-10.4825
▁konuşuyorsun	-10.483
abileceğini	-10.4846
▁trenle	-10.4857
▁bahçesin	-10.4858
▁inanmıyor	-10.4861
▁suçu	-10.487
▁çekildi	-10.4885
▁inanma	-10.4894
▁konferans	-10.4898
▁yüzünde	-10.49
▁mutluydu	-10.4908
▁kalbi	-10.4914
▁dinliyor	-10.4919
▁halinde	-10.492
▁dalga	-10.4923
▁sınavda	-10.4924
▁uyur	-10.4936
▁korkmuyor	-10.4939
▁okulu	-10.4941
▁yapmadık	-10.4942
▁elbette	-10.4944
▁gideceğiz	-10.4944
▁yapmayacağın	-10.4949
▁aklımda	-10.4951
▁alan	-10.4962
▁telefonunu	-10.4967
▁patronum	-10.497
▁minnettar	-10.4977
▁verilmedi	-10.4981
▁okudun	-10.4983
▁anahtarını	-10.4987
▁ortasında	-10.4988
ması	-10.4992
▁bulacağım	-10.4996
▁vergi	-10.5005
▁bayan	-10.5008
▁mağazada	-10.5009
▁soruları	-10.5009
▁süreceğin	-10.5009
▁şaşırmıştı	-10.5018
▁çamaşır	-10.5023
▁paramız	-10.5029
▁maliyeti	-10.5031
▁ihtimal	-10.504
▁ayakkabıları	-10.5041
▁yediğini	-10.5044
▁olmaması	-10.5057
▁söylemeyecek	-10.5058
▁gündü	-10.5059
at	-10.5062
▁yaparak	-10.5066
▁seveceğin	-10.5079
▁kara	-10.5081
▁güvenlik	-10.5083
▁sattı	-10.5085
▁dersi	-10.5086
▁etmeyeceğini	-10.5086
▁boşanma	-10.509
▁adın	-10.5093
▁olmamalı	-10.5097
▁b	-10.5097
▁yıllar	-10.5105
▁cüzdanını	-10.5115
▁kartı	-10.5132
▁yaptıklarını	-10.5132
▁işimi	-10.5145
▁etkilendi	-10.5153
▁sorma	-10.5156
▁içmeye	-10.5158
▁olsaydım	-10.5159
▁hatam	-10.516
sem	-10.5161
▁geniş	-10.5169
▁hapse	-10.5174
▁telaf	-10.5174
▁araya	-10.5175
▁sürüyor	-10.5175
▁çalıştık	-10.5176
▁bastı	-10.5176
▁gitmeli	-10.5182
▁kaçırdı	-10.5184
▁yeteneği	-10.5185
▁kanada	-10.5194
▁sabırsızlık	-10.5199
▁çevre	-10.52
▁işinde	-10.5205
▁oldular	-10.5207
▁odamı	-10.5218
▁bisikletimi	-10.5219
▁tutmak	-10.5226
▁yapardım	-10.5226
▁sayı	-10.523
▁şeyle	-10.5236
▁taşınma	-10.5243
▁araç	-10.5244
▁minnettarı	-10.5261
▁söylemen	-10.5267
▁umalım	-10.5292
▁borçluyum	-10.5292
▁özlüyorum	-10.5296
▁hoşlanırım	-10.5296
▁taze	-10.5297
▁şansım	-10.5301
▁elli	-10.5302
▁partisinde	-10.5304
▁hoşlanıyorum	-10.5309
▁aşkın	-10.5313
▁saklandı	-10.5316
▁dinledi	-10.5319
▁söylediklerini	-10.5319
▁tartıştı	-10.532
▁söylenti	-10.5322
▁yapmakta	-10.5324
▁koyu	-10.5325
▁sokakta	-10.5327
▁hakkı	-10.5334
▁askerler	-10.5334
▁servet	-10.5337
▁ağlıyor	-10.5341
▁karşıya	-10.535
▁pantolon	-10.5351
▁odadaki	-10.5352
▁dikkatini	-10.5353
▁hapishane	-10.536
▁yanı	-10.5362
▁karışık	-10.5362
stersen	-10.538
▁almasını	-10.5388
▁karın	-10.5389
▁yerli	-10.5391
▁adama	-10.5391
şimi	-10.5393
▁kanepe	-10.5397
▁görünüyordun	-10.5401
▁hasar	-10.5409
▁soğuktu	-10.541
▁ilgilenmiyorum	-10.5414
▁ağac	-10.5417
▁çıkmaya	-10.5422
▁oyna	-10.5436
▁harikaydı	-10.5446
▁paket	-10.5448
▁tartış	-10.5448
▁söylemeliydi	-10.5455
▁savaşta	-10.5461
stediğim	-10.5467
▁şemsiyesini	-10.5471
▁3	-10.5472
▁sende	-10.5476
▁temizle	-10.5478
▁yaptığında	-10.5483
▁fikirleri	-10.5485
▁yedide	-10.5486
▁yüzde	-10.5491
▁anladın	-10.5492
▁öğretmenin	-10.5492
▁değiştir	-10.5494
▁denemeye	-10.5499
▁sahne	-10.5503
▁olanları	-10.5505
▁sıkıntı	-10.5509
▁niyeti	-10.5521
▁söylemekten	-10.5521
▁gününde	-10.5526
▁ihanet	-10.5531
▁edemezsin	-10.5532
▁yakınında	-10.5534
▁idare	-10.5535
▁sakladı	-10.5536
▁hatırlamıyor	-10.5536
▁gitmiyorum	-10.5541
▁görüşmek	-10.5542
▁gerekmiyordu	-10.5543
▁düğün	-10.5544
▁tutun	-10.5547
acağız	-10.5548
▁boyadı	-10.555
▁sağlığı	-10.555
▁kışın	-10.555
▁arkadaşımı	-10.555
▁yaparız	-10.5552
▁bakar	-10.5553
▁şeylerin	-10.5554
▁şirketi	-10.5557
▁önceki	-10.556
▁seversin	-10.5568
▁öfke	-10.5577
bil	-10.5586
▁mısır	-10.5591
▁vaktinde	-10.5595
▁dağ	-10.5598
▁çalışıyordum	-10.5599
▁gitmiyorsun	-10.5609
▁arada	-10.5616
▁fıkra	-10.5624
▁uçuş	-10.5633
▁yaşıyordu	-10.5635
▁merdivenlerde	-10.5643
▁boya	-10.5645
▁telefonun	-10.5647
▁d	-10.5654
▁edeyim	-10.5654
▁yaşta	-10.5656
▁beğeniyorum	-10.5657
▁tavuk	-10.5662
▁hazırlanıyor	-10.5667
ğimizi	-10.5668
▁kurtuldu	-10.5674
▁seninki	-10.5678
ızı	-10.568
▁ederiz	-10.5683
▁yat	-10.5684
▁çöp	-10.5692
▁teklifi	-10.5693
▁cam	-10.5696
▁bitkin	-10.5697
▁zorla	-10.5703
▁geliyorum	-10.5707
▁etmeli	-10.5723
▁gelene	-10.5726
ydü	-10.5728
▁geride	-10.5729
▁geleceği	-10.5731
▁söylememe	-10.5736
yip	-10.5737
▁kalması	-10.5738
▁haberim	-10.5741
▁çocuğ	-10.5742
▁soruna	-10.5745
▁öpmek	-10.5745
▁güvenebileceğim	-10.5747
▁uyardı	-10.575
al	-10.5751
▁seç	-10.5755
▁selam	-10.5765
▁yapıyorlar	-10.5769
▁kahraman	-10.5774
meye	-10.5774
▁2013	-10.5774
▁kalmanı	-10.5774
ben	-10.5777
▁şekerleme	-10.5781
▁ediliyor	-10.5788
▁alabilirsin	-10.5799
▁tasarruf	-10.58
▁tesadüf	-10.5803
▁sürmesin	-10.5808
▁tanıştığım	-10.582
▁dilemek	-10.582
▁kaçırdım	-10.5821
▁karardı	-10.5834
▁istemek	-10.584
▁derse	-10.5841
▁kanser	-10.5851
▁öğrencileri	-10.5852
▁bırakıldı	-10.5855
madan	-10.586
▁kazandığını	-10.5866
▁yapamayacak	-10.5866
▁mobilya	-10.5872
▁kaldın	-10.5875
▁düğme	-10.5887
▁taraf	-10.5887
▁müzisyen	-10.589
▁nehrin	-10.5893
▁ödül	-10.5894
▁çalışkan	-10.5897
▁dikkatsiz	-10.5897
▁patlama	-10.5899
▁zar	-10.5901
▁edip	-10.5902
▁edeceğimi	-10.5903
▁yanlışlıkla	-10.5904
▁girerim	-10.5904
▁almalısın	-10.5906
▁sahil	-10.591
▁yaşıyorlar	-10.5913
▁anlamadı	-10.5915
▁dedim	-10.5924
▁etkili	-10.5927
▁yapamazdı	-10.5929
▁söylemiyorsun	-10.593
▁olmamı	-10.5931
▁zorladı	-10.5933
▁konuştun	-10.5935
▁etrafın	-10.5935
▁isteyecek	-10.5938
ecek	-10.5939
▁mıdır	-10.5949
▁keskin	-10.5951
▁mesajı	-10.5951
▁uzaklaştı	-10.5955
▁maçı	-10.5962
▁şansımız	-10.5963
▁çözdü	-10.5964
▁uyudum	-10.5969
▁hikayesi	-10.5975
mektedir	-10.598
▁süpermarket	-10.5991
larda	-10.6003
▁suçlandı	-10.6004
▁açmak	-10.6014
▁korkar	-10.6014
▁kitabını	-10.602
▁içtim	-10.6022
▁köpeğ	-10.6024
▁dokuz	-10.6027
▁katkı	-10.6028
▁çocuktu	-10.603
▁almalıyım	-10.6031
▁duran	-10.6033
▁geçmiş	-10.6038
▁erdi	-10.604
▁ilerleme	-10.604
kiniz	-10.6042
▁gördüğünde	-10.605
▁bırakın	-10.6054
▁ismini	-10.6057
▁doktoru	-10.6057
▁gitmez	-10.606
▁yaramaz	-10.6061
▁bankaya	-10.6063
▁ofisin	-10.6065
▁hayatın	-10.6075
▁yüzmek	-10.6075
liyim	-10.6093
luyorum	-10.6094
▁k	-10.6098
▁tadını	-10.6103
▁istediğiniz	-10.6103
▁tanımıyor	-10.611
▁gözü	-10.6112
▁ayrı	-10.6112
▁çalışması	-10.6113
▁motosiklet	-10.6123
▁şüpheci	-10.6135
dik	-10.6136
▁uyuyordu	-10.6137
▁geçiyor	-10.6146
▁kazanamayacağın	-10.6148
▁üzücü	-10.6156
miştim	-10.6168
▁eğlenceliydi	-10.6169
▁haklısın	-10.6169
▁çıkış	-10.6171
▁dahil	-10.6182
▁görmediğini	-10.6183
▁öğrenecek	-10.6183
▁trende	-10.6184
▁kale	-10.6185
▁öğretiyor	-10.6187
▁durumun	-10.6189
larımızı	-10.619
▁taşıyor	-10.6198
amaz	-10.6204
▁tanık	-10.6209
luk	-10.6214
▁kardeşimin	-10.6216
▁konuşmadım	-10.6219
▁biletleri	-10.6223
▁enerji	-10.6226
▁köpeğimi	-10.6231
▁gelmemi	-10.6233
▁makinesi	-10.6234
▁şimdilik	-10.6235
▁kutlama	-10.6242
▁başvuru	-10.6242
▁bahsetmedi	-10.6245
larında	-10.6245
▁gerektiğinde	-10.6248
amam	-10.625
şten	-10.6252
▁konuşmuyor	-10.6252
▁battaniye	-10.6255
▁kediler	-10.6271
▁ölmek	-10.6273
miyor	-10.6274
ğunu	-10.6279
▁yapılmış	-10.6283
▁beyefendi	-10.6286
▁uyuşturucu	-10.6286
▁çıkalım	-10.6288
▁çalabilir	-10.6288
▁dolma	-10.6288
▁çalışalım	-10.6289
▁tesadüfen	-10.6291
▁gidebilirsin	-10.6292
▁korkmadı	-10.6292
▁başlayacak	-10.6292
▁hatırlatıyor	-10.6298
▁yapmıyorum	-10.6298
▁uygulama	-10.6301
▁durma	-10.6301
▁olasılıkla	-10.6301
▁yaşıyorsun	-10.6302
▁çıplak	-10.6304
▁piknik	-10.6309
▁etmiş	-10.631
ledi	-10.6318
▁istendi	-10.6323
▁isteyebilirsin	-10.6325
▁iyisi	-10.6328
▁bekliyordum	-10.6331
▁yetişkin	-10.6334
▁astı	-10.6336
▁yapabili	-10.634
▁kendinizi	-10.6344
▁mutfak	-10.6354
▁alman	-10.6369
▁öğretmenimiz	-10.637
▁olmadığım	-10.6371
▁istasyonun	-10.6372
▁çal	-10.6377
▁vermelisin	-10.6383
▁bekliyordu	-10.6405
ımız	-10.6406
▁gibiydi	-10.6407
▁yerler	-10.6407
▁ışık	-10.6411
▁yarışma	-10.6412
▁korkutucu	-10.6418
▁çeşitli	-10.6419
▁yarış	-10.6428
▁merkezin	-10.643
▁açım	-10.6432
▁izlemekten	-10.6436
▁aklıma	-10.6436
▁uyarı	-10.6438
▁sevi	-10.644
▁götürmek	-10.6441
▁bilmeni	-10.6454
kinci	-10.6456
▁ha	-10.6458
▁etmemizi	-10.6458
▁kapa	-10.6458
▁gününü	-10.6459
▁itiraz	-10.646
▁öğreten	-10.6465
▁bakış	-10.6466
▁biriydi	-10.6469
▁şirketin	-10.647
lığına	-10.6475
daydı	-10.6477
ünü	-10.648
▁biletler	-10.6484
▁davranma	-10.6495
▁karşısında	-10.6498
▁hayran	-10.6502
▁gürültülü	-10.6502
▁bahçesinde	-10.6509
▁annesin	-10.6511
▁fabrika	-10.6513
▁koyun	-10.6517
▁güzeldir	-10.6521
▁ailemi	-10.6527
▁endişeliydi	-10.6527
▁olabileceği	-10.6529
iyorum	-10.653
▁verdiğim	-10.653
▁ofisim	-10.6536
▁çekmece	-10.6536
▁yazıyor	-10.6539
▁bisikletle	-10.6543
▁inanır	-10.6545
▁suçlama	-10.6549
▁emniyet	-10.6551
▁midir	-10.6553
▁pekala	-10.6553
▁pes	-10.6553
▁dertte	-10.6554
▁alalım	-10.6556
▁köpekleri	-10.6557
▁öğretebilir	-10.656
▁saldırgan	-10.656
▁usandım	-10.6563
▁ağzını	-10.6564
▁söylüyorum	-10.6564
▁önün	-10.6567
▁lobide	-10.6568
▁sakladığını	-10.6569
▁hazırladı	-10.6573
▁bitmedi	-10.6582
klerini	-10.6585
▁kalanını	-10.6586
▁davranıyorsun	-10.659
▁nesi	-10.6591
▁müdür	-10.6591
▁yürümeye	-10.6592
▁evrak	-10.6593
▁deneme	-10.6595
▁yatağın	-10.6596
▁a	-10.6606
▁fena	-10.6609
▁sonuç	-10.6609
▁yaşındaydı	-10.6615
▁benzin	-10.6623
▁elmalar	-10.6624
▁türlü	-10.6632
▁ilişki	-10.6636
▁kral	-10.6642
lıyım	-10.6643
▁planım	-10.6645
▁anlam	-10.6656
▁peynir	-10.6657
▁duymadı	-10.6661
▁kullanma	-10.6662
sinde	-10.6664
▁öğret	-10.6664
▁cimri	-10.6671
▁harcıyor	-10.6674
▁kaya	-10.6675
▁şiiri	-10.668
▁sınıfın	-10.6684
▁motive	-10.6686
▁özleyeceğim	-10.6686
▁klasik	-10.6686
▁terfi	-10.6686
▁yapılır	-10.6688
▁alamam	-10.6688
▁etmiyorsun	-10.6689
g	-10.6689
▁sanıyorum	-10.6689
▁kazası	-10.669
▁yorgundu	-10.6691
▁kalmam	-10.6693
▁istemeyeceğin	-10.6694
▁aramadı	-10.6705
▁öğreniyor	-10.6707
▁bugünlerde	-10.671
▁nehri	-10.6718
▁müthiş	-10.6723
▁kaydı	-10.6723
▁adamsın	-10.6726
▁konuşmasını	-10.673
▁çıkarmak	-10.6733
▁yapmadın	-10.6735
▁uçakta	-10.6747
▁alamadım	-10.6747
▁hız	-10.675
▁kızgındı	-10.6751
leyin	-10.6756
▁söyleyebileceği	-10.6756
▁oğlunu	-10.6758
▁vermem	-10.6758
▁kişiyi	-10.6773
▁kardeşini	-10.6774
yalım	-10.6779
▁gördüğü	-10.678
bu	-10.6781
klarını	-10.6783
▁kalktım	-10.6793
▁istemediği	-10.6798
▁merkezinde	-10.6804
▁ayrıca	-10.6805
▁satış	-10.681
▁gençsin	-10.6816
▁düşündüğümü	-10.6818
▁evlat	-10.6822
▁utanç	-10.6825
▁ceza	-10.6825
tu	-10.6828
▁deri	-10.6829
eceğiz	-10.6832
▁yarısında	-10.6837
▁yorum	-10.684
▁yemez	-10.6842
iyor	-10.6842
▁kot	-10.6844
▁hayatımda	-10.6845
▁yarayacağın	-10.6851
▁kutuda	-10.686
▁yıldız	-10.6862
on	-10.6863
▁şarabı	-10.6867
yü	-10.6868
▁göstereceğim	-10.6882
▁götüreceğim	-10.6883
suz	-10.6888
▁randevu	-10.689
▁tereddüt	-10.6891
▁dönmedi	-10.6893
▁diyet	-10.6911
▁takımın	-10.6914
▁yapmazdı	-10.6914
▁ağlama	-10.6919
▁kedim	-10.6942
▁kalk	-10.6943
▁güç	-10.6945
▁kızla	-10.695
▁bilgisayarı	-10.695
▁yazmaya	-10.6954
▁olamazsın	-10.6958
▁nadir	-10.6961
▁havaalanında	-10.6962
▁kum	-10.6962
▁olağanüstü	-10.6962
▁merhaba	-10.6963
▁yapacağı	-10.6963
▁ayrıntılı	-10.6964
▁alışkını	-10.6965
▁konuşamadığını	-10.6967
▁seçeneğimiz	-10.6968
▁anahtarlarımı	-10.6968
▁sempatik	-10.697
▁cüzdanımı	-10.6974
su	-10.6975
▁dokunma	-10.6978
▁şemsiyemi	-10.6982
▁yapacağımızı	-10.6983
▁sefere	-10.6987
▁c	-10.6995
▁cebinde	-10.7
▁ilgilen	-10.7003
▁takımımız	-10.7005
imiz	-10.7008
▁reddediyor	-10.7008
▁bostonlu	-10.7011
▁şiddet	-10.7012
▁gelmeni	-10.7014
▁saatlerde	-10.7014
▁büyükannem	-10.7019
▁pilot	-10.702
▁istiyorsunuz	-10.7023
▁annemin	-10.7033
▁bendim	-10.7033
▁havada	-10.7034
ayım	-10.7038
▁kayıt	-10.7038
▁aldığın	-10.7042
malıydım	-10.7043
nün	-10.7046
▁moda	-10.7052
▁yüzdü	-10.7055
▁kart	-10.7065
▁bulduk	-10.7067
▁yapmamam	-10.7072
▁program	-10.7073
▁pikniğ	-10.7076
▁saatim	-10.7077
▁dile	-10.708
▁görür	-10.7082
▁kalmıştı	-10.7086
▁giysiler	-10.7092
rken	-10.7094
▁kafam	-10.7097
hayır	-10.7097
▁destek	-10.7101
▁meksika	-10.7103
▁edebilecek	-10.7103
▁aktif	-10.7103
▁yiyelim	-10.7103
▁yumuşak	-10.7104
▁edilebilir	-10.7104
▁bahsetme	-10.7105
▁niyetim	-10.7109
▁gözlerim	-10.7111
▁hakaret	-10.7112
▁bulmam	-10.7113
▁cebin	-10.7119
▁yapamadığını	-10.7122
▁bölge	-10.7126
▁caddesinde	-10.7132
▁koku	-10.7138
▁gelin	-10.7143
▁binada	-10.7143
▁gaz	-10.7144
▁memuru	-10.7145
▁fotoğrafı	-10.7149
▁çeker	-10.715
▁aldınız	-10.7151
▁bas	-10.7152
▁oğlunun	-10.7154
ebilir	-10.7161
mayacağını	-10.7169
▁mektubunu	-10.7173
▁görmekten	-10.7174
▁iade	-10.718
▁severler	-10.7184
▁seyirci	-10.7194
▁sormadı	-10.7196
▁boyun	-10.7198
▁seviyordu	-10.7204
▁vuruldu	-10.7205
▁şeydi	-10.7207
▁saçımı	-10.7207
▁patronun	-10.7217
▁varır	-10.7228
şin	-10.7231
▁planlamıyor	-10.7234
yeceğini	-10.7236
▁tıp	-10.7241
▁filmin	-10.7242
▁katılma	-10.7244
▁söyleyin	-10.7244
▁yüzün	-10.7245
;	-10.7246
▁poker	-10.7246
▁kilometre	-10.7246
▁boğuldu	-10.7247
▁olmamış	-10.7248
▁amacı	-10.725
▁göremiyorum	-10.7251
▁söyleyeceğimi	-10.7252
▁his	-10.7254
▁bağladı	-10.7258
▁çantası	-10.7258
▁olmasa	-10.7258
▁verelim	-10.7261
▁durduramaz	-10.7267
▁hakkın	-10.7269
▁lamba	-10.7272
▁anladığını	-10.7273
▁yaralanmadı	-10.7274
▁gecesi	-10.7277
▁gözüküyor	-10.7281
▁atın	-10.7282
▁bildiğimi	-10.7292
▁bitirdin	-10.7294
▁çıkmadı	-10.7295
▁etkilendim	-10.7298
▁yapamadım	-10.7309
▁takımı	-10.7313
▁kullanmayı	-10.7323
▁insanı	-10.7342
▁sildi	-10.7354
▁aradığın	-10.7356
▁dağın	-10.7357
▁dilim	-10.7368
▁giymek	-10.7373
▁şansın	-10.7374
▁niyet	-10.7378
▁kuşlar	-10.7381
▁kaldılar	-10.7381
liğin	-10.7382
▁odur	-10.7383
▁korkak	-10.7387
▁elektrik	-10.7388
▁çaba	-10.7388
▁resimleri	-10.7391
▁konsantr	-10.7391
▁ambulans	-10.7391
▁fuji	-10.7391
▁dişçi	-10.7392
▁öyleyse	-10.7393
▁dokuzda	-10.7394
▁görebiliyorum	-10.7395
▁mutluluk	-10.7398
▁duruyordu	-10.74
▁bağlıdır	-10.7411
▁kaybetmek	-10.7411
▁edebilirsin	-10.7412
▁der	-10.7417
▁gökyüzü	-10.7419
▁şapkasını	-10.7421
▁hataydı	-10.7424
▁korktum	-10.7425
sak	-10.7426
▁randevum	-10.7427
▁getirir	-10.743
▁girmesin	-10.7435
▁gülme	-10.7435
▁ederler	-10.7441
▁kullanabilirsin	-10.7448
▁kendisinin	-10.7448
üyle	-10.7451
▁eşi	-10.7451
bir	-10.7454
▁olduğunuz	-10.7456
lığ	-10.7458
yarak	-10.7465
▁gittiğinde	-10.7467
▁saatin	-10.7477
lerinde	-10.7481
▁tatili	-10.7483
▁almamız	-10.7492
▁odamda	-10.7496
▁dek	-10.7498
▁gitmemizi	-10.7499
meyeceğim	-10.7499
▁bilmediğimi	-10.7503
▁bahar	-10.7511
▁salonun	-10.7512
▁düz	-10.7513
rtesi	-10.7515
▁seçimi	-10.7521
▁çağırdı	-10.7523
▁buzdolabında	-10.7527
▁sahte	-10.7538
▁çalışmanı	-10.7539
▁edilemez	-10.7539
▁açıklayabilir	-10.7541
▁ünlüdür	-10.7542
▁duyduk	-10.7543
▁farkındayım	-10.7543
mayı	-10.7545
▁bitir	-10.7546
▁18	-10.7555
▁durdurmaya	-10.7566
▁satar	-10.7574
▁imzaladı	-10.7576
▁gelmeye	-10.7576
▁gir	-10.7578
▁güney	-10.7581
tim	-10.7581
▁ihtimali	-10.7583
▁buluşma	-10.7583
▁boyu	-10.7588
▁kedisi	-10.7589
▁söylemezdi	-10.7591
▁ödevinde	-10.7602
▁benziyorsun	-10.7604
▁teklifini	-10.7604
▁kalmayacak	-10.7606
▁arabasında	-10.7608
▁saldırı	-10.7614
▁kendimizi	-10.7616
▁özgür	-10.7632
3	-10.7632
▁zamanlı	-10.7633
▁paten	-10.7635
▁ölmüş	-10.7637
▁romanı	-10.7637
▁önde	-10.7639
▁cezası	-10.7639
▁okulumuz	-10.7656
▁çiğ	-10.766
▁bakın	-10.766
▁elbiselerini	-10.7662
▁dar	-10.7664
▁türü	-10.7666
▁takımda	-10.7669
▁riski	-10.7671
▁hastaydı	-10.7677
▁ahşap	-10.7687
▁vahşi	-10.7687
▁icat	-10.7687
▁söyleyeyim	-10.7687
▁yalvardı	-10.7688
▁yağarsa	-10.7688
▁yapamayız	-10.7689
▁haydi	-10.769
▁uyuduğun	-10.769
▁yemeklerini	-10.7693
▁gidebilirim	-10.7695
▁kocam	-10.7695
▁hırslı	-10.7699
▁öldürmeye	-10.7701
▁numarası	-10.7704
▁ilgilenecek	-10.7705
▁hangisidir	-10.7708
▁akraba	-10.7711
▁yapıyorsunuz	-10.7718
▁dersleri	-10.7724
▁yıllık	-10.7726
▁gereklidir	-10.773
▁ulaşma	-10.7732
lü	-10.7735
▁kırıldı	-10.7749
▁isteyebileceğin	-10.7754
▁canını	-10.7757
▁evcil	-10.776
sek	-10.7761
▁alkol	-10.7765
şini	-10.7768
▁çalmaya	-10.7773
▁merdiven	-10.7774
▁çalışmalısın	-10.7774
lerimiz	-10.7779
▁tanıdığını	-10.7783
▁konuşamam	-10.7784
▁ekonomi	-10.779
▁bisikletim	-10.78
▁radyoy	-10.7802
▁olasılık	-10.7814
▁düşünmüyordu	-10.7818
▁fare	-10.7822
▁kaldır	-10.7829
▁düşünüyoruz	-10.7831
▁sınır	-10.7836
▁açabilir	-10.7836
▁ümit	-10.7838
▁civarda	-10.7839
ğından	-10.784
▁çocuğum	-10.784
▁takma	-10.7841
▁sıkılmış	-10.7842
▁konuşacağını	-10.7844
▁yaşadığım	-10.7844
▁üçü	-10.7848
▁düşünü	-10.7849
▁ısmarladı	-10.785
▁kuzey	-10.7851
▁satıyor	-10.7853
▁edebiliriz	-10.7862
▁dinlemeyi	-10.7864
▁kolye	-10.7865
▁gerekiyorsa	-10.7871
▁dosya	-10.7877
▁bozuldu	-10.788
▁kaybedecek	-10.788
▁yapmadığın	-10.7882
▁kasa	-10.7882
▁hazırız	-10.7882
▁kolaydı	-10.7883
▁bekleyebilir	-10.7885
▁temizleme	-10.7886
▁ödevim	-10.7886
▁resimler	-10.7887
▁alamaz	-10.789
▁dinler	-10.7891
▁geçir	-10.7896
▁salata	-10.7898
▁yardımınız	-10.7902
▁maaş	-10.7904
▁ihtimalle	-10.7907
▁doktorun	-10.7913
▁işçi	-10.7915
▁öldüğünde	-10.7916
mın	-10.7919
▁severdi	-10.7919
▁ışıkları	-10.792
▁hataları	-10.7923
▁asansör	-10.7924
▁paranı	-10.7925
▁buluşacağım	-10.7925
▁çocuklarımı	-10.7926
▁sola	-10.7934
▁mahkum	-10.7943
▁camı	-10.7947
▁ücret	-10.7948
▁kovuldu	-10.7949
▁tarzı	-10.795
▁sabahı	-10.7953
▁gittiği	-10.7956
▁doktorlar	-10.796
▁havuz	-10.7973
▁uzat	-10.7973
▁eşya	-10.7973
▁çaresiz	-10.7976
▁geldiğimde	-10.7977
▁çıkmayı	-10.7977
▁bencil	-10.7978
▁fikrimi	-10.7979
▁bulmadı	-10.7981
▁yaygın	-10.7984
▁romantik	-10.7986
▁yudum	-10.7992
▁değişim	-10.7993
▁chicago	-10.7993
▁metre	-10.7993
▁korkmuştu	-10.7994
▁ikisini	-10.7995
▁kısme	-10.7995
▁yattı	-10.7996
ran	-10.8002
▁ölme	-10.8002
▁bildirdi	-10.8003
▁dağı	-10.8004
▁almanca	-10.8004
▁ilgileniyorum	-10.8007
▁bilseydim	-10.801
▁yürümeyi	-10.801
▁yıkar	-10.801
▁yemiyor	-10.8016
▁vermesi	-10.8017
▁atmak	-10.8019
▁halı	-10.8021
ında	-10.8022
▁takılmak	-10.8031
▁hesap	-10.8032
▁araban	-10.8035
▁mahkeme	-10.8036
▁geçiniyor	-10.8041
▁gül	-10.8045
▁sorundur	-10.8045
▁almama	-10.8048
▁kır	-10.805
▁ölümün	-10.8053
▁almaz	-10.8056
▁dişlerini	-10.8061
▁ağrım	-10.807
larıyla	-10.8072
▁kilitledi	-10.8073
▁annesini	-10.8073
▁peşinde	-10.8077
▁ofisi	-10.8079
▁komite	-10.808
▁kur	-10.8086
▁dönem	-10.8089
▁muz	-10.8091
▁uzundur	-10.8096
sün	-10.8096
▁şanssız	-10.8099
▁edilmedi	-10.8102
▁olsan	-10.8104
▁üye	-10.8109
▁unuttun	-10.8112
▁bilmen	-10.8113
▁konuşabile	-10.8114
▁ismi	-10.8121
▁kitabım	-10.8123
▁tatilde	-10.8128
▁attım	-10.8135
▁sessizdi	-10.8137
▁etrafta	-10.814
▁işsiz	-10.8144
▁afrika	-10.8149
▁etkileyici	-10.8149
▁köşede	-10.8152
▁fizik	-10.8153
▁sinirlendi	-10.8153
▁değmez	-10.8153
▁eğlendik	-10.8153
▁davranışı	-10.8159
b	-10.8162
▁söylerim	-10.8164
▁parmak	-10.8167
▁oynamaktan	-10.8173
▁doğrudan	-10.8175
▁sonucu	-10.8176
▁olamam	-10.818
▁sürebilir	-10.8181
▁uyandır	-10.8181
▁tartışmaya	-10.8188
▁giyme	-10.8195
▁temizlemek	-10.8202
▁bilgisayarını	-10.8204
▁buluş	-10.8204
▁şiir	-10.8205
▁plana	-10.8208
▁olalım	-10.8213
▁tablo	-10.8217
▁sabırsız	-10.8225
liğini	-10.8226
▁sizce	-10.8228
▁çalışıyorlar	-10.8233
lıyor	-10.8233
el	-10.824
▁keman	-10.824
▁düşürdü	-10.8241
▁pişmanı	-10.8256
▁kalmamı	-10.8261
▁yasak	-10.8263
▁sekizde	-10.8264
▁matematikte	-10.8266
▁sınıfında	-10.8269
▁değiştirebilir	-10.827
imi	-10.8272
htiyacım	-10.8278
▁konuşmacı	-10.8284
▁krizi	-10.8285
▁düşünmeye	-10.8293
▁cenaze	-10.8299
stediğini	-10.83
▁yazılmış	-10.8305
▁çalmak	-10.8305
▁modern	-10.8308
▁müdahale	-10.8308
▁patlak	-10.8308
▁şirin	-10.8308
▁yağar	-10.8308
▁polisin	-10.8308
▁açın	-10.831
▁ertelendi	-10.8311
▁fikirdeyim	-10.8315
▁gözlüğünü	-10.8316
▁eli	-10.8317
▁sürmek	-10.833
▁büyükbabam	-10.8338
▁görmedik	-10.8344
▁yüzücü	-10.8349
▁beğenmedi	-10.835
▁uyandı	-10.8352
din	-10.8356
▁sahipsin	-10.8366
▁ayrılıyor	-10.8368
▁taşıdı	-10.8368
▁fiyatları	-10.837
▁tarzın	-10.8374
▁hindistan	-10.8385
▁arkadaşız	-10.8386
▁dakik	-10.8387
▁ölümü	-10.839
dayım	-10.8394
▁restorana	-10.8395
▁maç	-10.8404
▁doğdum	-10.8405
▁ayrıldım	-10.8414
▁gözlüğü	-10.8417
▁yiyeceği	-10.8422
▁vermemi	-10.8425
▁iste	-10.8433
▁model	-10.8435
▁anlatmak	-10.8437
▁ağzı	-10.8439
▁kırdım	-10.8443
▁babasını	-10.8443
▁çalışmam	-10.8445
▁bulundum	-10.8447
▁kurtul	-10.8449
▁gönderdim	-10.8453
▁sırası	-10.8454
▁düşünür	-10.8459
▁umursamıyor	-10.8461
▁oturdum	-10.8464
▁bar	-10.8464
▁öğrenmedi	-10.8467
▁cd	-10.8469
▁tak	-10.8471
▁hoşça	-10.8472
▁yürür	-10.8474
▁akıllıca	-10.848
▁tanır	-10.8481
▁hatırlayamadı	-10.8482
▁bilgisi	-10.8485
▁yiyorum	-10.8488
rdı	-10.849
▁adamla	-10.8491
▁yabancılar	-10.85
▁olurdum	-10.8502
▁etmediğini	-10.8506
▁gücüm	-10.8507
▁konuşurum	-10.8511
▁apartman	-10.8512
▁bulacak	-10.8512
▁bunalımlı	-10.8514
▁koşar	-10.8523
▁rengi	-10.8526
▁ofisimde	-10.8526
▁yangını	-10.8528
▁r	-10.8528
▁arkadaşlarımı	-10.8533
▁yapıyordun	-10.8534
▁taşır	-10.8544
▁izleri	-10.8544
▁yaklaştı	-10.855
▁ayrıntı	-10.8553
▁partimiz	-10.8554
.000	-10.856
▁sevecek	-10.8563
▁yiyebilir	-10.8572
▁duvarda	-10.8578
▁huzursuz	-10.858
▁balığı	-10.8583
▁çıkacak	-10.8587
▁başla	-10.8587
▁değildin	-10.8587
▁vardım	-10.859
▁yağacağın	-10.8599
▁kızdı	-10.8602
▁telaffuz	-10.8603
▁hastalığı	-10.8604
saydım	-10.8607
▁konuşacağım	-10.8607
▁köy	-10.8608
ba	-10.8611
▁güvenmiyor	-10.8616
▁deneyeceğim	-10.8617
▁adamdı	-10.8626
▁hukuk	-10.8633
▁gerektirir	-10.8633
▁civarında	-10.8633
▁ilgileneceğim	-10.8633
▁aday	-10.8633
▁ödülü	-10.8634
▁oynayalım	-10.8634
▁yapılmıştır	-10.8637
▁tanıyorsun	-10.8637
▁yemediğini	-10.8637
▁yapmıyorsun	-10.864
▁sıcaktı	-10.8644
▁anahtarları	-10.8647
▁bilecek	-10.8648
▁deme	-10.8652
▁yüze	-10.8657
sanız	-10.8659
▁gidin	-10.8662
▁yarar	-10.8668
▁şaşırmadım	-10.8668
▁deneyimi	-10.8671
▁kamyonu	-10.8675
▁köyde	-10.8681
▁caddesi	-10.8682
kuyorum	-10.8689
şleri	-10.8696
▁salonunda	-10.8699
▁devlet	-10.871
▁bulamadım	-10.8718
▁nazikti	-10.8718
▁beklediğimiz	-10.872
▁buluştu	-10.8724
0	-10.8726
▁bırakacağım	-10.8727
▁memnundu	-10.8743
yacağız	-10.8743
▁hesabı	-10.8745
▁geceleri	-10.8761
▁çöpü	-10.8762
▁değildik	-10.8763
lerimizi	-10.8765
▁aklı	-10.877
▁mali	-10.8772
ur	-10.8773
nsan	-10.8773
▁oyunun	-10.8774
▁niyetinde	-10.8777
▁sözlüğü	-10.8784
▁başın	-10.8784
evet	-10.8794
▁şoförü	-10.8795
▁yapabilirdi	-10.8796
▁dehşet	-10.8799
▁mahkûm	-10.8799
▁resme	-10.8799
▁binlerce	-10.8799
▁sevdiğiniz	-10.8802
▁hissetmedi	-10.8805
▁tanıştı	-10.8805
▁söylemeliyim	-10.8808
▁girdiğini	-10.8811
▁çekiyorum	-10.8811
▁kağıdı	-10.8813
▁etmeliydi	-10.8814
▁beden	-10.8815
▁ayrılacak	-10.8818
▁şifre	-10.8819
▁yaşlıyım	-10.8819
lmayı	-10.8821
▁gözünü	-10.8823
▁bardağı	-10.8826
▁atma	-10.8826
▁okumadım	-10.8835
▁gör	-10.8835
▁gitmediğini	-10.8836
▁birisini	-10.8837
▁koca	-10.8842
▁bırakmaya	-10.8849
▁diyor	-10.8851
▁televizyonu	-10.8851
▁arar	-10.8857
▁bulacağını	-10.8864
▁gözlerin	-10.8872
▁roma	-10.8874
▁arabalar	-10.8882
▁acıyor	-10.8884
▁savunma	-10.8887
▁2.30	-10.8888
▁vermiyor	-10.8892
▁neyde	-10.8893
talya	-10.8899
▁planını	-10.89
▁kazanmasını	-10.8907
▁bilgisayarım	-10.891
▁bulduğunu	-10.8913
▁hayalet	-10.8916
▁kısmı	-10.8919
▁19	-10.8923
▁şunu	-10.8924
▁ek	-10.8924
▁yapamazsın	-10.8925
▁elmas	-10.8931
▁paketi	-10.8931
▁programı	-10.8933
▁ada	-10.8933
birine	-10.8938
▁yardımımız	-10.8942
▁beklemekten	-10.8944
▁söylemez	-10.8946
▁evimde	-10.8949
▁önleme	-10.8951
▁koymak	-10.8952
▁buradasın	-10.8962
▁5	-10.8965
▁vazgeçme	-10.8967
▁boştu	-10.8968
▁keşfetti	-10.8969
▁yetmez	-10.8969
▁demir	-10.8969
▁verilmiyor	-10.8969
▁irtibat	-10.8969
▁buluşalım	-10.897
▁olumlu	-10.897
▁geçerken	-10.8971
▁ortalama	-10.8971
▁içerisinde	-10.8971
▁koyar	-10.8971
▁itaat	-10.8973
nda	-10.8977
▁benzemiyor	-10.8981
▁duygu	-10.8981
▁çıkmaz	-10.8983
rek	-10.8985
▁sigorta	-10.8986
▁hissediyorsun	-10.899
▁harcar	-10.8993
▁başkenti	-10.8998
▁karşılaştı	-10.9
▁giderdi	-10.9011
▁kalemi	-10.902
▁almanı	-10.902
▁çaldığında	-10.9023
▁yardımım	-10.9028
▁içi	-10.9032
▁kazan	-10.9035
▁kalabilirsin	-10.9045
▁gerçekleşti	-10.9049
nize	-10.906
▁çarp	-10.9062
lama	-10.9064
▁söyleyemedi	-10.9068
▁kent	-10.9072
▁göründüğüm	-10.9077
▁yerin	-10.9078
▁bekler	-10.9086
▁kaybettik	-10.9089
▁kimdi	-10.9093
▁koç	-10.9097
emeyiz	-10.9097
mde	-10.9101
▁göl	-10.9101
▁gemide	-10.9111
▁karı	-10.9115
▁dağa	-10.9123
▁korkma	-10.9131
▁planları	-10.9132
▁korkunçtu	-10.9132
▁eğlence	-10.9134
▁kibirli	-10.9138
▁önemi	-10.9139
▁çeşit	-10.914
▁başlangıç	-10.914
▁garanti	-10.9141
▁lâzım	-10.9141
▁düşünemiyorum	-10.9142
▁bekleyelim	-10.9143
▁verilmez	-10.9143
▁alacağız	-10.9144
▁almayacak	-10.9146
▁göndereceğim	-10.9148
▁oynamaya	-10.9148
▁ilgilendi	-10.9152
▁dövüş	-10.9153
▁bekliyorsun	-10.9153
▁kocasını	-10.9155
▁paylaştı	-10.9158
▁sözlerini	-10.9163
▁gideriz	-10.9171
▁isteyeceğim	-10.9171
▁restoranı	-10.9172
▁burnunu	-10.9173
▁yıkadı	-10.9174
▁sözü	-10.9178
▁geçirdin	-10.9182
▁yalnızdı	-10.9184
▁isterdim	-10.9185
▁etse	-10.919
▁hoşlanacağını	-10.919
▁öğretir	-10.9191
▁vermiyorsun	-10.9194
▁gibidir	-10.9196
▁yapmazdım	-10.9197
▁görüşme	-10.9197
▁konuşuyordu	-10.9199
▁pahalıdır	-10.9201
▁kalbim	-10.9201
▁takar	-10.9202
▁yaradı	-10.9205
▁dedektif	-10.9217
▁ederdim	-10.922
▁taşınmak	-10.922
▁bilmez	-10.9222
▁duyduğunda	-10.9224
▁vermesini	-10.9228
▁ölecek	-10.9237
▁elin	-10.9237
▁etmezdi	-10.9238
▁kurmak	-10.9239
▁bitme	-10.9246
▁dövme	-10.9252
▁olmuyor	-10.9254
▁yüzüyor	-10.9255
▁yiyeceğim	-10.9258
▁yaşlıdır	-10.9259
▁kalemini	-10.9267
▁iyileşti	-10.9269
▁girdim	-10.9271
▁bakacağım	-10.9279
▁nokta	-10.928
▁arazi	-10.9283
▁elleri	-10.9284
▁ikisinin	-10.9286
▁zorlandı	-10.9286
▁gelmen	-10.929
▁haksız	-10.9294
inci	-10.9295
▁içmez	-10.9297
▁edebileceğimi	-10.9297
ö	-10.9304
▁söylemiş	-10.9308
▁girer	-10.9312
▁edemeyiz	-10.9317
▁ekstra	-10.9317
▁meteliksiz	-10.9317
▁üvey	-10.9317
▁şair	-10.9317
▁göreceğiz	-10.9317
▁osaka	-10.9318
▁oturalım	-10.9319
▁konuşmalıyım	-10.9319
▁düzine	-10.932
▁bekleyen	-10.9323
▁gömleğini	-10.9324
▁atıldı	-10.9328
▁incitti	-10.9331
▁başımı	-10.9331
▁edemeyeceğini	-10.9332
▁sanıyorsun	-10.9332
▁saldırdı	-10.9332
▁öldürme	-10.9333
▁zorundadır	-10.9334
▁eş	-10.9334
▁kahvaltıda	-10.9337
▁çalışmıyorum	-10.9338
▁gitmeyeceğini	-10.9338
▁konuşuyorum	-10.9346
▁sevmedim	-10.935
▁vardık	-10.9351
▁harcamak	-10.9354
▁çalıştığım	-10.9355
▁kapattım	-10.9366
▁sıktı	-10.9368
ir	-10.9377
▁yaparsa	-10.9377
caya	-10.9379
▁oynay	-10.9379
▁üzereydim	-10.9387
▁özlüyor	-10.939
▁paran	-10.9391
▁ücreti	-10.9392
▁ettiniz	-10.9398
mıyorsun	-10.9406
▁kampa	-10.9411
▁gitsen	-10.9415
▁benzediğin	-10.9416
▁dükkan	-10.9418
▁teori	-10.9422
ngilizcede	-10.9423
▁olamazdı	-10.9429
▁zemin	-10.9434
miyorum	-10.944
▁atlar	-10.9443
▁çıktığını	-10.9446
▁motoru	-10.9446
▁güveniyor	-10.9448
▁görüş	-10.945
▁öğretmenler	-10.946
larınızı	-10.9461
▁bitişik	-10.9462
▁kaptan	-10.9463
▁ipi	-10.9465
▁söylediklerin	-10.9466
▁arıyordu	-10.9466
▁böylesin	-10.9476
rayı	-10.9476
▁gerçekleri	-10.9479
amayacağını	-10.948
▁konuşmama	-10.9484
▁konuşamaz	-10.9494
▁korktu	-10.9495
▁taklit	-10.9495
▁hissetmiyor	-10.9495
▁patlamış	-10.9495
▁sosyal	-10.9495
nşallah	-10.9496
▁deneyelim	-10.9496
▁geçici	-10.9497
▁elektrikli	-10.9498
▁çılgınca	-10.9499
▁oturan	-10.9499
▁sağlığın	-10.9499
▁çöktü	-10.9499
▁yatırım	-10.95
▁koştum	-10.9501
▁alanda	-10.9502
▁izlemeye	-10.9503
▁kötüydü	-10.9505
▁tereyağı	-10.9506
▁soruşturma	-10.9506
▁dakikada	-10.9508
▁tuttum	-10.9513
mesi	-10.9514
▁işlerini	-10.9518
▁yazmadı	-10.9519
▁uzağ	-10.9521
▁havlu	-10.9524
▁buton	-10.9526
▁veda	-10.9528
▁bazılarını	-10.9528
remeyiz	-10.9528
▁ıslak	-10.953
▁bilmeliydi	-10.9531
▁arttı	-10.9533
▁bittiğini	-10.954
▁güvenme	-10.9545
▁lider	-10.9545
▁eşit	-10.9546
lığını	-10.9546
▁katılmadı	-10.9547
▁kızını	-10.9548
▁süpermarkette	-10.9548
▁ağaçta	-10.9555
lerdi	-10.956
▁hoşlanmadı	-10.9564
▁takımında	-10.9567
v	-10.9577
▁içmem	-10.9588
▁ayrılmaya	-10.9589
▁aktör	-10.9592
▁görevde	-10.9593
▁çıkarın	-10.9593
▁çeviri	-10.9594
▁mühendis	-10.9596
▁dinlen	-10.9601
lerinizi	-10.9602
▁kedileri	-10.9608
▁duyar	-10.9613
▁söylemiyor	-10.9616
▁uyandırma	-10.9616
▁eldiven	-10.9619
▁öpücük	-10.962
▁saatini	-10.962
▁tartıştık	-10.962
▁görmüş	-10.9622
▁gidiyordu	-10.9623
▁söylerdi	-10.9625
▁bildi	-10.9626
▁götürür	-10.9629
▁cömert	-10.9632
▁okuy	-10.9633
▁nüfusu	-10.9639
▁ko	-10.964
▁bay	-10.964
▁yemeğ	-10.9645
▁bırakır	-10.965
▁varmaz	-10.9659
nan	-10.966
▁uçtu	-10.9661
ze	-10.9662
▁israf	-10.9666
▁borcu	-10.9666
▁dönüş	-10.9666
▁günlüğün	-10.967
▁yerdir	-10.9672
▁babamı	-10.9672
çecek	-10.9672
▁köşe	-10.9673
▁içerim	-10.9675
▁solgun	-10.9675
▁ağaçlar	-10.9676
ğü	-10.9676
▁hassas	-10.9677
▁rock	-10.9677
▁turta	-10.9678
▁başlangıçta	-10.9679
▁koş	-10.968
▁yumruk	-10.9682
▁ordu	-10.9684
▁almıyorum	-10.9684
▁ısı	-10.9687
▁duyuyoruz	-10.9689
▁tanıştık	-10.9692
▁kapatmayı	-10.9697
▁yaşayacak	-10.9699
▁sonuçta	-10.9704
▁ısırdı	-10.9704
▁rahatlamış	-10.9708
▁geçmek	-10.971
▁rafta	-10.9711
▁kazandım	-10.9712
▁sağa	-10.9718
▁kuzenim	-10.9725
▁gösteriyor	-10.9726
▁bitirdik	-10.9729
▁torba	-10.9732
çi	-10.9732
▁zil	-10.9734
kleri	-10.9737
▁biriyim	-10.974
▁kıran	-10.974
▁eğlencelidir	-10.9741
▁duyduğumu	-10.9745
ımı	-10.9745
▁amcası	-10.9746
▁daim	-10.9755
▁sağır	-10.9756
▁istemiyorsan	-10.9759
▁fazlası	-10.9761
▁seven	-10.9764
▁üzülme	-10.9775
▁doğu	-10.978
▁zarfı	-10.9782
lerdir	-10.9788
▁telefonum	-10.9791
▁restoranın	-10.9798
▁kazaya	-10.9799
iniz	-10.9799
▁ceketi	-10.9808
▁yaşa	-10.982
▁bitirme	-10.9826
▁oturu	-10.9831
▁korkutma	-10.9844
▁üçte	-10.9845
00	-10.9847
▁sokak	-10.9847
▁rekabetçi	-10.9852
▁mudur	-10.9852
▁bekletti	-10.9852
▁oh	-10.9858
▁atı	-10.9858
▁koruma	-10.9861
▁ölüyor	-10.9862
▁tahliye	-10.9862
▁tıbb	-10.9862
▁programın	-10.9862
▁bağışladı	-10.9863
▁yükseldi	-10.9863
▁getireceğim	-10.9864
▁yapayım	-10.9865
▁geceyi	-10.9865
▁görünce	-10.9866
▁soydu	-10.9867
▁bisikletin	-10.9867
▁koşmaya	-10.9868
▁güne	-10.9868
▁avukatı	-10.9869
▁güveniyorum	-10.9869
▁halk	-10.987
▁kapatır	-10.987
▁öğreniyorum	-10.9871
▁mesafe	-10.9874
▁bilsem	-10.9877
▁hiçbirimiz	-10.9878
▁arıyoruz	-10.9881
▁öne	-10.9886
▁aramızda	-10.9888
▁bul	-10.9888
▁başladılar	-10.9889
▁ebeveynlerimi	-10.9889
▁uçağı	-10.9894
▁edersen	-10.9894
▁akşamı	-10.9896
▁götürecek	-10.9896
▁engel	-10.9899
▁mutfağ	-10.9909
▁piyanoy	-10.9909
▁maaşı	-10.9911
▁götürebilir	-10.9922
▁ş	-10.9923
▁hakim	-10.9924
▁veremedi	-10.9924
▁seviyoruz	-10.9926
▁hoşun	-10.9927
▁pasaportunu	-10.9928
▁deneyin	-10.993
▁yatıyor	-10.993
larım	-10.9935
▁sevgi	-10.9939
▁başkalarını	-10.9941
▁kazanmasın	-10.9947
▁biliyorduk	-10.9951
▁oldukları	-10.9954
mam	-10.9957
▁şeklin	-10.9957
▁değişiklikler	-10.996
amazsın	-10.9963
▁yüzük	-10.9971
▁soyuldu	-10.9973
▁kel	-10.9974
▁şeylerden	-10.9976
▁korkuttu	-10.9977
▁olmayın	-10.9982
▁adres	-10.9984
▁raf	-10.9988
▁soracağım	-10.9989
▁sörf	-10.9995
stediğiniz	-10.9997
▁yıka	-10.9997
▁buluyor	-11.0005
medi	-11.0008
▁uyuyakaldı	-11.0009
▁tahta	-11.0009
▁açıldı	-11.0009
▁gideceksin	-11.0009
▁kaste	-11.0009
▁yakaladım	-11.001
▁bulun	-11.0011
▁tarafta	-11.0011
▁karıştırdı	-11.0016
▁açmaya	-11.0027
▁yapmalıydı	-11.003
▁adamım	-11.0031
▁aynısını	-11.0031
▁dedem	-11.0032
▁yazarı	-11.0034
▁kitapların	-11.0042
▁bilmediğim	-11.0046
▁galiba	-11.0051
▁ufak	-11.0051
▁vefat	-11.0051
▁çeneni	-11.0051
▁vardığımda	-11.0051
▁dizüstü	-11.0051
▁endişelenecek	-11.0051
▁itibaren	-11.0051
▁grev	-11.0053
▁anlayabiliyorum	-11.0053
▁bekledik	-11.0054
▁gerçekçi	-11.0054
▁hazırlanmak	-11.0056
▁tabii	-11.0057
▁hile	-11.0057
▁çiftlikte	-11.0058
mişti	-11.0059
▁yapmıyoruz	-11.0063
▁kaldığım	-11.0063
▁ödeyecek	-11.0063
▁kızgınım	-11.0068
▁vazgeçmek	-11.0071
▁olabileceğin	-11.0071
▁hazırdı	-11.0071
▁kişilik	-11.0073
▁ağzın	-11.0076
▁uçuyor	-11.0077
▁geçirir	-11.0081
▁konuşabiliyor	-11.0082
▁ölüyordu	-11.0082
▁başımıza	-11.0083
▁işle	-11.0086
▁döner	-11.0089
▁bulmamız	-11.0098
▁ton	-11.0106
▁arayın	-11.0107
▁gelişme	-11.0109
▁düşmanı	-11.0118
▁giderse	-11.0124
▁ayrıntıları	-11.0131
▁önerdiği	-11.0132
▁kızdırdı	-11.0134
▁ettirdi	-11.0137
▁caz	-11.0137
▁bileti	-11.014
▁bil	-11.0143
▁yapıyordum	-11.0149
▁sıkıştı	-11.0152
▁tanışma	-11.0158
▁öğretme	-11.0161
▁bıçakla	-11.0162
▁meşguldüm	-11.0165
▁sözümü	-11.0168
▁satrançta	-11.0176
▁sonunu	-11.0181
şim	-11.0182
▁korumaya	-11.0187
▁sınıfımızda	-11.0189
▁cezalandırıl	-11.0191
▁ayakkabılarımı	-11.0193
▁işbirliği	-11.0195
▁böylece	-11.0198
▁bıktı	-11.0201
▁vermedin	-11.0209
malıyım	-11.0211
▁çalışırdı	-11.0216
ğımız	-11.0226
▁panik	-11.0233
▁arkada	-11.0237
▁malzeme	-11.0241
▁beğeniyor	-11.0243
▁askı	-11.0243
▁gülünç	-11.0243
▁düzgün	-11.0243
▁hatta	-11.0244
▁etkiledi	-11.0244
▁susadı	-11.0247
▁tayfun	-11.0248
▁kurtulmak	-11.025
▁güçlüdür	-11.025
▁binmek	-11.0251
▁kazanmadı	-11.0253
▁bildirin	-11.0253
▁haline	-11.0255
▁gitmiyoruz	-11.0255
▁önyargılı	-11.0256
▁döndüğünü	-11.0258
▁çizdi	-11.026
▁garajı	-11.026
▁verebilirim	-11.0262
▁tarafsız	-11.0266
▁kıl	-11.0272
▁karımı	-11.0273
▁şarkılar	-11.0273
eyim	-11.0276
▁olmamızı	-11.0296
▁ilgilendiğini	-11.0296
▁13	-11.0297
yerek	-11.0305
▁pişiriyor	-11.0311
ğında	-11.0311
▁yazısı	-11.0313
▁hapis	-11.0315
tü	-11.0316
▁almış	-11.0323
▁evimizi	-11.0332
▁çiti	-11.0334
▁nemli	-11.0344
▁sadık	-11.0353
lendi	-11.0365
▁koşullar	-11.0366
▁haklıydı	-11.0368
▁yaşı	-11.0369
▁baktığını	-11.0371
▁bindim	-11.0378
▁emindi	-11.0378
diğini	-11.038
▁çalışın	-11.0381
▁etraf	-11.0391
▁yaşardı	-11.0395
it	-11.0399
▁kapadı	-11.04
j	-11.0402
▁kitab	-11.0403
▁kaplı	-11.0404
▁gökyüzünde	-11.0404
▁marangoz	-11.0413
▁evimiz	-11.0415
▁korkmuyoru	-11.0421
ildi	-11.0423
▁misafiri	-11.0424
▁bacağını	-11.0429
▁değiştirdim	-11.0429
▁kurtarmaya	-11.0429
▁beşte	-11.043
▁kafasını	-11.0431
mizin	-11.0433
▁varlıklı	-11.0434
▁şapkası	-11.0436
▁şaşırmadı	-11.0439
▁blöf	-11.0439
▁ilgilendirmez	-11.0439
▁ödeyeceğim	-11.0439
▁ihlal	-11.0441
▁edilecek	-11.0441
▁boşandı	-11.0441
▁geçerli	-11.0443
▁doğuş	-11.0447
▁güvenmiyorum	-11.0447
c	-11.0448
▁konuşmuyorum	-11.0448
▁bırakmadı	-11.0449
▁kazara	-11.045
▁kapatma	-11.045
▁kazanan	-11.045
▁anlatacağım	-11.0451
▁şartlar	-11.0454
▁gösterebilir	-11.0461
▁gitsem	-11.0463
ğe	-11.0466
▁yetişmek	-11.0471
▁saçları	-11.0477
▁sıkıldı	-11.048
▁davranıyordu	-11.0484
▁geldiler	-11.0486
▁algınlığın	-11.0487
▁sütü	-11.0495
▁çeki	-11.0503
▁sevmediğimi	-11.0504
▁ilan	-11.0513
▁söylemeliydim	-11.0513
▁istediklerini	-11.0517
ge	-11.0521
▁hepinizi	-11.0526
▁söylemeyeceğin	-11.053
▁kaldığı	-11.0531
▁şehr	-11.0537
▁ad	-11.0543
▁farklıdır	-11.0551
▁sel	-11.0552
▁olmamıştı	-11.0558
abileceğimizi	-11.0561
▁cana	-11.0562
▁geçinmek	-11.0562
▁say	-11.0563
▁duyduğun	-11.0566
▁dinlenmek	-11.0573
▁ziyaretçi	-11.0573
▁isteyebilir	-11.0575
▁numaranı	-11.0576
▁sev	-11.0579
▁dansçı	-11.0581
▁kalmama	-11.0585
yıp	-11.0585
▁f	-11.0587
▁market	-11.059
▁çantamı	-11.0591
▁kalırsa	-11.0592
▁görmem	-11.0608
▁çiftçi	-11.0609
▁partim	-11.0611
▁cevaplar	-11.0618
▁konuşmada	-11.062
▁durur	-11.0622
▁ressam	-11.0628
▁sağladı	-11.063
▁kazanmaya	-11.0632
▁çıkarıyor	-11.0635
▁uzaktan	-11.0639
▁rekabet	-11.0639
spanya	-11.0639
▁yastık	-11.0639
▁mantıksız	-11.064
▁kusursuz	-11.064
▁şahsen	-11.064
spanyolca	-11.064
▁kullanılır	-11.064
▁sessizlik	-11.064
▁%	-11.0641
▁tutukladı	-11.0641
▁bulabilirim	-11.0641
▁kıyafetler	-11.0641
▁grip	-11.0643
▁hissettiğimi	-11.0645
ıyla	-11.0647
▁oluyorum	-11.0648
▁miktar	-11.065
▁reklam	-11.0653
▁konuşkan	-11.0654
ıyorsun	-11.0662
▁tanı	-11.0662
▁adadı	-11.0666
▁öldüğü	-11.0671
▁doğduğunu	-11.0683
▁başladık	-11.0688
▁oyunları	-11.069
▁yarısını	-11.07
ver	-11.0707
▁edildim	-11.0709
▁yaptınız	-11.0715
▁olacaktı	-11.0716
▁gitmemesi	-11.0721
▁istediler	-11.0726
▁sorunlarımız	-11.0726
▁koyduğun	-11.0729
▁endişelenmek	-11.0736
ayet	-11.0741
▁getirebilir	-11.0743
▁sevmiyordu	-11.0752
▁konuşman	-11.0754
yacağım	-11.0755
▁ayırt	-11.0758
▁çıkarma	-11.0759
▁yapmadığımı	-11.0762
▁kişiler	-11.0762
▁bıraktığını	-11.0763
▁oynadık	-11.0769
▁blok	-11.0775
▁silahlı	-11.0775
▁aradığım	-11.0776
▁bilmesi	-11.0782
▁kulübün	-11.0785
▁düşündük	-11.0786
▁izlenim	-11.0791
▁petrol	-11.0793
▁yendi	-11.0798
▁gözyaşların	-11.0811
lanmış	-11.0816
▁kadınla	-11.0818
▁sür	-11.0827
▁gitarı	-11.0828
ğın	-11.0831
▁etkisi	-11.0832
▁yaban	-11.0833
▁etkilenmiş	-11.0835
ğımızı	-11.0837
▁serin	-11.0838
▁görecek	-11.0839
▁aldılar	-11.0843
▁nisan	-11.0844
▁alkışladı	-11.0844
▁baharatlı	-11.0844
▁selamladı	-11.0844
▁tükendi	-11.0845
▁kullanacağını	-11.0846
▁otomobil	-11.0846
▁kaplıydı	-11.0847
▁alayım	-11.085
▁üniforma	-11.085
▁bildireceği	-11.0852
▁yanıtladı	-11.0852
▁almalıyız	-11.0853
▁gülmek	-11.0855
▁pa	-11.0855
ck	-11.0856
▁ayrıl	-11.0856
▁duman	-11.0862
▁beklenmedik	-11.0862
▁görünümlü	-11.0865
▁konuşabiliriz	-11.0869
▁adınızı	-11.0871
▁doğruydu	-11.0871
▁gösterecek	-11.0873
▁düzenledi	-11.0876
▁pişirir	-11.0877
▁mutlaka	-11.0877
madı	-11.0891
▁sorunların	-11.0894
▁beklemiyoru	-11.0899
▁kahkaha	-11.0904
lerim	-11.0905
▁çektim	-11.0905
▁yağmurda	-11.0908
yacak	-11.0911
▁yorgundum	-11.0914
▁yürüdük	-11.0916
▁geçirdiğini	-11.0917
▁dinlemiyor	-11.0922
▁doğa	-11.0922
▁avustralyalı	-11.0926
yordu	-11.0929
▁sistem	-11.0929
üstü	-11.0934
▁bulunmadım	-11.0935
▁babanın	-11.0937
▁yapamayacağımı	-11.0946
▁şeyde	-11.0948
▁öğretmendir	-11.095
▁yürüme	-11.0951
▁ayna	-11.0956
▁kol	-11.0961
▁üzgündü	-11.0961
▁girmedi	-11.0963
▁motor	-11.0965
▁geçmedi	-11.0969
▁olmazsa	-11.0974
ğin	-11.0975
▁görüşmesi	-11.0979
▁hissetme	-11.0986
kisi	-11.0989
▁ateşin	-11.0993
▁huysuz	-11.0994
▁inanamadı	-11.1009
▁tuzak	-11.1012
▁yemesi	-11.1014
▁oynama	-11.1015
▁unut	-11.102
▁önere	-11.1021
man	-11.1026
malı	-11.1027
▁nişan	-11.1028
▁yapmamanı	-11.1031
tti	-11.1032
▁gülmeye	-11.1036
▁ölmedi	-11.1038
▁yılan	-11.1039
▁buydu	-11.1041
lısın	-11.1042
▁kül	-11.1043
▁ihmal	-11.1048
▁dilini	-11.1048
▁edemeyecek	-11.1048
▁brezilya	-11.1052
▁kaybetmiş	-11.1052
▁lincoln	-11.1052
▁barmen	-11.1052
▁onayladı	-11.1053
▁ararım	-11.1054
▁ölçüde	-11.1054
▁hayatında	-11.1055
▁ilham	-11.1055
▁öp	-11.1057
▁okurken	-11.1057
▁birazcık	-11.1057
▁alıp	-11.1058
▁riskli	-11.1058
▁ilginçti	-11.1062
▁gerçekler	-11.1067
▁çıkıyorum	-11.107
▁gazeteci	-11.1071
▁kaybettin	-11.1072
▁bekleyeceğini	-11.1072
▁ilgilenir	-11.1074
▁uyu	-11.1074
▁yanım	-11.1074
▁özledim	-11.1075
▁yapamayacağım	-11.1078
▁okumadı	-11.1078
▁çince	-11.1081
▁girdiğinde	-11.1084
▁gitarını	-11.1086
▁konuştuğu	-11.1086
ğinde	-11.1088
▁yetişti	-11.1088
▁yaptırma	-11.109
▁istemiyordum	-11.1092
▁ederken	-11.1093
▁istemeye	-11.1093
▁aramayı	-11.1098
▁yumurtaları	-11.11
▁zam	-11.11
emezsin	-11.1101
▁gelirim	-11.1107
?"""	-11.1107
▁yılanlar	-11.1108
▁ödemedi	-11.1111
▁beklemeyi	-11.1112
malısınız	-11.1118
▁evleniyor	-11.1119
▁fırsatım	-11.112
▁değişikliği	-11.1122
▁şekli	-11.1124
▁basın	-11.1128
st	-11.1129
▁uyumadı	-11.1131
▁kenarında	-11.1132
▁almıyorsun	-11.1136
▁tanıştın	-11.1139
▁geçmişi	-11.1164
tür	-11.1168
▁grubu	-11.1169
▁adada	-11.1172
▁arabasın	-11.1175
meyi	-11.1176
et	-11.1181
▁zahmet	-11.1182
▁fırın	-11.1183
▁denedin	-11.1186
▁belgeleri	-11.1188
ysa	-11.1189
▁yaşama	-11.1191
▁ardı	-11.1192
▁balığ	-11.1198
▁çukur	-11.12
▁ayırdı	-11.1201
▁yazacağım	-11.1203
▁sıradan	-11.1206
▁bakmaya	-11.1209
madığını	-11.1211
▁arıyorsun	-11.1212
▁oynuyorlar	-11.1214
▁güvenliği	-11.1214
▁nişanlı	-11.1221
▁uykuda	-11.1224
▁puan	-11.1225
lidir	-11.1226
▁orman	-11.1226
▁planlamıyoru	-11.123
▁makinesini	-11.1233
▁yediğim	-11.1245
▁ekmeği	-11.1246
▁karşılık	-11.1249
▁halletme	-11.1249
▁çözmeye	-11.1249
▁anlattım	-11.1251
▁sığ	-11.1255
▁kızları	-11.1255
▁takılma	-11.1262
▁bozucu	-11.1264
▁cookie	-11.1265
▁yedek	-11.1265
▁gönderildi	-11.1265
▁kesildi	-11.1265
▁yağabilir	-11.1265
▁ayrılmayı	-11.1267
▁yapmayacağız	-11.1269
▁voleybol	-11.1271
▁oynarım	-11.1271
▁kalabilirim	-11.1271
▁çalışacağını	-11.1272
▁durmak	-11.1275
▁atlattı	-11.1276
▁ayrıntılar	-11.1277
▁alaycı	-11.1279
▁çocuktur	-11.1283
▁konusu	-11.1284
▁duyabiliyordu	-11.1285
▁geçimini	-11.1285
▁buluşmak	-11.1288
▁bayıldı	-11.1289
▁söyleyemez	-11.129
▁annemi	-11.129
lanır	-11.1292
▁olmalısınız	-11.1296
▁olacaklar	-11.1303
▁teki	-11.1307
▁kapatın	-11.1307
▁içtin	-11.1309
▁neşeli	-11.131
ga	-11.1313
▁uyum	-11.1316
▁yürüdüm	-11.132
▁hazırlıklı	-11.132
▁olmama	-11.1322
▁düşünecek	-11.1324
▁konuşabildiğini	-11.1327
▁raporunu	-11.133
miyorsun	-11.1332
▁akıllıdır	-11.1334
▁yazdığı	-11.1335
▁ağlar	-11.1337
▁saklıyor	-11.1338
▁patronu	-11.1343
▁ayrıldık	-11.1344
▁dikti	-11.1344
▁tur	-11.1351
▁katil	-11.1355
▁alışkanlık	-11.1358
▁beklemesin	-11.1361
▁büyüdüm	-11.1365
▁çıkardım	-11.1366
▁2	-11.1369
▁beğenmiyoru	-11.137
▁yandı	-11.137
▁alabileceğim	-11.1375
▁evsiz	-11.1379
▁mahalle	-11.1382
▁alanı	-11.1384
▁görünme	-11.1386
▁kazanacağın	-11.1387
▁yeriz	-11.1388
▁kötüsü	-11.1392
▁notu	-11.1399
▁istediğimizi	-11.1407
▁bağımsız	-11.1408
▁ağlamak	-11.1409
▁geçecek	-11.141
▁yene	-11.1416
▁kiraladı	-11.1423
▁mektupları	-11.1425
▁pişirmek	-11.1426
▁kutunu	-11.1429
▁görebiliyor	-11.1437
▁dahi	-11.1438
▁indirdi	-11.1438
▁komşu	-11.1439
▁kilidi	-11.1449
▁havuzda	-11.1451
▁elimi	-11.1466
yüm	-11.1466
▁dağınık	-11.1466
▁ar	-11.1467
▁indirim	-11.1471
▁kaybediyor	-11.1475
lıdır	-11.148
sal	-11.1481
▁güvenebilirsin	-11.1482
▁plastik	-11.1482
▁katlanamam	-11.1482
▁işığı	-11.1482
▁başlayacağız	-11.1482
▁fırlattı	-11.1482
▁temin	-11.1482
▁buluşacağız	-11.1482
▁kasıtlı	-11.1483
▁hissettirdi	-11.1483
▁çapında	-11.1483
▁göstereyim	-11.1483
▁gördünüz	-11.1483
▁çıkıp	-11.1484
▁bulmaca	-11.1485
▁unutmayın	-11.1485
▁dönünce	-11.1485
▁ölen	-11.1486
▁bakacak	-11.1487
▁umduğum	-11.1487
▁alıyorsun	-11.1489
▁tipik	-11.1491
▁kimden	-11.1493
▁ise	-11.1496
▁açı	-11.1497
▁aittir	-11.1498
▁sahipti	-11.1502
▁şemsiyeni	-11.1504
▁dolaştı	-11.1504
▁akıl	-11.1505
▁idam	-11.1505
▁iyileşiyor	-11.1507
▁olasılığı	-11.1509
▁konuşmamı	-11.1511
▁duy	-11.1514
▁araştırıyor	-11.1519
▁okuduğunu	-11.152
▁söylemediğin	-11.152
▁hastalandı	-11.152
▁yakalamak	-11.1521
▁ağaçları	-11.1528
▁teyzem	-11.1532
▁sakla	-11.154
niyor	-11.1546
▁getirdin	-11.1546
▁giderdim	-11.1546
▁işık	-11.1548
▁kazanmayacağın	-11.1559
▁mutluydum	-11.1564
▁sevgililer	-11.1568
▁inanıyordu	-11.1569
▁sürme	-11.1572
▁uçakla	-11.1574
ılacak	-11.1581
▁olabiliriz	-11.1596
▁oynadım	-11.161
▁koyma	-11.1612
sıyla	-11.1612
▁değiştirir	-11.1614
▁yani	-11.1615
▁öğretmenlik	-11.1618
liğ	-11.1621
▁parasız	-11.1621
▁yakındır	-11.1626
▁1	-11.1632
▁gidemezsin	-11.1634
▁yaşından	-11.1639
▁geçtim	-11.1639
mez	-11.1645
▁açgözlü	-11.1648
▁açma	-11.1652
▁izni	-11.1661
▁işıkları	-11.167
▁aksanı	-11.1671
▁kaçırmış	-11.1671
▁nedenim	-11.1673
▁yarattı	-11.1675
▁ilgilenmiyor	-11.1675
▁rol	-11.1676
▁numaram	-11.1678
emem	-11.1685
▁kova	-11.1693
lanıyor	-11.1694
▁metro	-11.1694
▁kumar	-11.1696
▁otelin	-11.1697
nsanları	-11.17
▁vejetaryen	-11.1701
▁biftek	-11.1704
▁fıstık	-11.1704
▁konuşmanı	-11.1705
▁çalışacağız	-11.1707
▁nitelikli	-11.1708
▁beklerken	-11.1709
layabilir	-11.1709
▁bölümü	-11.171
▁kalırım	-11.171
▁yağıyordu	-11.1716
▁sıkıcıydı	-11.1717
▁şirkette	-11.1717
▁gidebiliriz	-11.1718
▁hatan	-11.1721
▁kalemimi	-11.1722
▁konserin	-11.1723
▁alacaksın	-11.1727
▁bağla	-11.1728
▁yönde	-11.173
▁halde	-11.1734
▁patladı	-11.1734
▁hissetmeye	-11.1742
▁eşim	-11.1743
▁gelmiyorsun	-11.1744
▁sistemi	-11.1744
▁inandı	-11.1747
▁uyumadım	-11.1748
▁dış	-11.175
▁kullanmasın	-11.175
ılacağını	-11.1755
▁tutma	-11.1757
▁yetece	-11.176
▁havuç	-11.1761
▁hissettiriyor	-11.1762
▁yıkıyor	-11.1764
▁yazma	-11.1766
▁düştüm	-11.177
▁gidemez	-11.1775
▁gelebilirsin	-11.1776
ıldığını	-11.1779
▁sorunlarım	-11.178
▁stresli	-11.1781
▁yüzüğü	-11.1782
ğına	-11.1784
▁beklemedi	-11.1785
▁bilmiyormuş	-11.1785
▁deneyimli	-11.1785
▁eşyalarını	-11.1787
▁bal	-11.1789
▁kiraz	-11.1795
▁espri	-11.18
liydi	-11.1802
sından	-11.1808
▁çalışmasını	-11.181
▁hazırlıyor	-11.181
▁tanıştığımız	-11.1821
▁gittiğin	-11.1822
▁okuyabilir	-11.1823
▁tutuklu	-11.1824
▁almıyor	-11.1825
▁öfkesini	-11.1827
▁sormaya	-11.1827
▁vardığında	-11.1831
▁müdürü	-11.1836
▁önem	-11.1839
▁kalkıyor	-11.184
▁düzelt	-11.1842
▁soruyor	-11.1845
▁yıldızlar	-11.1846
▁kalmayacağım	-11.1847
▁ettiğinde	-11.1848
▁edindi	-11.1852
▁satılık	-11.1853
▁sığır	-11.1859
▁formu	-11.186
meyecek	-11.1863
▁sevmedi	-11.1872
▁adamları	-11.1873
be	-11.1877
▁giyindi	-11.1877
▁gitmeliydi	-11.1879
▁notlar	-11.1882
▁durun	-11.1885
▁cezalandırılma	-11.1887
▁oturun	-11.1888
▁bilgisayarlar	-11.189
▁görünüyorum	-11.1891
▁müziğin	-11.1894
▁planladığın	-11.1897
▁istemezdi	-11.1901
▁izliyordu	-11.1901
▁anlatma	-11.1905
▁dinlemez	-11.1909
▁bulduğum	-11.191
▁yıkamak	-11.1911
▁fotoğrafını	-11.1911
▁normalde	-11.1919
▁görmüyor	-11.1919
▁eylem	-11.1921
▁alet	-11.1927
▁hisse	-11.1929
▁karşılaştık	-11.1931
▁protesto	-11.1931
▁şikago	-11.1931
▁hokkaido	-11.1932
▁kötümser	-11.1932
▁rüşvet	-11.1932
▁soba	-11.1932
▁müsait	-11.1932
▁lisedeyken	-11.1933
▁meşgulüz	-11.1933
▁güvenilmez	-11.1933
▁kararlar	-11.1933
▁edilen	-11.1934
▁kalkarım	-11.1935
▁sürmeyecek	-11.1936
▁kurma	-11.1937
▁oturabilir	-11.1938
▁zarf	-11.194
▁katılacak	-11.1941
▁temizlik	-11.1947
▁filmleri	-11.1947
▁söylemiştim	-11.1947
▁içimde	-11.195
▁dizi	-11.1953
▁odun	-11.1954
▁yaklaşıyor	-11.1955
▁emretti	-11.1955
▁atmaya	-11.1955
▁ekonomik	-11.1956
▁delik	-11.1956
emez	-11.1959
▁hoşlandım	-11.1964
▁bilmeyecek	-11.1965
▁haberleri	-11.197
▁50	-11.197
▁belirsiz	-11.1972
▁kötüdür	-11.1972
▁geçtiğini	-11.1974
▁ehliyet	-11.1977
▁vereceğin	-11.1977
▁ilgilenmek	-11.1979
▁benziyordu	-11.198
▁uğrattı	-11.1983
▁bulunuyor	-11.1984
▁temizlemesin	-11.1984
▁aylık	-11.1984
▁taşı	-11.1989
▁yapsan	-11.199
▁misafir	-11.199
▁diğerlerini	-11.1991
▁eğlenmek	-11.1994
▁testte	-11.1994
tik	-11.1995
▁bahçesi	-11.1996
▁aşağıda	-11.1996
▁içmekten	-11.1997
▁giysileri	-11.1998
▁gereksiz	-11.1999
▁peşin	-11.2005
▁kibardı	-11.2008
▁toplum	-11.201
▁birisin	-11.2012
▁helikopter	-11.2014
▁kıs	-11.2021
▁edebili	-11.2022
meliyim	-11.2022
▁yemekler	-11.2035
inizi	-11.2035
yse	-11.2036
▁fransızcası	-11.2036
ro	-11.2057
▁algınlığı	-11.2057
abilirim	-11.2062
▁çizme	-11.2063
▁sorumluluk	-11.2067
▁planlarını	-11.2076
▁evliydi	-11.2084
▁batı	-11.2085
▁fırında	-11.2085
▁etmedin	-11.2087
▁asıl	-11.2088
▁yapardın	-11.2088
▁din	-11.2089
▁anlatır	-11.209
▁uzan	-11.209
▁geliyorlar	-11.2097
▁telefonumu	-11.2098
▁toplantını	-11.2113
▁soyadını	-11.212
▁mahallede	-11.2122
▁nehr	-11.2127
▁görünmediğin	-11.2133
▁bölgede	-11.2137
▁oğulları	-11.2144
▁öğrendik	-11.2146
▁şarkıları	-11.2147
yecek	-11.2148
▁askeri	-11.2157
▁güvenebilir	-11.216
▁bekleyecek	-11.2161
▁yapılan	-11.2163
▁tekerlekl	-11.2164
▁soygun	-11.2164
▁berber	-11.2164
▁fırladı	-11.2164
▁gök	-11.2164
▁ilerliyor	-11.2164
▁yasadışı	-11.2164
▁konuşacağız	-11.2165
▁okumakta	-11.2168
▁bodrum	-11.2169
▁heyecanlıyım	-11.2171
▁yatıyordu	-11.2175
▁söylemiyorum	-11.2178
▁veriyoruz	-11.2179
▁uymuyor	-11.2181
ılmış	-11.2182
▁görmesin	-11.2182
▁gazetede	-11.2189
▁bavulunu	-11.2191
▁gençler	-11.2193
▁sanma	-11.2195
▁sözünde	-11.2199
▁istemeyecek	-11.2204
▁zorluklar	-11.2206
▁kulübe	-11.2207
ste	-11.2207
▁sanmıyor	-11.2213
▁ettirmek	-11.2213
▁hatırla	-11.2218
▁tanıyordu	-11.2219
▁önerebilir	-11.2224
▁çekil	-11.2225
▁uyandım	-11.2226
▁kay	-11.2231
▁ter	-11.2231
▁çantasın	-11.2231
▁edildiğini	-11.2237
▁borçlusun	-11.2245
▁ak	-11.2245
▁tanıdı	-11.2251
talyan	-11.2251
▁hayvanları	-11.2252
▁perde	-11.2255
▁planımız	-11.2257
▁mevsim	-11.2258
▁hizmetçi	-11.2263
▁bitmiş	-11.2265
▁yapmayacağımı	-11.2267
▁dedin	-11.2268
▁yak	-11.2268
▁olayı	-11.227
▁don	-11.2271
▁kilolu	-11.2271
▁sürmeye	-11.2275
leşti	-11.2276
acağımı	-11.2283
▁teniste	-11.2284
▁paraları	-11.2286
▁karışma	-11.2289
▁çocuklarımız	-11.2291
▁12	-11.2292
▁şiddetle	-11.2292
▁sat	-11.2296
▁yiyecekler	-11.2297
▁iyileşecek	-11.2298
8	-11.23
▁çıktık	-11.2301
▁davranış	-11.2311
▁gülüyor	-11.2312
▁kesmek	-11.2316
▁tanıştığını	-11.2323
ümüz	-11.2329
▁gitmişti	-11.2332
▁sorunlarını	-11.2337
▁tavan	-11.234
▁şoför	-11.2341
▁çalın	-11.2342
sünüz	-11.2343
ıldı	-11.2345
▁sıcaklık	-11.2347
▁çağır	-11.2353
▁kurabiyeleri	-11.2354
▁canın	-11.2356
▁yaya	-11.2358
▁döndüğünde	-11.2359
▁uy	-11.236
▁evlendiğini	-11.236
▁yediği	-11.2362
▁almakta	-11.2365
▁kimsesi	-11.2367
lginç	-11.2372
▁iklim	-11.2372
▁planların	-11.2375
▁etmiyordu	-11.2377
cu	-11.2382
▁keki	-11.2382
▁domates	-11.2382
▁tahri	-11.2386
lerinin	-11.2392
receğiz	-11.2393
leme	-11.2394
▁harcıyorsun	-11.24
▁acımasız	-11.2401
▁güldürdü	-11.2402
▁mizah	-11.2402
▁pembe	-11.2402
▁hayl	-11.2402
▁sanmıştım	-11.2402
▁seçici	-11.2402
▁sanmıyordum	-11.2403
▁şikayetçi	-11.2404
▁miras	-11.2404
▁yaşamaktadır	-11.2404
▁koşarak	-11.2404
▁veriyorsun	-11.2405
acaktır	-11.2407
▁tatilini	-11.241
▁vericiydi	-11.2412
▁getirmek	-11.2414
▁hatırlamadığını	-11.2414
▁politikacı	-11.2417
lıydı	-11.2417
▁yıldırım	-11.2418
▁çıkacağını	-11.2419
▁yazıyorum	-11.2419
▁yürüyordu	-11.2421
▁pislik	-11.2422
▁tabloy	-11.2422
▁çekmeyi	-11.2423
▁kadınları	-11.2424
▁tutmayı	-11.2424
▁takıyordu	-11.2427
üm	-11.2427
▁ani	-11.2428
ilmiş	-11.2428
▁ayakkabıların	-11.2431
▁erteledi	-11.2436
▁söylediğimde	-11.2436
▁paylaşmak	-11.2437
▁başladığında	-11.2439
▁kadınların	-11.2439
,000	-11.2439
▁ticaret	-11.2441
▁bulmakta	-11.2445
▁dersler	-11.2445
▁bırakabilir	-11.2449
▁tip	-11.2452
▁imza	-11.2452
▁gelirse	-11.2461
yıldı	-11.2463
▁koşmak	-11.2467
▁hediyeler	-11.2469
▁olamayacak	-11.2475
▁cevabını	-11.2481
▁yürüyor	-11.2481
▁telefonla	-11.2486
▁severdim	-11.2488
▁saçım	-11.2489
to	-11.2491
▁inan	-11.2496
▁görevlisi	-11.2496
▁yaptıkları	-11.2498
▁giyinmiş	-11.2501
▁yazılı	-11.2502
▁anlamıyorsun	-11.2503
▁alabileceğini	-11.2506
▁açıklaması	-11.2509
▁klima	-11.2509
▁çıkmanı	-11.251
▁kolun	-11.2513
▁bırakılmak	-11.2516
acağın	-11.252
▁çektiğini	-11.252
▁başlayacağım	-11.252
▁çalıştın	-11.2521
▁nereli	-11.2522
▁okuyordu	-11.2524
▁bütçe	-11.2525
▁bayramı	-11.2528
▁ağlamadı	-11.2529
▁yiyeceğimiz	-11.253
yorum	-11.2535
▁bulur	-11.2538
▁kasabay	-11.2551
▁işlerim	-11.2553
▁deneyebilir	-11.2557
▁satıl	-11.2559
▁vaktimiz	-11.2562
▁sınırlı	-11.2563
▁sakalı	-11.2565
▁gelemedi	-11.2566
▁profesör	-11.2578
▁anlatacak	-11.258
▁ikiz	-11.2581
▁uçağ	-11.2582
▁amca	-11.2588
▁büyüme	-11.2589
▁kızdır	-11.259
mayacağız	-11.2593
▁düşünmemişti	-11.2605
9	-11.2613
▁turist	-11.2615
▁bozdu	-11.2615
▁makyaj	-11.2618
1	-11.262
htiyacın	-11.2622
siyle	-11.2626
dık	-11.2628
▁düşüyor	-11.2629
▁hastalığın	-11.263
▁kararın	-11.263
▁yazıldı	-11.263
▁giyin	-11.2633
ik	-11.2635
▁olmasından	-11.2636
▁oturur	-11.2639
▁gözlerimi	-11.264
▁balıkçı	-11.2642
▁dinlemedi	-11.2642
▁gözüm	-11.2643
▁kaldığın	-11.2644
▁ipucu	-11.2646
▁kulağa	-11.2646
▁piyango	-11.2646
▁tahammül	-11.2646
▁karıştırıcı	-11.2646
▁kore	-11.2647
▁yaraladı	-11.2647
▁milyoner	-11.2648
▁söylenilen	-11.2648
▁ederek	-11.2649
▁tavana	-11.265
▁cadılar	-11.2651
▁vereyim	-11.2651
▁eğlendiğini	-11.2653
▁arkadaştı	-11.2655
▁gencim	-11.2657
▁şanslıyım	-11.2658
▁endişeleniyor	-11.266
▁görüşte	-11.2661
▁kitapta	-11.2661
▁yaşlısın	-11.2666
▁beğendim	-11.2668
▁ağlayacağını	-11.2672
▁bilirim	-11.2673
likten	-11.2674
▁doğduğu	-11.268
▁ellerimi	-11.268
▁öğrenir	-11.2681
▁hayranı	-11.2683
▁sakal	-11.2683
▁uyuyamadım	-11.2684
▁tarif	-11.269
▁far	-11.2698
▁ettirdim	-11.2701
▁güneşli	-11.2703
▁yapmalıydım	-11.2703
▁herkesle	-11.2706
▁öpmedi	-11.2709
▁giderler	-11.2709
▁ellerim	-11.271
▁söylerdim	-11.2711
▁inceledi	-11.2711
liyor	-11.2712
▁söyleyemezsin	-11.2713
▁öğrenmesi	-11.2719
▁soruyorsun	-11.2721
▁giysilerini	-11.2726
▁doktorla	-11.2729
▁görünmek	-11.2734
▁şemsiyesi	-11.2736
▁çıkmasını	-11.274
▁edebileceğim	-11.2743
▁art	-11.2744
▁tanımadı	-11.2745
▁söyleyeceğin	-11.2752
▁yaktım	-11.2754
▁etek	-11.2758
▁öbür	-11.2759
▁dayanamadı	-11.2759
▁çevrede	-11.2761
▁şunlar	-11.2762
▁kalmaz	-11.2764
▁gelmem	-11.2765
▁sayısı	-11.2769
▁aradığı	-11.2772
▁yaparlar	-11.2773
▁kendimize	-11.2773
▁payı	-11.2774
▁rezervasyon	-11.278
▁saklanıyor	-11.2781
▁midem	-11.2786
▁yeter	-11.2788
bildi	-11.2789
▁ikinizin	-11.2792
▁gittiğimiz	-11.2794
▁taşındım	-11.2797
▁işlerin	-11.2798
▁tost	-11.2802
miştir	-11.2805
▁insandır	-11.2808
▁yağmurlu	-11.281
amadı	-11.2818
▁yiyordu	-11.2818
or	-11.2823
▁baktılar	-11.2825
▁güneşte	-11.2834
▁titiz	-11.2837
▁bırakması	-11.2839
lmalıyım	-11.284
▁çıkmama	-11.2842
liyiz	-11.2845
laç	-11.2845
▁kıza	-11.2849
dın	-11.285
▁birbiri	-11.2852
▁oradan	-11.2855
▁pişirmede	-11.2859
▁sergi	-11.2861
▁planladı	-11.2867
▁sırrını	-11.2867
▁ulus	-11.2872
▁bahsettiğim	-11.2873
şlerin	-11.2874
▁imzalama	-11.2874
▁atar	-11.2878
▁birbiriniz	-11.2879
▁di	-11.2881
▁cezasın	-11.2882
▁koyduğum	-11.2888
▁sözler	-11.289
▁battı	-11.2891
▁beceriksiz	-11.2892
▁başvurdu	-11.2895
▁aspirin	-11.2896
▁hevesli	-11.2896
▁flüt	-11.2896
▁büyüleyici	-11.2896
▁yüzlerce	-11.2896
▁söndürdü	-11.2896
▁bulacağız	-11.2896
▁girecek	-11.2896
▁tükeniyor	-11.2897
▁arayacak	-11.2897
▁katılmıyorum	-11.2898
▁dikiş	-11.2898
▁yılı	-11.29
▁vurduğunu	-11.29
▁yıkıldı	-11.2904
▁şanslıyız	-11.2906
▁demedi	-11.2911
▁doludur	-11.2912
▁ceketimi	-11.2913
▁ilgilenmediğini	-11.2915
▁bakarak	-11.2917
▁sürerken	-11.2917
▁konuştuğun	-11.2918
▁izliyorum	-11.292
▁okuduğum	-11.2921
lmadım	-11.2922
yo	-11.2922
▁konuşabilirim	-11.2923
lo	-11.2925
▁getirin	-11.2926
▁duşta	-11.2927
▁bakıyorum	-11.2927
▁bakındı	-11.2931
▁tanıyoruz	-11.2932
▁adresi	-11.2932
▁resmin	-11.2934
▁kuralların	-11.2936
▁trenin	-11.2936
▁duygusu	-11.2938
▁kararsız	-11.2939
▁beyler	-11.2944
▁vermeyeceğin	-11.2945
▁görmeme	-11.2945
▁davranır	-11.2948
▁davul	-11.2949
lamak	-11.2949
▁felaket	-11.2954
▁giyiyorsun	-11.2958
▁vermeni	-11.2958
▁ödevi	-11.2958
▁kurabiyeler	-11.296
▁oynuyordu	-11.2963
▁müzikte	-11.2963
▁bağış	-11.2966
amayacak	-11.2969
▁gideceğin	-11.2969
▁derste	-11.2977
▁vermeliydi	-11.2977
▁halka	-11.2979
emiyorum	-11.298
nuz	-11.2984
kine	-11.299
▁gidersin	-11.2991
▁günümüz	-11.2993
▁gölet	-11.2994
▁yapmamalıydı	-11.2994
▁toplama	-11.2995
▁varmadan	-11.2996
▁düşündüğümüz	-11.3004
▁gecikme	-11.3004
▁firma	-11.3006
▁ehliyetini	-11.3011
▁giysi	-11.3016
▁pişmanlık	-11.3017
▁öpme	-11.3017
▁tarafın	-11.3021
▁biliyorsunuz	-11.3021
▁yapmadığı	-11.3023
▁olabilecek	-11.3026
▁kelimeler	-11.3026
▁çilek	-11.3027
▁yapraklar	-11.3027
▁çöz	-11.3027
▁izley	-11.303
▁gözün	-11.3037
▁konuşamadı	-11.3037
▁gösterdim	-11.3041
▁gölün	-11.3043
▁tanış	-11.3045
▁çıkabilir	-11.305
▁söylemeyeceğini	-11.3056
▁yöne	-11.3059
▁ta	-11.3069
çki	-11.3073
▁yemekleri	-11.3074
▁kapısı	-11.3077
▁me	-11.308
sunu	-11.3083
▁üzerimde	-11.3089
idir	-11.3096
▁fen	-11.3098
▁kase	-11.3104
▁etmede	-11.311
▁ebeveynlerini	-11.3111
▁dolabı	-11.3112
▁sis	-11.3112
▁aldığımı	-11.3114
▁diz	-11.3115
▁alternatif	-11.3118
▁tırmanma	-11.3118
▁çalışmaz	-11.3123
▁sundu	-11.3126
▁yapmaman	-11.3127
▁sürmeme	-11.3134
▁affet	-11.3138
▁ağlamayacağın	-11.3139
▁merkezi	-11.3142
▁istasyonu	-11.3143
▁nefesini	-11.3148
▁soğan	-11.3152
▁viski	-11.3152
▁süper	-11.3152
▁harap	-11.3152
▁muayene	-11.3152
▁koşuyor	-11.3153
▁denemiyorsun	-11.3153
▁eczane	-11.3153
▁sosis	-11.3153
▁tanıttı	-11.3154
▁ilerledi	-11.3154
▁dayanamıyorum	-11.3154
▁dünkü	-11.3154
▁eğilimindedir	-11.3154
▁kaçmaya	-11.3155
▁edeceksin	-11.3156
▁başlattı	-11.3156
▁yürürken	-11.3157
▁kalıp	-11.3157
▁gerekebilir	-11.316
▁gecikti	-11.316
▁kibarca	-11.3162
acağı	-11.3164
▁söyleyelim	-11.3164
▁kötüleşiyor	-11.3164
▁kalmalısın	-11.3165
▁havuzun	-11.3167
▁fısıldadı	-11.3168
▁bulutlar	-11.3168
▁tamamladı	-11.3169
▁yaşındayım	-11.3171
▁binmeyi	-11.3173
mamız	-11.3174
▁şanslısın	-11.3174
▁listesi	-11.3174
▁vize	-11.3175
▁huzur	-11.3176
lalım	-11.3178
▁çorap	-11.3182
▁çalışabilir	-11.3187
▁dilleri	-11.3189
▁kıyafet	-11.319
▁yağışlı	-11.3191
▁evlendiler	-11.3197
▁hayranım	-11.32
▁diğerlerin	-11.3201
▁ediyorsunuz	-11.3202
▁hırsızı	-11.3203
▁dilediğini	-11.3204
▁varmış	-11.3204
▁şapkamı	-11.3206
▁farklıydı	-11.3206
va	-11.3213
▁gölde	-11.3215
▁öğrendiğini	-11.3216
ymiş	-11.3217
▁mar	-11.3222
▁yönetim	-11.3223
▁hatırlattı	-11.3225
müş	-11.3227
▁siyaset	-11.3228
▁uğradığını	-11.3228
▁çayı	-11.3228
▁şekeri	-11.3229
▁konuştular	-11.3235
▁deney	-11.3236
▁giyinme	-11.3239
▁yapacaktır	-11.3241
▁gittiğim	-11.3243
▁yiyecekleri	-11.3244
▁tarz	-11.3245
▁dost	-11.3247
▁konuşabileceğin	-11.3255
▁alanında	-11.3256
▁kazanın	-11.3256
▁yoksul	-11.3258
▁karısın	-11.3258
▁yemesini	-11.3288
▁arayabilir	-11.3289
▁san	-11.3289
▁ateşli	-11.3292
▁kitaplarını	-11.33
▁çevir	-11.3306
▁korkuyorsun	-11.3307
▁unutmak	-11.3311
▁biliyorlar	-11.3317
▁susamış	-11.3318
▁öpücüğü	-11.3319
▁bahsetmek	-11.3321
▁yapabildi	-11.3323
▁görüştü	-11.3324
▁güvenmek	-11.3328
çı	-11.3329
▁güller	-11.3334
▁görünmedi	-11.3335
▁malzemeleri	-11.3335
▁duyabiliyoru	-11.3346
▁duygusal	-11.3346
▁katıldım	-11.3347
▁kadına	-11.3351
▁uğra	-11.3353
▁bilgim	-11.3353
▁kalmamız	-11.3353
▁kalmadım	-11.3357
▁unutmuş	-11.3358
▁iyileşme	-11.3362
▁takıldı	-11.3362
▁yeteneğin	-11.3363
▁aracı	-11.3363
▁plajda	-11.3363
▁pişir	-11.3366
▁göründü	-11.3367
▁bebeğin	-11.337
▁sandı	-11.3384
▁bakmayı	-11.3387
▁rahatlama	-11.3387
▁konuşamıyor	-11.3387
htiyacımız	-11.3389
▁sabun	-11.339
▁beklememiz	-11.3393
▁sa	-11.3393
▁tişört	-11.3398
▁çit	-11.3402
▁bildiği	-11.3405
▁tanıdığımı	-11.3406
▁havalı	-11.3406
▁duyduğumda	-11.3406
▁soktu	-11.341
layın	-11.341
▁güvenebileceğin	-11.3411
diği	-11.3412
▁sıska	-11.3413
abilecek	-11.3415
▁milyar	-11.3416
▁aktris	-11.3416
▁aykırı	-11.3416
▁bekleyemem	-11.3416
▁uğurlama	-11.3416
▁dindar	-11.3416
▁opera	-11.3416
▁yırttı	-11.3416
▁hawaii	-11.3417
▁kapandı	-11.3418
▁sorularım	-11.3418
▁çaldırdı	-11.3418
▁açıklayacağım	-11.3419
▁suçlamıyorum	-11.3419
▁tanıştınız	-11.342
ıyordu	-11.3421
▁çıkmasın	-11.3422
▁toplam	-11.3425
▁hatalıydı	-11.3427
ıpkı	-11.3427
▁oynayacak	-11.3427
▁karşılamak	-11.3427
mize	-11.3428
▁göndermek	-11.343
▁affetti	-11.3432
▁getirmeyi	-11.3433
▁istemeyebilir	-11.3436
▁düşme	-11.3437
▁geçinir	-11.3439
▁başarılıydı	-11.344
▁okuyacak	-11.3441
▁dersiniz	-11.3441
▁kasabanın	-11.3444
▁yarısın	-11.3448
▁konuşuyoruz	-11.3449
▁etsen	-11.3451
▁banyoda	-11.3451
▁görevi	-11.3453
▁koşabilir	-11.3455
▁bulacaksın	-11.3455
dadır	-11.3457
▁söylememeliydim	-11.3458
▁gelmiş	-11.3459
▁arkadaşıydı	-11.346
▁geldiniz	-11.3466
▁arkamda	-11.347
▁anlamadığını	-11.3471
▁adımın	-11.3472
▁ülkedir	-11.3475
▁tanımak	-11.3475
ren	-11.3483
▁tiyatro	-11.3485
▁gitarist	-11.3488
▁ilgim	-11.3491
▁sorunuz	-11.3495
▁bilme	-11.3498
▁kartları	-11.3502
▁sağlığınız	-11.3503
▁evdeyim	-11.3507
▁tepede	-11.3509
▁toplamak	-11.3513
▁geldiğimi	-11.3514
deyim	-11.3515
▁istedik	-11.3517
▁ehliyeti	-11.3519
▁kaybettiğini	-11.3524
▁saldırıy	-11.3525
▁edilmesi	-11.3533
▁kentte	-11.3536
laştı	-11.3536
▁düzeltti	-11.3539
▁yerdeydi	-11.354
▁varacak	-11.3543
▁amerikalılar	-11.3545
▁sinirliydi	-11.355
▁değişmedi	-11.3551
▁baktık	-11.3555
▁yaşamın	-11.3565
▁bakabilir	-11.3566
▁bölüm	-11.3568
▁bıraktın	-11.357
▁kask	-11.357
mem	-11.3573
▁geçme	-11.3576
▁yediğin	-11.3582
▁sözleri	-11.3588
▁tekme	-11.3589
▁hayalim	-11.3592
▁duyma	-11.3594
▁hayaletler	-11.3596
▁göremiyor	-11.3598
▁göle	-11.3604
▁orijinal	-11.3608
▁planlarım	-11.3609
▁geçin	-11.361
▁pis	-11.361
maktan	-11.3612
▁planlarımız	-11.3612
▁edilmek	-11.3616
▁gemiye	-11.362
▁tiyatroy	-11.3632
▁bakıcısı	-11.3632
▁mendil	-11.3636
ve	-11.3636
▁yön	-11.3636
▁öğretmek	-11.3636
▁çalışman	-11.3642
▁madde	-11.3643
lenmiş	-11.3643
▁endişelendi	-11.3643
▁başlayacağın	-11.3645
▁oğlumun	-11.3647
▁uyuma	-11.365
▁irade	-11.3654
▁uyuyamadı	-11.3661
▁seçenekleri	-11.3661
▁sırtında	-11.3663
▁mimar	-11.3668
▁sempati	-11.367
▁aynada	-11.3672
▁elmaları	-11.3676
▁kardeşimi	-11.368
▁birbirini	-11.3684
▁kıkır	-11.3685
der	-11.3686
▁6.30'	-11.3686
▁bedava	-11.3686
▁facebook	-11.3686
▁sayesinde	-11.3686
▁uluslararası	-11.3686
▁ıslık	-11.3686
▁kamu	-11.3686
▁teknoloji	-11.3686
▁reddedildi	-11.3686
▁değişiyor	-11.3686
▁hazine	-11.3686
▁boyamak	-11.3687
▁önemsiz	-11.3687
▁başınıza	-11.3687
▁sakın	-11.3688
▁geçer	-11.3688
▁yazdığını	-11.3689
▁görünen	-11.3691
▁karla	-11.3693
▁alamıyorum	-11.3694
▁görüşünü	-11.3695
▁gelmişti	-11.3695
▁çıkarıldı	-11.3696
▁fabrikada	-11.3698
▁geceler	-11.3699
▁yatırdı	-11.37
▁almada	-11.3701
▁evdeydi	-11.3705
▁neredeydi	-11.3705
▁bağır	-11.3707
▁vermeliyiz	-11.3707
▁gösterin	-11.3707
▁sardı	-11.371
▁çalıştırdı	-11.3711
▁elbiseler	-11.3718
▁edersiniz	-11.3718
▁hikayeler	-11.3719
▁canlısı	-11.3719
▁alıyoruz	-11.3722
▁çıkacağım	-11.3725
▁yaptığınız	-11.3727
▁arayacağını	-11.3727
▁bacağı	-11.3728
▁kaptanı	-11.3729
luğu	-11.3729
umu	-11.373
nca	-11.3731
▁listesin	-11.3731
▁kovdu	-11.3735
if	-11.3735
▁savaşa	-11.3737
▁bilgisayarın	-11.3742
▁zorlukla	-11.3743
▁uğraşmak	-11.3744
▁acıkmış	-11.3749
cü	-11.3752
▁yarıyor	-11.3755
▁yaramadı	-11.3756
▁öğrenmelisin	-11.3758
▁biyoloji	-11.3762
▁feneri	-11.3762
şıl	-11.3768
▁istedikleri	-11.3769
▁layık	-11.377
▁peş	-11.3771
▁yerken	-11.3772
▁mağazay	-11.3772
▁dolapta	-11.3773
▁planlar	-11.3774
▁evlidir	-11.3776
▁oynardı	-11.3777
▁endişeliydim	-11.3779
▁yapmayın	-11.3779
▁inanmayacaksın	-11.3784
▁kalabalığı	-11.3785
▁yaptır	-11.3786
ko	-11.3788
▁görmeni	-11.3789
▁ebeveynler	-11.3791
▁lastik	-11.3793
▁diliyor	-11.3795
▁yapacağımız	-11.3798
▁görevini	-11.3798
ter	-11.3798
▁sil	-11.3803
▁yolumuz	-11.3814
▁koltuğun	-11.3818
▁uyarma	-11.3823
▁görmedin	-11.3824
▁erteleme	-11.3824
▁resimlerini	-11.3836
▁anlar	-11.3843
▁kilisede	-11.3843
▁söyledikleri	-11.3845
▁bakan	-11.3847
▁hatasını	-11.3849
▁15	-11.3849
▁kırsalda	-11.3852
▁açığ	-11.3855
▁kardeşlerin	-11.3859
▁ip	-11.386
▁başlıyordu	-11.3861
▁deneyimdi	-11.3861
▁varmak	-11.3862
▁biliyordun	-11.3865
ızın	-11.3866
▁dokundu	-11.3867
▁çim	-11.3876
▁kapağı	-11.3876
▁davranışın	-11.3879
▁kaçmak	-11.3881
▁duyarlı	-11.3884
▁çalıştığın	-11.3891
▁av	-11.3891
▁üzüm	-11.3895
▁sonuncu	-11.3898
▁çitin	-11.3899
▁hamburger	-11.39
▁satıcı	-11.3906
▁gelemem	-11.3906
▁maymun	-11.3907
▁yöntem	-11.3913
▁şüphelendi	-11.3913
emeyecek	-11.3914
▁katıl	-11.3916
▁kardeşleri	-11.3919
▁tanışmanı	-11.392
▁saçın	-11.3921
▁töreni	-11.3932
▁uyandırdı	-11.3933
▁7	-11.3933
stemiyorsan	-11.3933
▁valizini	-11.3936
▁alacağımı	-11.3936
▁açıklamaya	-11.3936
▁istemiyorsa	-11.3936
▁bakmadı	-11.3937
ncil	-11.3938
▁geveze	-11.3938
▁vermemiz	-11.3938
▁uyudun	-11.3938
▁kanun	-11.3939
▁duyduğu	-11.3939
do	-11.3942
▁sormam	-11.3944
lük	-11.3949
▁söylememeliydi	-11.395
▁evlenecek	-11.3952
▁besledi	-11.3952
▁arkadaşımdı	-11.3954
▁p	-11.3956
▁doktorum	-11.3959
▁çekme	-11.396
▁disk	-11.3963
▁hoşnut	-11.3963
▁ithal	-11.3964
▁kömür	-11.3964
▁mütevazı	-11.3964
▁potansiyel	-11.3964
▁denir	-11.3964
▁hita	-11.3964
▁haberdar	-11.3964
▁uzatır	-11.3965
▁ettir	-11.3965
▁bulmalıyız	-11.3965
▁dinleyin	-11.3966
▁başladın	-11.3966
▁içelim	-11.3966
▁net	-11.3967
▁kaydetti	-11.3968
▁yapmayalım	-11.3968
▁maruz	-11.3968
▁vazo	-11.3969
▁yetersiz	-11.397
▁geliştirmek	-11.3971
▁komşuları	-11.3971
▁anlamış	-11.3975
▁şaşırtıcıydı	-11.3976
▁sevmiyorsun	-11.3977
▁gelebilirim	-11.3977
▁bağırmaya	-11.3977
▁h	-11.3978
▁çalışmamız	-11.3979
▁açıkla	-11.3979
▁suşi	-11.398
▁topluyor	-11.398
▁sıkıca	-11.3982
▁tilki	-11.3983
▁anladığın	-11.3984
▁ağlıyordu	-11.3984
▁gündüz	-11.3985
▁sarıl	-11.3985
▁başarısı	-11.3988
▁utan	-11.3989
▁tuzağ	-11.399
▁başkaların	-11.3991
▁çekinme	-11.3992
▁etmiyoruz	-11.3994
▁kızardı	-11.3997
▁çekebilir	-11.3997
▁kaybetmedi	-11.4009
▁kızgınsın	-11.4009
▁kıt	-11.401
ize	-11.4011
▁düşmanın	-11.4015
▁kulüpte	-11.4015
▁elbiseleri	-11.402
▁masasını	-11.4021
▁ekonomisi	-11.4024
▁ağabeyim	-11.403
▁geçiriyoru	-11.403
▁söylemede	-11.403
▁içiyordu	-11.4032
▁fotoğraflar	-11.4036
▁kulağın	-11.4038
▁gönderir	-11.4039
▁iple	-11.404
▁büyüyor	-11.4041
▁giymem	-11.4043
▁umudunu	-11.4043
▁japonlar	-11.4044
▁eseri	-11.4044
▁ateşim	-11.4045
▁eskisin	-11.4048
▁palto	-11.4049
▁ayaklarım	-11.405
▁mazereti	-11.4051
▁yazım	-11.4052
▁tavsiyemi	-11.4053
▁bit	-11.4057
▁yaşadık	-11.4059
▁kalkma	-11.4059
▁ettiğiniz	-11.4062
▁paylaş	-11.4064
▁uydu	-11.4069
▁kon	-11.4076
▁mektubun	-11.408
meliydim	-11.4082
▁savaşın	-11.4086
ımızı	-11.4086
madım	-11.4098
eceğin	-11.4099
▁yakalandım	-11.4106
▁kıyı	-11.4109
▁düşünmeni	-11.4111
▁cezalandırıldı	-11.4112
▁500	-11.4114
▁okuyun	-11.4115
▁sağlam	-11.4116
▁oturduk	-11.4119
▁hayali	-11.412
▁dinleme	-11.4125
▁yardımımı	-11.4126
▁perdeleri	-11.4133
▁yiyeceğini	-11.4133
▁cesaretini	-11.4135
▁dağlar	-11.4141
▁değilse	-11.4141
▁düzeltmek	-11.4147
▁yatağını	-11.4147
▁kazanması	-11.415
▁sabır	-11.415
▁çıktılar	-11.4153
▁çantam	-11.4155
▁vermeli	-11.4184
▁aklın	-11.4185
▁başarma	-11.419
ng	-11.4198
▁kırılmış	-11.4198
▁noktada	-11.42
▁gidemedi	-11.4204
▁umursamaz	-11.4213
▁isimlerini	-11.4217
▁başladığı	-11.422
▁büyükannesi	-11.4222
razı	-11.4222
▁yemeğimi	-11.4232
▁çocuksun	-11.4235
▁ekimde	-11.4237
▁kaçırmak	-11.4241
▁macera	-11.4242
▁jüri	-11.4244
▁mağaray	-11.4245
▁kendinde	-11.4245
▁babanı	-11.4246
▁piyanist	-11.4246
▁düşmüş	-11.4249
▁final	-11.4249
▁kovboy	-11.4249
▁umursuyor	-11.4249
▁vücut	-11.4249
▁washington	-11.4249
▁zalim	-11.4249
▁kartpostal	-11.4249
▁bilinir	-11.425
▁sürdürdü	-11.425
▁duyunca	-11.425
▁katladı	-11.4251
▁kalamam	-11.4252
▁inanacak	-11.4252
▁tutacağım	-11.4252
▁çalışmaktadır	-11.4253
▁yiyemedi	-11.4253
▁hakkımız	-11.4253
▁beyin	-11.4255
▁hedef	-11.4255
▁konuşmayacak	-11.4256
▁endişeleniyorum	-11.4256
▁yememe	-11.4258
▁hatırlama	-11.4259
▁umursamıyorum	-11.426
▁gönderin	-11.426
▁görebilirsin	-11.426
▁bulunmak	-11.4261
▁bırakalım	-11.4263
▁öpe	-11.4263
▁gelmelisin	-11.4263
▁kapalıydı	-11.4269
▁kalacağımı	-11.4276
▁kalmayacağını	-11.4278
▁içindeydi	-11.4282
▁buyurun	-11.4283
▁üstü	-11.4287
▁içerir	-11.4291
▁rüzgarlı	-11.4292
▁yanlıştı	-11.4293
▁düğünün	-11.4298
▁bağımlısı	-11.4298
▁konuşun	-11.4299
▁açmamı	-11.4299
▁yakala	-11.4299
▁söyleyebilirdi	-11.43
▁tanıdığı	-11.43
▁ulusa	-11.4301
▁görebiliyordu	-11.4301
▁tanıdım	-11.4302
lamayı	-11.4305
▁yapmazsa	-11.4305
▁konuştuğumu	-11.4309
▁cevabın	-11.4312
ılır	-11.4312
▁taşınıyor	-11.4314
▁sonbaharda	-11.4316
▁gözlerinde	-11.4316
▁hoşlanmadım	-11.4318
▁incitme	-11.4319
▁tebrik	-11.4319
▁kaçırıldı	-11.432
▁durdum	-11.4322
▁yayın	-11.4324
▁kullanılmış	-11.4325
▁dilemeli	-11.4326
▁randevusu	-11.4329
▁yazdın	-11.4335
▁haftalık	-11.4337
▁incitmedi	-11.4342
▁çıkmıyor	-11.4343
▁kilitlemeyi	-11.4344
▁ekledi	-11.4345
▁zorundasınız	-11.4345
▁uyardım	-11.4351
▁veri	-11.4355
▁birlikteydi	-11.4356
▁istisna	-11.4356
▁tanımadığın	-11.4357
▁bebeğ	-11.4359
▁mahvetti	-11.4366
▁etkilenmedi	-11.4367
▁yersin	-11.437
▁geliyordu	-11.4371
▁önerisini	-11.4373
▁kitapçı	-11.4374
▁değiştirmedi	-11.4375
▁kuşu	-11.4377
▁eşyaları	-11.4378
▁cevaplamak	-11.4378
dığı	-11.4379
▁oturdular	-11.4383
▁olmalıydım	-11.4385
▁düşünmüyorsun	-11.4389
▁evdedir	-11.439
▁sürmedi	-11.439
▁gelişti	-11.4392
▁başvurma	-11.4392
▁trompet	-11.4393
▁uzaklaşma	-11.4393
▁yanıyor	-11.4396
il	-11.4397
▁bilmediğin	-11.4399
▁zengindir	-11.44
▁uykum	-11.4409
▁dönmesi	-11.4414
▁takımını	-11.4415
▁sal	-11.442
▁çaldım	-11.4425
▁istiyorsa	-11.4425
▁temizler	-11.4426
▁seve	-11.4427
▁almalı	-11.4428
▁bırakmalısın	-11.4428
▁dairesi	-11.4434
▁yollar	-11.4434
▁temizlemem	-11.4435
▁as	-11.4441
▁kararımı	-11.4444
▁ölür	-11.4447
▁ağzında	-11.4449
▁problemleri	-11.4449
▁anı	-11.4451
zat	-11.4454
▁çatal	-11.4454
▁bırakmayı	-11.4456
▁düzeltme	-11.4458
▁kuruyor	-11.4461
▁re	-11.4463
ür	-11.4464
▁şeylerim	-11.4468
▁söylüyordu	-11.4476
▁kestim	-11.4484
▁bitirir	-11.4486
kları	-11.4492
▁satmaya	-11.4492
▁vermeme	-11.4493
▁yatmak	-11.4494
▁heyecanlıydı	-11.45
remiyorum	-11.4503
▁yargılama	-11.4513
stifa	-11.4513
▁söylemesin	-11.4514
▁giydiğini	-11.4515
▁kafasın	-11.4515
▁sudan	-11.4525
▁temizliyor	-11.4528
▁olmalıdır	-11.4529
▁yurtdışın	-11.4531
zin	-11.4532
▁elim	-11.4534
▁dükkân	-11.4535
▁kiralamak	-11.4535
▁büyü	-11.4537
▁gelenek	-11.4538
▁buçuk	-11.4542
▁8	-11.4543
▁çivi	-11.4544
▁sıfır	-11.4544
▁veteriner	-11.4544
▁zavallı	-11.4544
▁şarj	-11.4544
▁azarladı	-11.4544
▁uyuyacağım	-11.4544
▁kovaladı	-11.4544
▁diyeceğini	-11.4544
▁döneceğiz	-11.4545
▁yükseliyor	-11.4545
▁bilmeliyim	-11.4545
▁hoşlandığım	-11.4545
▁grubumuz	-11.4546
▁ısırıldı	-11.4546
▁yapsaydı	-11.4546
▁yağmaz	-11.4548
▁şüphesiz	-11.4549
▁teknik	-11.4549
▁almayacağım	-11.455
▁duymaz	-11.4551
▁tutuldu	-11.4551
▁uyumam	-11.4552
▁elle	-11.4554
▁denemedi	-11.4556
▁mümkündür	-11.4558
▁kırıklığı	-11.456
▁sonlarında	-11.4561
▁söylenmedi	-11.4561
▁çıkıyoruz	-11.4563
▁istey	-11.4563
▁detayları	-11.4569
nizin	-11.457
▁davranmaya	-11.4571
▁sitesi	-11.4572
▁ardından	-11.4573
▁otoriter	-11.4574
▁değerlidir	-11.4574
▁elinizde	-11.4576
▁izinli	-11.4576
▁okumam	-11.4576
▁geliyorsun	-11.4577
▁patatesleri	-11.458
▁amcamın	-11.4581
▁bakıyorsun	-11.4582
▁trafikte	-11.4583
▁hissetmediğini	-11.4584
abiliriz	-11.4589
▁nasihat	-11.459
▁katılır	-11.459
▁oturacak	-11.4595
▁sabahları	-11.4595
▁açıklar	-11.4602
▁meselesi	-11.4606
▁sıkıldım	-11.4606
▁yatmadı	-11.4608
▁yaşamaktan	-11.4608
▁şafakta	-11.4611
▁mide	-11.4611
▁dolab	-11.4619
▁oynaya	-11.4619
▁mart	-11.4622
▁konuşuyorlar	-11.4624
▁değeri	-11.4625
▁girmeye	-11.463
▁kalmaktan	-11.4631
▁rahatla	-11.4631
emeyeceğini	-11.4635
▁sporu	-11.4636
▁yaşarlar	-11.4638
maz	-11.4643
▁havuzu	-11.4646
▁dayanama	-11.4648
▁yıkama	-11.4657
▁yerlerde	-11.4658
▁evlenmedi	-11.4658
▁ödemeye	-11.4663
▁konuştuğumuz	-11.4666
▁dükkanı	-11.4668
▁tartışıyor	-11.4669
▁uzunsun	-11.467
acaksın	-11.4674
▁yavru	-11.4675
▁vazgeçmedi	-11.4679
▁yaşamadı	-11.468
▁hoşlandı	-11.469
▁pencereler	-11.4695
▁çekingen	-11.4695
▁kaybolmuş	-11.4696
▁olmayacaksın	-11.4698
▁kemer	-11.4699
▁düşünmeyi	-11.4701
▁gözükmüyor	-11.4704
nizde	-11.4706
▁başkanlığı	-11.4706
▁girmez	-11.4707
▁amacım	-11.4708
▁alış	-11.4709
▁yüzemez	-11.4709
▁alarm	-11.4709
▁edilmeli	-11.4711
▁sigortası	-11.4718
▁yetişkinler	-11.4721
▁konserde	-11.4721
▁vurma	-11.4727
ılıyor	-11.4729
▁kardan	-11.4734
▁sordun	-11.4742
▁sevindiğin	-11.4742
▁giydiği	-11.4743
▁kuralı	-11.4743
▁yakındı	-11.4744
▁gitmemeliydi	-11.4744
▁büyüdüğüm	-11.4749
▁bavul	-11.4754
▁ma	-11.4754
▁acelem	-11.4772
▁aradığınız	-11.4773
▁4	-11.4774
▁bulduğun	-11.4775
▁yaklaşma	-11.4775
▁postalama	-11.4776
▁oluyorsun	-11.4779
▁giriyor	-11.478
▁gücün	-11.4782
▁bel	-11.4785
▁beğen	-11.4785
6	-11.4786
▁dişleri	-11.4789
▁bulutlu	-11.479
ndeki	-11.479
▁lideri	-11.4792
▁keser	-11.4805
▁bacağım	-11.4806
▁edilme	-11.4809
▁zili	-11.4811
▁beyzbolu	-11.4811
▁hoşlanmayacağın	-11.4812
▁yapmadığım	-11.4813
▁kadınsın	-11.4814
mezdi	-11.4824
▁ihtiyaçları	-11.4826
▁avukatım	-11.4828
▁seçeneğin	-11.4833
▁planladığı	-11.4834
▁ba	-11.4837
▁vazoy	-11.484
▁konuşulur	-11.4846
▁200	-11.4846
▁lüks	-11.4846
▁kullanmadı	-11.4847
▁direksiyon	-11.4847
▁bahşiş	-11.4847
▁cüret	-11.4847
▁düşündürüyor	-11.4847
▁hilton	-11.4847
▁oluşur	-11.4847
▁pound	-11.4847
▁sıradışı	-11.4847
▁özgürlük	-11.4847
▁mesai	-11.4847
▁sade	-11.4847
▁verimli	-11.4848
▁çantan	-11.4848
▁zamanımızı	-11.485
▁şanslar	-11.485
▁susuz	-11.4852
▁gerekmez	-11.4852
▁görmen	-11.4856
▁vermeliyim	-11.4857
▁edinmek	-11.4863
▁düşünceli	-11.4865
▁kilitle	-11.4865
▁sesli	-11.4867
▁gerisinde	-11.487
▁yoruldum	-11.487
▁kalsın	-11.4873
▁bozma	-11.4874
layacağını	-11.4875
▁hayvandır	-11.4875
nü	-11.4877
▁değiştirmeye	-11.4878
▁kurban	-11.4879
▁pasaportumu	-11.4882
▁taşımama	-11.4882
mamı	-11.4885
▁şehirdeki	-11.4887
▁alışkanlığı	-11.489
▁internet	-11.489
▁harcamayı	-11.4896
▁sözlü	-11.4896
▁tanıdığın	-11.4897
▁gücünü	-11.4897
▁vereceksin	-11.4902
▁bağırma	-11.4905
▁balon	-11.4905
▁doğduğum	-11.4908
▁zorunlu	-11.4913
▁aradığımı	-11.4914
▁uyuyakaldım	-11.4915
▁hatırlat	-11.4919
▁önerisi	-11.4919
▁dövüşmek	-11.492
▁dr	-11.4922
5	-11.4924
▁haklıydın	-11.4925
▁dönmeye	-11.4927
çerken	-11.4928
▁seksen	-11.4929
ının	-11.4931
▁yürü	-11.4932
▁yapmamak	-11.4933
▁yapabilirdim	-11.4938
▁düşünmüyordum	-11.4938
▁birinde	-11.4939
▁harca	-11.494
▁tavsiyesi	-11.4941
▁tuzu	-11.4943
▁yapamıyor	-11.4944
▁kaçırma	-11.4948
▁sinema	-11.495
▁sorumu	-11.4952
▁bilgisayarımı	-11.4954
▁ayır	-11.4956
▁okyanus	-11.4959
▁gidiyorlar	-11.496
▁dediği	-11.4961
ttı	-11.4962
ağa	-11.4964
▁hatırlamak	-11.4965
▁görünmeye	-11.4965
▁aklını	-11.4973
▁sorulara	-11.4976
▁yerimiz	-11.4978
▁buldular	-11.4979
▁boy	-11.498
▁harcadın	-11.4981
▁40	-11.4982
▁gönderme	-11.4982
▁söylersen	-11.4986
▁yemelisin	-11.4986
▁sırtını	-11.4987
▁seveceksin	-11.4989
▁gözyaşları	-11.4991
▁yaptığının	-11.4992
▁keyfini	-11.4998
▁oranı	-11.4998
ileceğini	-11.5
▁bagaj	-11.5001
▁bırakmanı	-11.5003
▁bitirmiş	-11.501
▁yaşadığımı	-11.5016
▁eleştiri	-11.5018
▁bulaşık	-11.502
▁arkadaşlarla	-11.502
▁bulmayacak	-11.5022
▁biber	-11.5024
w	-11.5026
▁görü	-11.5026
▁oyunlar	-11.5031
▁diyette	-11.5033
▁kötüleşti	-11.5034
▁geldiğiniz	-11.5035
▁olmamasını	-11.5036
▁cevapları	-11.5043
▁kazandın	-11.5044
▁kestirme	-11.5047
▁stres	-11.5049
▁ahır	-11.5058
▁yanıtı	-11.5063
▁alamazsın	-11.5066
▁katlanamıyoru	-11.5072
▁bulması	-11.5072
sıdır	-11.5072
▁hazırlan	-11.5075
▁bilmediği	-11.5075
▁yönetimi	-11.5077
▁vur	-11.5078
▁verirdi	-11.5079
2	-11.5079
▁vermemeliydi	-11.5082
bilirim	-11.5086
▁otuzun	-11.5087
▁sus	-11.5089
▁görüşmem	-11.509
▁gelmedin	-11.5094
▁binme	-11.5098
▁sesleri	-11.5098
▁bi	-11.5101
▁kumaş	-11.5101
▁atlet	-11.5107
▁uzlaşma	-11.5107
▁parmağını	-11.5107
▁ayaklarını	-11.511
▁yapmamamız	-11.5116
seydim	-11.512
▁çalmadı	-11.5121
▁gidiş	-11.5121
ol	-11.5123
▁doların	-11.5125
şçiler	-11.5128
▁sanıyor	-11.5129
seniz	-11.5134
▁kutusunu	-11.5136
▁görün	-11.5136
▁haftalar	-11.5136
▁çiz	-11.5142
▁çağrıldı	-11.5144
▁aileden	-11.5146
▁çiftliği	-11.515
▁tat	-11.515
▁bodrumda	-11.5155
▁kaçınmak	-11.5157
▁bekâr	-11.5157
▁diyorsun	-11.5158
▁ellerinde	-11.5158
▁olgun	-11.5158
▁kırptı	-11.5159
▁delikanlı	-11.5159
▁hamile	-11.5159
▁ihbar	-11.5159
▁kanape	-11.5159
▁karmaşa	-11.5159
▁spagetti	-11.5159
▁birdenbire	-11.5159
▁orası	-11.5159
▁çete	-11.5159
▁kusur	-11.5159
▁bekleyeceğiz	-11.5159
▁dönmüş	-11.5159
▁yarayacak	-11.516
▁bastırdı	-11.516
▁açısından	-11.5161
▁çektirdi	-11.5161
▁duyamıyorum	-11.5161
▁iltifat	-11.5161
▁altmış	-11.5162
▁olamayız	-11.5163
▁ortada	-11.5163
▁kullanarak	-11.5164
▁eğilimlidir	-11.5164
▁damla	-11.5165
▁kalalım	-11.5166
▁giyerim	-11.5167
▁uykusu	-11.5168
▁kullanabilirim	-11.5171
▁anında	-11.5173
▁yapılmalı	-11.5173
▁karşıladı	-11.5173
▁zorlanıyor	-11.5173
▁mağarada	-11.5174
▁koydun	-11.5174
▁yiyeceğiz	-11.5175
▁okurum	-11.5176
▁güçsüz	-11.5176
▁vermiyorum	-11.5177
▁kupa	-11.5178
▁planlıyorlar	-11.518
▁destekledi	-11.5181
▁görüşüm	-11.5182
▁değiştirmeyi	-11.5182
▁araştırdı	-11.5184
▁ailesin	-11.5184
▁görmemiştim	-11.5187
▁mevcuttu	-11.5188
▁insansın	-11.519
▁yiyen	-11.519
▁kullanmaya	-11.5191
▁toplandı	-11.5193
▁duvarın	-11.5193
▁taşıma	-11.5193
▁söylemeliyiz	-11.5195
▁bacak	-11.5197
▁beğendin	-11.5201
ığa	-11.5204
▁meşguldür	-11.5208
▁kalabalıkta	-11.5213
▁vatandaşı	-11.5216
▁saçlarını	-11.5219
▁beklemeye	-11.5221
▁oturmayı	-11.523
▁sonları	-11.523
▁artıyor	-11.5231
▁uçağın	-11.5232
▁sürücüsü	-11.5234
▁olsaydın	-11.5236
▁ürünleri	-11.5237
▁edebiliyor	-11.5237
▁etmedik	-11.5238
▁birisiyle	-11.5238
▁balıklar	-11.524
▁tören	-11.5242
▁omzun	-11.5242
▁uykusunda	-11.5244
▁sağlar	-11.5247
▁aptalsın	-11.5248
▁atmayı	-11.5249
▁bilebilir	-11.525
▁yapacaklar	-11.5255
▁çevirmek	-11.5256
▁düşünmelisin	-11.5262
▁müziğ	-11.5265
▁kullanmam	-11.5267
▁kapıları	-11.5267
▁yaşayamaz	-11.5275
▁bakım	-11.5275
▁saçlı	-11.5276
▁merhamet	-11.5278
▁şirketten	-11.5279
gi	-11.5282
▁atlama	-11.5287
▁hediyeleri	-11.5288
▁seçilme	-11.5289
▁ayrılır	-11.5291
▁yanılıyor	-11.5293
▁zorlu	-11.5295
bilir	-11.5296
▁buluyorsun	-11.5296
▁sorar	-11.5297
▁bahane	-11.5297
▁söylememiz	-11.5297
▁yediler	-11.5297
leşiyor	-11.5298
▁salak	-11.5299
tma	-11.5304
▁saklanma	-11.5304
▁istemediğim	-11.5306
▁fırça	-11.5308
▁garaj	-11.5309
▁defol	-11.5312
▁çoraplarını	-11.5314
▁arkanda	-11.5318
▁yazan	-11.5318
▁emirler	-11.5339
▁söylememem	-11.5341
▁kullanmama	-11.5341
▁mazeret	-11.5349
▁dedesi	-11.5349
▁çalmada	-11.5352
▁elbisesi	-11.5363
▁nasılsın	-11.5364
▁cezaevinde	-11.5364
▁inanmayacak	-11.5366
▁etmesin	-11.5374
▁çalışmayacağı	-11.5376
▁göründüğünde	-11.5379
▁kullanacağımı	-11.5386
▁deneyeceği	-11.5386
▁yazardı	-11.5387
▁hikayesini	-11.5395
▁yapabildiğin	-11.5398
▁aşina	-11.5399
▁çantasında	-11.5402
▁sar	-11.5403
▁atları	-11.5412
▁kapatabilir	-11.5412
▁yukarıda	-11.5416
▁ayağını	-11.5417
▁kızar	-11.5425
lerleme	-11.5426
▁giymiyordu	-11.5439
▁uydurdu	-11.544
▁aklımı	-11.5443
▁yetiştirdi	-11.5446
▁davrandım	-11.5447
▁gri	-11.5448
▁komşum	-11.545
▁böldü	-11.5465
▁zehir	-11.5469
▁sekreter	-11.547
▁kırgın	-11.5471
ınız	-11.5474
▁çalışmalıydı	-11.5475
▁çantanı	-11.5477
▁evlendim	-11.5478
▁alışık	-11.5479
▁finans	-11.548
▁olağan	-11.5481
▁acaba	-11.5482
▁casus	-11.5482
▁direkt	-11.5482
▁götürüldü	-11.5482
▁street	-11.5482
▁tedirgin	-11.5482
▁çörek	-11.5482
▁muhafazakar	-11.5482
▁madem	-11.5482
▁ürpertici	-11.5482
▁dövüldü	-11.5482
nükle	-11.5482
▁yiyemem	-11.5482
▁kongre	-11.5482
▁çekinmeyin	-11.5482
▁organize	-11.5482
▁muzdarip	-11.5482
▁ilgileneceğiz	-11.5482
▁siyasi	-11.5482
▁üzgünüz	-11.5483
▁evleneceğini	-11.5483
▁vatan	-11.5483
▁kalabalıktı	-11.5483
▁j	-11.5484
▁ağacını	-11.5484
▁milyonlarca	-11.5484
▁kuyrukta	-11.5484
▁yağsa	-11.5484
mıştır	-11.5485
▁utangaçtı	-11.5485
▁konuşmayalım	-11.5486
▁çözemedi	-11.5486
▁sefil	-11.5486
▁vermiş	-11.5488
▁küçüktür	-11.5489
▁asya	-11.5491
▁saçmalık	-11.5491
▁biç	-11.5492
▁öğleyin	-11.5492
▁edilmiştir	-11.5493
▁korudu	-11.5494
▁çözebilir	-11.5494
▁desteklemek	-11.5495
▁kabaydı	-11.5498
▁gümüş	-11.5499
▁görmemiş	-11.5499
layarak	-11.5501
▁güzellik	-11.5502
▁konuşamayacak	-11.5503
▁em	-11.5507
▁korktuğum	-11.5512
▁öneriyorsun	-11.5514
▁önceydi	-11.5514
▁do	-11.5516
▁arası	-11.5517
▁hatalısın	-11.5519
▁çıldırdı	-11.5523
▁verirsen	-11.5523
▁fon	-11.5525
▁besler	-11.5527
▁bilgili	-11.5529
▁ilginçtir	-11.5533
ymış	-11.5534
▁kısmını	-11.5536
▁saygılı	-11.5538
▁haziran	-11.5542
▁sürmez	-11.5545
▁ölümünü	-11.5546
▁beklememi	-11.5549
▁kravatı	-11.5552
▁lastiği	-11.5555
▁dinlemeliydi	-11.5558
▁duyacak	-11.556
▁ka	-11.556
▁incittim	-11.5561
▁mükemmeldi	-11.5563
▁yasalar	-11.5565
▁arkadaşıyla	-11.5565
▁verandada	-11.5566
▁konuşmadık	-11.5583
▁istekliydi	-11.5584
▁cerrah	-11.5587
▁izledin	-11.5588
▁yanılıyorsun	-11.5589
▁otuzlu	-11.5591
▁üzülüyoru	-11.5592
▁harcadığını	-11.5596
▁yapamayacağımız	-11.5596
▁çalıştır	-11.5597
▁kaçmasın	-11.5598
▁konuşurlar	-11.56
▁koltukta	-11.5603
▁yaka	-11.5604
▁ölmeyi	-11.5613
▁kırsal	-11.5613
▁madeni	-11.5613
acağımızı	-11.5618
▁buzdolabın	-11.5619
umuz	-11.562
▁salı	-11.5621
▁sözüm	-11.5623
▁tıraşı	-11.5627
▁uğratmak	-11.563
▁kanıtlama	-11.5631
▁bulundun	-11.5632
7	-11.5639
▁geliri	-11.5648
▁değiştirme	-11.565
▁ayrılmamız	-11.565
▁gelse	-11.5652
▁varsayıyoru	-11.5658
▁sap	-11.5661
▁raporun	-11.5661
▁oynayabilir	-11.5664
▁ömür	-11.5665
▁dövüştü	-11.5666
▁azaltma	-11.5667
▁kızsın	-11.567
▁gelebileceğin	-11.567
▁küçümsedi	-11.567
▁has	-11.5673
▁dileme	-11.5674
abilirsin	-11.5676
▁hesabım	-11.5677
▁filmlerini	-11.5678
▁mektuplar	-11.568
▁atış	-11.568
▁geçirecek	-11.5685
▁yazabilir	-11.5685
▁bırakmayın	-11.5686
▁tırmanmak	-11.5692
▁yapsa	-11.5692
▁kızıl	-11.5694
▁eldivenlerini	-11.5695
▁bakmanı	-11.5698
▁mumları	-11.5698
▁içtiğini	-11.5699
▁gelirdi	-11.57
▁gelmedim	-11.5703
uyor	-11.5706
▁çocuklarınız	-11.5707
▁sözlükte	-11.5711
▁itfaiyeci	-11.5716
▁kısadır	-11.5717
▁itirazım	-11.5726
▁yöntemi	-11.5726
iğe	-11.5728
▁düşkün	-11.5729
meyeceğiz	-11.573
▁koru	-11.5733
▁yapabiliyor	-11.5743
ebilirsin	-11.5745
▁tanıt	-11.5754
▁kı	-11.5755
▁millet	-11.5756
sidir	-11.5758
▁beklemem	-11.576
▁boru	-11.5762
▁parçalar	-11.5763
▁bara	-11.5771
▁dişlerim	-11.5772
▁kuruldu	-11.5772
▁evimden	-11.5775
▁yatar	-11.5777
▁grubun	-11.5777
▁pe	-11.5782
▁okuyamıyor	-11.5785
▁ödeye	-11.5785
▁çıkın	-11.5786
▁yazdığın	-11.5788
▁burnu	-11.5791
▁sormayı	-11.5793
▁kaçınmay	-11.5799
▁törenin	-11.58
▁diğeri	-11.5803
▁koltuğunda	-11.5806
▁konseri	-11.5807
▁tabanca	-11.5809
zü	-11.5812
▁melodi	-11.5813
▁yargı	-11.5814
▁adalet	-11.5814
▁iğne	-11.5815
▁banjo	-11.5815
▁cubur	-11.5815
▁demiryolu	-11.5815
▁esnek	-11.5815
▁orkestra	-11.5815
▁sabit	-11.5815
▁tercüme	-11.5815
▁özleyeceğiz	-11.5815
▁antrenman	-11.5815
▁bluz	-11.5815
▁yöneldi	-11.5815
▁kanaat	-11.5815
▁alçak	-11.5815
▁düzensiz	-11.5815
▁ağlayacak	-11.5816
▁görünür	-11.5816
▁yaramayacak	-11.5816
▁öğreneceğim	-11.5816
▁dönmeyecek	-11.5816
ambil	-11.5816
▁oğlanlar	-11.5817
▁tanınmış	-11.5817
▁sorumluyum	-11.5818
▁boşalttı	-11.5818
▁duymuyorum	-11.582
▁kullanırım	-11.5821
▁satır	-11.5821
▁evlen	-11.5822
▁çevresinde	-11.5822
▁suçluyor	-11.5822
▁yağışı	-11.5822
▁efendim	-11.5822
mıza	-11.5822
▁hat	-11.5823
▁başlarına	-11.5824
▁eğlenme	-11.5824
▁veremez	-11.5825
▁dayalı	-11.5825
▁çevrili	-11.5826
▁doldur	-11.5826
▁zararlı	-11.5827
▁kontrolünü	-11.5828
▁boşuna	-11.5829
▁etkilemeye	-11.583
▁kaybeder	-11.5832
▁değişir	-11.5835
▁seçenekler	-11.5836
▁telaşlı	-11.5838
▁sabırla	-11.5839
▁başarısızlık	-11.5841
▁tanışmadım	-11.5842
▁yemeyecek	-11.5844
▁inme	-11.5846
▁düşünüyorlar	-11.5846
▁diken	-11.5847
▁alırsın	-11.5847
▁kutuları	-11.5848
▁değişmek	-11.5848
▁alırdım	-11.5848
▁yıldızı	-11.5848
▁kalman	-11.5848
▁hobim	-11.585
▁çalıyordu	-11.585
▁tabak	-11.5854
▁sendin	-11.5854
▁görüyorsun	-11.5855
▁mutfağı	-11.5856
▁öpmeye	-11.5857
▁güler	-11.5857
▁kafe	-11.5859
▁yüzleşme	-11.586
▁ima	-11.5861
▁çalışıyorsunuz	-11.5863
▁formda	-11.5864
▁seçimler	-11.5864
▁kaçırmadı	-11.5866
▁fikriniz	-11.5869
▁durumunda	-11.5875
▁zorundaydık	-11.5877
▁almadın	-11.5879
▁yapmamalısın	-11.5883
▁iz	-11.5883
ry	-11.5884
▁duvarı	-11.5884
▁yaşındaydın	-11.5886
▁öğrenmem	-11.5886
▁romanları	-11.5887
▁talimatlar	-11.5888
▁anlatmadı	-11.5891
▁çıktığı	-11.5894
▁uygunsuz	-11.5895
▁kuyu	-11.5896
▁konuşmalısın	-11.5899
▁gezisin	-11.5899
▁kasabadan	-11.5901
▁konuşuyordum	-11.5902
▁olursun	-11.5902
▁davrandığını	-11.5903
▁yaşımda	-11.5903
▁halletti	-11.5904
▁yaparsam	-11.5905
▁kaybetmeye	-11.5907
▁kelimeleri	-11.5909
▁toz	-11.5909
▁yıkamadı	-11.5909
▁resimde	-11.591
▁düşünmeden	-11.5913
▁çıkmış	-11.5914
▁yumurtalar	-11.5918
▁etkilemek	-11.592
▁kuzeni	-11.5923
▁geçmişte	-11.5926
▁ekle	-11.5927
▁arzu	-11.5927
▁saklamak	-11.5938
▁girmeme	-11.5938
▁akşamları	-11.5939
▁öğrencidir	-11.5939
▁sıkıntısı	-11.5943
▁gizledi	-11.5944
▁emir	-11.5944
▁olmamalısın	-11.5945
▁sağduyu	-11.5947
▁ayrılmadı	-11.5948
▁yaşını	-11.5948
▁bitkiler	-11.5949
hatırlayabiliyor	-11.5949
▁istasyonunda	-11.5951
▁sözlüğünü	-11.5953
▁suçunu	-11.5956
▁mektubum	-11.5956
▁açamadı	-11.5963
▁elbiselerimi	-11.5968
▁sınavını	-11.597
emedi	-11.5972
▁güzelliği	-11.5973
▁mekan	-11.5973
▁kuşku	-11.5976
▁birliği	-11.5982
▁edebildi	-11.5983
▁düzenleme	-11.5983
▁evlenmeye	-11.5984
▁izlemiyor	-11.5985
▁küçümseme	-11.5985
▁yazacak	-11.5996
abur	-11.5998
▁uğraş	-11.5998
▁getiriyor	-11.6
laşıyor	-11.6006
▁kaçınılmaz	-11.6007
▁yapmamamı	-11.6009
▁unuttuğun	-11.6009
▁görüşeceğim	-11.6011
▁burnum	-11.6017
▁varacağını	-11.6024
▁gittiğimi	-11.6026
▁anahtarımı	-11.6029
▁garajda	-11.6031
▁yaraları	-11.6031
▁arabamda	-11.6038
lığın	-11.6039
▁gömleğin	-11.6039
▁beklemiyor	-11.6041
ana	-11.6045
▁ayakları	-11.6051
▁öldüler	-11.6054
▁ulaş	-11.6056
▁yaşamı	-11.6061
▁öleceğin	-11.6064
▁halkı	-11.6065
▁yapmanızı	-11.6071
▁izi	-11.6073
▁güveni	-11.6076
▁mum	-11.6076
▁onay	-11.6077
▁gittiğimde	-11.6079
▁başlaması	-11.608
▁kazanmadığın	-11.6083
▁metal	-11.6087
▁hissettiğim	-11.6089
▁sezonu	-11.6093
▁yağdığı	-11.6094
▁cüzdan	-11.6096
▁arkadaşlık	-11.61
ilecek	-11.6107
▁yolculuğun	-11.6117
▁kulübesi	-11.6119
▁görüntü	-11.6121
▁vurmak	-11.6122
mazdı	-11.6126
▁doları	-11.6129
▁çıkarır	-11.6129
▁sorumluluğu	-11.6136
▁göstermedi	-11.6138
▁taşın	-11.6138
▁cidd	-11.6138
▁kafamı	-11.6143
▁annenin	-11.6143
▁bahsetmedin	-11.6145
▁ağırlığı	-11.6148
▁edinme	-11.6152
▁çıkardın	-11.6153
▁dert	-11.6153
▁orduy	-11.6154
▁otorite	-11.6157
▁maske	-11.6157
▁bandaj	-11.616
▁karamsar	-11.616
▁transfer	-11.616
▁fbi	-11.616
▁tokalaştı	-11.616
▁açıklayamam	-11.616
▁nişanlandı	-11.616
leceğini	-11.6161
▁hindi	-11.6161
▁ödülünü	-11.6163
▁imkanı	-11.6164
▁evlatlık	-11.6164
▁uzaktayken	-11.6164
▁alamayız	-11.6164
▁tartışacak	-11.6164
▁karanlıktı	-11.6165
▁masasın	-11.6166
▁bitireceğim	-11.6166
▁kaşık	-11.6167
▁çıkan	-11.6167
▁kızların	-11.6167
▁müydü	-11.6168
▁naziksiniz	-11.6168
▁kalıyorsun	-11.6169
▁konuşmalıyız	-11.617
▁hatırlar	-11.6171
▁yetiştirir	-11.6171
▁tasarı	-11.6172
lanmadı	-11.6172
▁yapılıyor	-11.6172
▁gizlemeye	-11.6173
▁uç	-11.6174
▁inç	-11.6175
▁habersiz	-11.6176
▁seveceğim	-11.6176
▁yapılmadı	-11.6177
▁gülmedi	-11.618
▁dinlemeyecek	-11.6181
▁cevapladı	-11.6184
▁fit	-11.6184
▁aşağıdaki	-11.6185
▁hırsızlık	-11.6186
▁veremezsin	-11.6187
▁sözcük	-11.6189
▁kameramı	-11.619
▁yiyoruz	-11.6192
▁cihazı	-11.6196
▁kaydediyor	-11.6196
▁söylenen	-11.6198
bunu	-11.6203
▁yapsın	-11.6203
bi	-11.6203
▁etmezsen	-11.6206
▁ekşi	-11.6207
▁kolumu	-11.6207
▁uzaklaş	-11.6208
▁fırçaladı	-11.6208
şiniz	-11.6211
▁dayan	-11.6211
▁inanmayı	-11.6215
▁ilgileneceğini	-11.6215
▁ameliyatı	-11.6216
▁görüşüyor	-11.6216
▁bitirmem	-11.6217
▁şeylerimiz	-11.6217
▁oynardım	-11.6218
▁denemelisin	-11.622
▁basa	-11.6221
▁tutamadı	-11.6224
▁geçmeye	-11.6224
▁kapalıdır	-11.6227
▁hoşlanıyorsun	-11.6228
▁konuşmasın	-11.6229
▁planlayı	-11.623
▁düşünemedi	-11.623
▁sundurmada	-11.6234
▁affetmeyeceği	-11.6235
▁istemeyi	-11.6235
▁temizlemeye	-11.6237
▁bırakmamı	-11.6239
▁romanlar	-11.6245
▁bağımlı	-11.6248
▁yapmıyordu	-11.6259
▁öpüştü	-11.626
▁keyifli	-11.6261
▁çıkmaktan	-11.6262
▁hoşlanacak	-11.6266
▁tel	-11.6267
▁sormadım	-11.6267
▁becerikli	-11.6268
▁ödüyor	-11.6271
▁bulacağımı	-11.6273
▁kimlik	-11.6275
▁yiyebilirsin	-11.6278
▁şarabın	-11.6279
▁bitirmeliyi	-11.628
▁dinledim	-11.6291
▁yürüyebilir	-11.6296
▁beklemesi	-11.6298
▁gizemli	-11.6299
▁arayan	-11.6301
▁anlayacak	-11.6308
▁öpmesin	-11.631
▁futbolu	-11.6311
▁keçi	-11.6319
▁oteli	-11.6322
▁yaşadın	-11.6326
▁dairede	-11.6331
▁yanağında	-11.6335
▁zekisin	-11.6339
▁toprak	-11.6343
▁görevin	-11.6345
▁bıçakladı	-11.6348
▁tok	-11.6352
▁görünüyorsunuz	-11.6362
▁öldür	-11.6362
çeride	-11.6363
▁karşılayacağım	-11.6364
rmeyeceğiz	-11.6364
üne	-11.6368
▁gitmedin	-11.6371
▁izledik	-11.6374
▁beklediğin	-11.6375
▁şaşkındı	-11.6379
▁isimleri	-11.6379
▁şüphem	-11.6381
▁kalkmaya	-11.6383
▁girebilir	-11.6385
▁güzelsin	-11.6389
▁isteği	-11.6392
▁yiyeceğ	-11.6398
▁eşyalarımı	-11.64
▁müzakere	-11.6402
4	-11.6406
▁köle	-11.6406
▁yürek	-11.6415
▁eksikliği	-11.6417
▁bölümünde	-11.6418
▁süresi	-11.6419
▁yapabilme	-11.6419
lanacak	-11.6422
▁yatağında	-11.6423
▁silahlar	-11.6423
▁yüzebileceğin	-11.6423
layan	-11.6423
▁başkaları	-11.6424
▁gösterme	-11.6432
▁ilgilenmedi	-11.6433
▁yiyorsun	-11.6434
▁kollarını	-11.6435
▁yaşadığın	-11.6439
▁anneler	-11.644
▁öder	-11.6441
▁fikr	-11.6448
▁seçme	-11.6448
▁desteği	-11.645
▁sokma	-11.6454
▁döndük	-11.6454
▁hikayeleri	-11.6456
▁anlayabilir	-11.6457
▁koşucu	-11.6459
▁almalıydı	-11.6464
▁talimatları	-11.6466
layalım	-11.6467
▁götürüyoru	-11.6474
▁umarı	-11.6475
▁yangında	-11.6477
▁kullandın	-11.6484
▁denizde	-11.6488
▁kraliçe	-11.649
▁öde	-11.6493
▁güneşin	-11.6494
▁saksafon	-11.6494
▁dinlendi	-11.6495
▁iflas	-11.6498
▁mevsimi	-11.6508
▁antrenör	-11.6508
▁memnuniyet	-11.6513
▁dışarda	-11.6514
▁uzaklıkta	-11.6515
▁mayıs	-11.6516
▁saatimiz	-11.6517
▁kazanmayacak	-11.6517
▁kemerini	-11.6517
▁daktilo	-11.6517
▁aperitif	-11.6517
▁şampanya	-11.6517
sviçre	-11.6517
▁katolik	-11.6517
▁tünel	-11.6517
▁yenilmez	-11.6517
▁bulaşıcı	-11.6517
▁süpürge	-11.6517
▁uçurtma	-11.6517
▁gezdirdi	-11.6517
▁analiz	-11.6517
▁küresel	-11.6517
▁nezle	-11.6517
▁vay	-11.6517
▁korkacak	-11.6517
▁dekor	-11.6517
▁tanıyan	-11.6517
▁bulunur	-11.6517
▁önerirsin	-11.6518
▁diyeceğim	-11.6518
▁anlamsız	-11.6518
▁sayılır	-11.6518
▁bitirelim	-11.6518
▁giymişti	-11.6519
▁geçeceğim	-11.6519
▁kocaman	-11.6519
▁şubat	-11.6519
▁başaramadı	-11.652
▁beklenmiyor	-11.652
▁içiyorsun	-11.6522
▁gözlüğümü	-11.6522
▁tanımıyorsun	-11.6522
sızın	-11.6522
▁yapabilsem	-11.6522
▁aylardır	-11.6524
▁sormamı	-11.6524
▁günah	-11.6524
▁kabalık	-11.6525
▁ölçtü	-11.6526
▁tırnaklarını	-11.6526
▁zamanınız	-11.6527
▁yapmamalı	-11.6527
▁değişmeyecek	-11.6527
▁etmemiştim	-11.6528
▁yakınlarda	-11.6529
▁katlan	-11.6531
▁üstünü	-11.6532
▁taşımak	-11.6533
▁anlayacağını	-11.6534
▁gitsek	-11.6535
▁ulaşmaya	-11.6536
▁istekliyim	-11.6537
▁çağ	-11.6537
▁cahil	-11.6538
▁tutuyordu	-11.6539
▁yazdığım	-11.654
▁kurmaya	-11.6541
▁yaparsınız	-11.6542
▁öğreteceği	-11.6543
▁toplantısı	-11.6544
▁görevim	-11.6544
▁düşünürdüm	-11.6544
▁karşısındaki	-11.6546
▁aptallık	-11.6549
▁alıştım	-11.6552
▁yetiştirildi	-11.6552
▁iniş	-11.6553
▁lafı	-11.6554
▁istiyorsanız	-11.6555
▁üzüldüm	-11.6555
▁oynadın	-11.6557
▁kamerasını	-11.6561
▁dönen	-11.6562
▁bulut	-11.6564
▁çekmeye	-11.6564
▁bot	-11.6565
▁oynadılar	-11.6566
▁davranmayı	-11.6566
mekten	-11.6568
▁durduramadı	-11.6569
▁gömleğimi	-11.657
▁edebilirdim	-11.6573
▁söylediğimiz	-11.6575
▁kaldırım	-11.6576
▁bırakmış	-11.6576
▁tanımadım	-11.6577
▁konuşuruz	-11.6579
▁göreceğimi	-11.6579
▁başaracak	-11.6579
▁anlaşılma	-11.658
▁uğrayacağım	-11.6582
▁kalemin	-11.6584
▁araman	-11.6586
▁zekidir	-11.6587
▁destekliyor	-11.6588
▁istemiyorlar	-11.6589
is	-11.6592
▁formunu	-11.6594
▁söndürme	-11.6594
▁olduğumda	-11.6595
▁çekiyordu	-11.6596
▁yoğundu	-11.6596
▁durdurmadı	-11.6602
▁yüzüm	-11.6604
▁arıyordum	-11.6607
▁ürünler	-11.661
as	-11.6611
▁benimkini	-11.6614
▁etmenizi	-11.662
▁hoştu	-11.6621
izden	-11.6622
▁gelemez	-11.6622
▁tarafı	-11.6626
▁değerlendirme	-11.6628
▁oturuyorsun	-11.6628
▁bacağımı	-11.6632
▁geçirmez	-11.6633
▁z	-11.6634
▁oğlumu	-11.6634
▁kaldırıldı	-11.6636
▁duyabildi	-11.6641
taki	-11.6643
▁olmamasın	-11.6644
▁adınız	-11.6647
▁tuzlu	-11.6649
▁defter	-11.6656
▁gidersen	-11.6663
▁kolunda	-11.6663
▁taşımasın	-11.6665
▁oradaydım	-11.6671
▁kazağı	-11.6671
▁güveneme	-11.6673
▁çiftlik	-11.6676
▁böcek	-11.6678
mişim	-11.6681
▁depresyonda	-11.6683
▁havaalanı	-11.6687
▁emeklilik	-11.669
▁verile	-11.6691
▁bilmemiz	-11.6692
▁fil	-11.6697
▁çare	-11.6698
▁koşuy	-11.6698
▁etrafı	-11.6702
▁karda	-11.6703
▁fikirler	-11.6704
▁fırsatın	-11.6707
▁bitki	-11.6712
▁kazanabilir	-11.6715
▁arkadaşlarınız	-11.673
▁yüzmekten	-11.6733
▁besleme	-11.6738
▁kendilerin	-11.6756
▁na	-11.6756
nternet	-11.6758
▁anlamadığım	-11.6759
▁katılmaya	-11.6761
▁tutmalısın	-11.6762
▁hazırlar	-11.6762
▁üyeleri	-11.6763
▁görüşü	-11.6763
▁örümcekler	-11.6769
▁dinleniyor	-11.6771
▁inanmıyorsun	-11.6772
▁sütün	-11.6772
miyoruz	-11.6774
▁yaralanma	-11.6774
layayım	-11.6777
▁bulma	-11.6779
▁dini	-11.6779
▁kımıldama	-11.6779
▁and	-11.6779
▁kapılar	-11.6781
▁parkın	-11.6782
▁isterdi	-11.6782
▁videoy	-11.6785
▁problemin	-11.6789
▁gözaltın	-11.6789
▁bildirmek	-11.6792
leştir	-11.6798
▁kalamaz	-11.6804
▁düşen	-11.6804
▁malzemeler	-11.6807
▁kahvaltısı	-11.6808
▁fotoğrafları	-11.6808
▁gazı	-11.681
▁bulunma	-11.6815
▁yakalanma	-11.6816
▁incit	-11.6817
▁deniyor	-11.6817
lmayacağız	-11.6819
tar	-11.682
▁çaldığı	-11.6821
▁edemiyor	-11.6821
▁almadık	-11.6822
▁uyan	-11.6824
▁vermişti	-11.6824
▁asılı	-11.6828
▁açmadı	-11.6829
▁otopark	-11.6829
▁geçirmiş	-11.6832
▁uğrar	-11.6833
▁pan	-11.6833
▁sebzeleri	-11.6836
▁tavuğu	-11.6837
▁çocukluk	-11.6839
▁silahın	-11.684
▁getirme	-11.6844
▁torunu	-11.6845
▁isteseydi	-11.6848
▁bilseydi	-11.6849
▁nefese	-11.6849
fi	-11.6852
▁tanımıyordu	-11.6854
▁tanım	-11.6861
▁gördüğümüz	-11.6863
▁kare	-11.6863
▁doğma	-11.6865
▁yuva	-11.6866
▁başlamadı	-11.6867
▁hokey	-11.6869
▁gitarım	-11.687
▁durağı	-11.687
▁tıka	-11.687
▁farkındaydı	-11.6872
▁kaybetmeyi	-11.6872
▁seslendi	-11.6884
co	-11.6886
▁kritik	-11.6887
▁muamele	-11.6887
▁serseri	-11.6887
▁soğuğ	-11.6887
▁şömine	-11.6887
▁yükseğ	-11.6887
▁gömdü	-11.6887
▁destekleyici	-11.6887
▁ilave	-11.6887
▁geyik	-11.6887
▁sersemlemiş	-11.6887
▁yarayabilir	-11.6888
▁görürüm	-11.6888
▁kulübümüz	-11.6888
▁eşek	-11.6888
▁kalıcı	-11.6888
▁suçsuz	-11.6888
▁öncelikle	-11.6888
▁değiştireceğim	-11.6889
▁mars	-11.6889
▁prensip	-11.6889
▁anlatayım	-11.6889
▁kanseri	-11.689
▁bıçaklandı	-11.689
▁işkence	-11.6893
▁paltosunu	-11.6894
▁hakları	-11.6894
▁uyurken	-11.6896
▁lezzetliydi	-11.6897
▁suyumuz	-11.6897
▁duymuyor	-11.6899
▁detaylı	-11.69
▁sevmediğin	-11.69
▁sağlamak	-11.6901
▁oluyordu	-11.6902
▁avantajı	-11.6903
▁korkmaz	-11.6905
▁bilmeyen	-11.6906
▁ilişkileri	-11.6908
▁koşu	-11.6908
▁kaynak	-11.6914
▁verebilirsin	-11.6915
▁giymedi	-11.6916
▁eleştirdi	-11.6917
▁kestirdi	-11.6917
▁oydu	-11.6918
▁kürek	-11.6918
▁deneyecek	-11.692
▁zehirli	-11.6921
▁veririm	-11.6921
▁bilmiyorduk	-11.6922
no	-11.6926
▁seçtik	-11.6926
▁koltuğum	-11.6927
▁isk	-11.6927
▁girdin	-11.6927
▁sınıfı	-11.693
▁bilmediğinden	-11.693
▁köpeğimiz	-11.6931
▁öğrenirse	-11.6932
▁pahalıydı	-11.6933
▁edebilirdi	-11.6936
▁grupta	-11.6938
▁soruların	-11.6939
▁konuşabilirsin	-11.6939
▁çıkıyorsun	-11.6941
▁karşıyım	-11.6941
▁özledi	-11.6943
▁yapsaydım	-11.6944
malıydın	-11.6944
abileceğim	-11.6945
▁inandığını	-11.6945
▁yeğenim	-11.6946
▁dönün	-11.6948
▁gereğinde	-11.6955
▁tavsiyem	-11.6958
▁birbirin	-11.6959
▁çıkarım	-11.6963
▁lo	-11.6964
▁şaşkınlık	-11.6967
▁dağlarda	-11.6969
▁karşılaştığımız	-11.6969
▁sesler	-11.6974
▁ofisini	-11.6976
▁alsan	-11.6978
▁yalnızım	-11.6981
▁yıkadım	-11.6981
▁kaçın	-11.6984
▁yazarım	-11.6985
▁bulamıyor	-11.6986
▁aradın	-11.6988
▁uymak	-11.6989
▁amacın	-11.6995
▁söylememeli	-11.6996
▁dersimiz	-11.6997
▁çatıda	-11.7
▁görüşlü	-11.7004
daydık	-11.7006
▁si	-11.7007
▁kaybettiler	-11.701
luğun	-11.7011
▁gitse	-11.7012
▁yaptığınızı	-11.7014
mıştım	-11.7015
▁sarılma	-11.7017
▁fotoğrafçı	-11.7021
▁şaşırmıştım	-11.7028
▁şansını	-11.703
▁ayrıldılar	-11.7035
birinizi	-11.7035
leyerek	-11.7036
▁sorgu	-11.7037
▁utanma	-11.7038
▁katılıyor	-11.7038
amayacağımı	-11.7039
▁sinek	-11.7041
▁komşunu	-11.7043
▁canımı	-11.7045
▁okuyorsun	-11.7049
▁söylesen	-11.705
▁fren	-11.7052
▁sıram	-11.7054
▁ötede	-11.7057
▁zemini	-11.7058
▁planladıkların	-11.7059
▁gelmeyeceğin	-11.7063
▁önerdiğin	-11.7065
▁eşini	-11.7069
▁yağı	-11.707
▁dönebilir	-11.707
▁kurbağa	-11.707
iyorsun	-11.7072
▁mutludur	-11.7076
▁kurt	-11.7077
▁bacaklarını	-11.7077
▁süreli	-11.7078
▁sağlıyor	-11.708
▁yaşındaki	-11.7082
▁düşünün	-11.7083
üyor	-11.7085
ek	-11.7085
▁endişelenmeye	-11.7087
leriniz	-11.7087
▁ekleme	-11.7087
▁bıraktılar	-11.7089
▁komşularım	-11.7091
▁görebildi	-11.7092
▁bileğini	-11.7095
▁kazandık	-11.7097
▁kızımı	-11.71
▁işledi	-11.7102
▁atlat	-11.7104
muştu	-11.7108
▁binmedi	-11.7109
▁denedik	-11.7111
▁bağırıyor	-11.7112
▁oynamıyor	-11.7113
▁çorbası	-11.7115
▁motosikleti	-11.7118
▁kazandığın	-11.7123
▁istemedik	-11.7129
▁yağma	-11.7129
▁umursamadığını	-11.7133
▁prenses	-11.7138
▁kremi	-11.7138
▁açıklamam	-11.7139
▁örtü	-11.7139
▁danışma	-11.7143
▁gururlu	-11.7146
▁başlamamız	-11.7146
▁sakinleşti	-11.7146
▁özgürlüğü	-11.7148
▁konuştuğum	-11.7151
▁soyguncu	-11.7152
▁boşalt	-11.7159
teki	-11.7161
▁kimya	-11.7162
▁uyarmaya	-11.7162
▁götürüyor	-11.7163
▁gönderiyor	-11.7168
▁seferde	-11.717
▁etmeniz	-11.7171
▁kullanabileceği	-11.7174
▁oynamasın	-11.7183
▁site	-11.7185
▁kutular	-11.7189
▁tercüman	-11.7196
▁ilet	-11.7201
▁antlaşma	-11.7208
▁gibisin	-11.721
▁oynayacağım	-11.721
▁inanamıyor	-11.7211
▁ağrıya	-11.7213
meli	-11.7213
▁tas	-11.7217
▁performansı	-11.7217
▁perişan	-11.7218
▁ün	-11.7219
▁uçmak	-11.7221
▁bo	-11.7225
▁duyu	-11.723
▁dairem	-11.7233
▁açıyor	-11.724
▁öldürecek	-11.7243
▁tavşan	-11.7245
▁arı	-11.7245
▁mor	-11.7246
▁sepet	-11.7248
▁dikkatsizliği	-11.7254
▁sınırı	-11.7259
▁sözün	-11.7263
▁biletim	-11.7263
▁edebileceğin	-11.7264
▁güncel	-11.7264
▁saklan	-11.7269
▁kuyruğu	-11.7269
▁sarsılmış	-11.7271
▁açıklayacak	-11.7272
▁üzüntü	-11.7272
▁yapabile	-11.7272
▁hüzünlü	-11.7272
▁keşif	-11.7272
▁maraton	-11.7272
▁nispet	-11.7272
▁oksijen	-11.7272
▁paranoyak	-11.7272
▁skandal	-11.7272
▁unutkan	-11.7272
▁çetin	-11.7272
▁çeyrek	-11.7272
▁önümde	-11.7272
▁burcu	-11.7272
▁konuldu	-11.7272
▁konuşabilsem	-11.7272
▁sevilir	-11.7272
▁bitecek	-11.7272
▁girdiğimde	-11.7272
▁gezinti	-11.7272
▁uyarıldı	-11.7272
▁boyattı	-11.7272
▁bilinmiyor	-11.7273
▁chu	-11.7273
▁dayadı	-11.7273
▁vuran	-11.7273
▁geçeceğin	-11.7273
▁ötesinde	-11.7274
▁kanıtladı	-11.7274
▁edilmektedir	-11.7275
▁göreceğini	-11.7275
▁dönelim	-11.7275
▁salim	-11.7275
ğimiz	-11.7276
▁değişebilir	-11.7276
▁çarptırıldı	-11.7277
▁açılır	-11.7277
▁oyuncağı	-11.7278
▁aldattı	-11.7278
▁devraldı	-11.7278
▁pişmiş	-11.7279
▁kolaylık	-11.7281
▁unutmuşum	-11.7281
▁detaylar	-11.7282
▁ediciydi	-11.7283
▁konuşmuyoruz	-11.7286
▁feda	-11.7286
▁hükümetin	-11.7287
▁ürünü	-11.7287
▁geçerlidir	-11.7288
▁gelişiyor	-11.729
▁görebiliriz	-11.7291
▁boğazım	-11.7291
▁çiçeği	-11.7291
▁kararlıydı	-11.7293
▁güvendi	-11.7293
▁yenildi	-11.7295
▁bozuyor	-11.7298
▁hissetmek	-11.7299
▁kalkmayı	-11.7301
▁hatalarını	-11.7301
▁suçlayamazsın	-11.7307
▁göstermeye	-11.7307
▁bulunduğu	-11.7308
▁unutuyordu	-11.731
▁yaptıkların	-11.7313
▁agresif	-11.7319
▁saatinde	-11.7323
▁ilgisiz	-11.7323
▁kaldırımda	-11.7323
▁çalışırız	-11.7324
▁tarzım	-11.7325
▁bırakmayacak	-11.7328
▁evleri	-11.7329
▁uzay	-11.733
▁mühendisi	-11.7331
▁çikolatal	-11.7338
▁turistler	-11.7338
▁bahsetmeyi	-11.7338
ırım	-11.7339
▁anlamaz	-11.7339
▁yoldur	-11.734
▁dövdü	-11.7341
▁uyarmadı	-11.7341
▁otobüsün	-11.7342
▁şirketimiz	-11.7342
▁düşüncem	-11.7344
▁maması	-11.7344
▁tahmini	-11.7346
▁çarpıldı	-11.7347
▁anahtarın	-11.7348
▁yapmamış	-11.7349
▁ışıklar	-11.7351
▁gezdi	-11.7353
▁getirmedi	-11.7354
▁miktarı	-11.7356
▁yükledi	-11.7361
▁gençtir	-11.7368
▁arkadaşlarız	-11.737
▁soracak	-11.7374
▁doldurun	-11.7376
▁verdiniz	-11.738
rır	-11.7381
▁parmaklarını	-11.7382
▁nüfus	-11.7383
▁pilav	-11.7383
ınıza	-11.7386
▁tartışmamız	-11.7389
▁şapkanı	-11.7393
▁izinsiz	-11.7395
▁davası	-11.7396
▁çalışırlar	-11.7396
▁eğlen	-11.7396
▁tuvaleti	-11.7399
▁tart	-11.7399
▁kurgu	-11.7405
▁beslemek	-11.7409
▁karşılığın	-11.7409
▁basketbolu	-11.7413
ğümü	-11.7417
▁sattım	-11.7417
▁geleceksin	-11.7419
▁kalacağın	-11.742
▁suçlanacak	-11.7422
▁bedeli	-11.7425
▁bulabileceğimi	-11.7429
▁limiti	-11.743
leşmiş	-11.7432
▁oynamaz	-11.7432
▁ürün	-11.7433
▁anlatabilir	-11.7433
▁döndüğümde	-11.7436
▁bahsettin	-11.7438
▁yiyorlar	-11.744
▁çalı	-11.7441
▁doğur	-11.7443
▁be	-11.7443
▁gençti	-11.7444
▁söylemememi	-11.7445
ru	-11.7447
▁hatırladı	-11.7448
▁elbisesini	-11.745
▁oldukların	-11.7451
▁saydı	-11.7451
▁ellerin	-11.7455
▁uydur	-11.7458
emiyor	-11.7459
▁kaçma	-11.7462
▁konuşmakta	-11.7462
iyordu	-11.7464
▁fikrimiz	-11.7468
yeceğim	-11.747
▁aramanı	-11.7471
▁çevirme	-11.7474
▁veremiyor	-11.7474
▁davetini	-11.7477
▁duymadın	-11.748
▁bahsettim	-11.7481
▁evler	-11.7487
▁benzini	-11.7487
▁öldürmedi	-11.7489
▁tanıştır	-11.7492
▁etki	-11.7493
▁dönmelisin	-11.7501
▁gören	-11.7501
▁çekmedi	-11.7504
▁sopa	-11.7507
▁uça	-11.7507
▁kalmalı	-11.7511
▁ezberleme	-11.7511
▁takmam	-11.7511
▁bulduğu	-11.7512
▁asistanı	-11.7514
▁olabildiğin	-11.7518
▁çıkarmaya	-11.7519
manı	-11.7519
▁şaşır	-11.7523
▁nedenleri	-11.7523
▁taşıy	-11.7524
▁yapılmasını	-11.7528
▁karını	-11.753
▁harcadık	-11.7533
chi	-11.7533
onlar	-11.7549
▁unutmayacak	-11.7555
▁beyzbolda	-11.7556
▁valizim	-11.7558
▁düşüncesi	-11.7562
▁organ	-11.7574
▁çalışmasın	-11.7579
labilsem	-11.7579
▁bagajımı	-11.7579
▁inanılmazdı	-11.7581
▁söndü	-11.7583
▁mucize	-11.7583
▁yarışmasın	-11.7588
▁eviniz	-11.7589
▁teyzesi	-11.759
▁bırakacak	-11.7591
▁gelmeme	-11.7597
▁kulüp	-11.7597
labileceğini	-11.7602
▁öğrettim	-11.7607
▁araması	-11.7608
▁edebileceğimiz	-11.7613
▁koyacağım	-11.7613
▁konuşu	-11.7624
▁terbiye	-11.7626
▁seyrediyor	-11.7626
▁niyetli	-11.7627
▁kazanamadı	-11.763
▁kontak	-11.763
▁üzüldü	-11.7632
▁korsan	-11.7633
▁yolculuğu	-11.7635
▁inci	-11.7637
▁baston	-11.7638
▁şarkısı	-11.764
▁kâr	-11.7641
▁hatırlatma	-11.7643
▁yolumu	-11.7653
▁sürüş	-11.7655
▁çamur	-11.7661
▁başlayacağımı	-11.7661
▁pantolonunu	-11.7666
▁soluk	-11.7668
▁bahçıvan	-11.7668
ıcı	-11.7669
▁haberin	-11.7671
▁hüküm	-11.7671
▁acayip	-11.7672
▁depresif	-11.7672
▁general	-11.7672
▁kaliforniya	-11.7672
▁meşhur	-11.7672
▁rahip	-11.7672
▁roosevelt	-11.7672
▁şöyle	-11.7672
▁ideal	-11.7672
▁ipad	-11.7672
▁ıspanak	-11.7672
▁akciğer	-11.7672
▁olağandışı	-11.7672
▁omzum	-11.7672
▁blog	-11.7672
▁karpuz	-11.7672
▁belirtti	-11.7672
▁öfkelendi	-11.7672
▁işçiler	-11.7672
▁soğuyor	-11.7672
▁durakladı	-11.7672
▁bitiyor	-11.7672
▁düşünürüm	-11.7672
▁yayınladı	-11.7672
▁alkollü	-11.7672
▁lokma	-11.7673
▁yapılabilir	-11.7673
▁değiştirmeyecek	-11.7673
▁dostça	-11.7673
▁bahseder	-11.7673
▁görmeliyim	-11.7673
▁trombon	-11.7674
▁yönetti	-11.7676
▁dilde	-11.7677
▁çalışmalıyım	-11.7677
▁diyecek	-11.7678
▁hazırlamak	-11.7679
▁beğendiğini	-11.7681
çtenlikle	-11.7682
▁dönmeyeceğim	-11.7682
▁günlüğünü	-11.7683
▁sinirlenir	-11.7686
▁çalışmayacak	-11.7686
▁dönük	-11.7687
▁büyüktü	-11.7688
▁hareketsiz	-11.7689
kar	-11.769
▁koşmayı	-11.769
▁mümkünse	-11.769
▁fırsatta	-11.769
▁edilmez	-11.7692
▁evliyiz	-11.7694
▁belirli	-11.7695
amadım	-11.7696
▁yemiş	-11.7698
▁engelleme	-11.7701
ümüzü	-11.7702
▁inşaat	-11.7703
▁olabileceğimi	-11.7706
▁pisliği	-11.7706
▁kazdı	-11.7707
▁kültür	-11.7708
▁randevuy	-11.7709
▁okumaz	-11.7712
▁kalmıyorsun	-11.7717
▁biner	-11.7717
▁şarkıcıdır	-11.772
▁isterseniz	-11.772
▁öğrencisidir	-11.772
▁bilirsin	-11.7721
▁faturalarını	-11.7722
▁enerjik	-11.7722
▁eteği	-11.7722
▁dediğin	-11.7723
▁enerjisi	-11.7724
▁aştı	-11.7724
▁aramamı	-11.7728
▁11	-11.7729
▁gelmeli	-11.7729
▁hoşlanmayacak	-11.7729
▁bulunan	-11.7732
▁biletini	-11.7732
▁başlamaya	-11.7734
▁şeklinde	-11.7735
▁otoparkta	-11.7735
▁iyisidir	-11.7742
▁resmimi	-11.7745
▁strateji	-11.7745
▁pişirdiği	-11.7748
▁yüksekti	-11.7751
▁sezon	-11.7751
▁alışıyor	-11.7752
▁duyarı	-11.7752
▁hikâye	-11.7752
▁sonucun	-11.7753
▁duyduğumuz	-11.7755
▁satıcısı	-11.7756
iyet	-11.776
▁salonu	-11.776
▁hobi	-11.7761
▁soyadı	-11.7763
▁ödediğini	-11.7764
▁çıkması	-11.7764
▁gittiniz	-11.7764
▁suçla	-11.7764
▁duyardı	-11.7766
▁birlikteyiz	-11.777
▁liman	-11.7771
tacağım	-11.7772
uzda	-11.7773
▁içim	-11.778
▁kolej	-11.7792
▁yalandı	-11.7796
▁evlenecekler	-11.7796
▁korkmam	-11.7805
▁bekliyorlar	-11.7806
▁geçinmiyor	-11.7807
▁kemik	-11.7808
▁kemeri	-11.7809
▁küpe	-11.7811
stasyonda	-11.7811
▁leke	-11.7812
ranın	-11.7812
▁tipi	-11.7816
melisiniz	-11.782
▁utandı	-11.782
▁hain	-11.782
▁evlerini	-11.7821
▁yaşamını	-11.7821
▁tombul	-11.783
▁standart	-11.7831
▁6	-11.7832
▁kitabımı	-11.7832
▁parçasını	-11.7837
▁varacağız	-11.7838
▁bekleyemez	-11.7839
▁uyumlu	-11.784
▁durdurabilir	-11.7844
▁haritası	-11.7848
▁bahsediyor	-11.7848
▁pozisyon	-11.785
▁değişeceğin	-11.7853
▁rehber	-11.7853
▁söylenildiği	-11.7853
▁düşüncelerini	-11.7854
▁ayırabilir	-11.7863
▁uğratma	-11.7863
ilir	-11.7865
▁düşünebilir	-11.7867
▁söylemediği	-11.7868
▁izlediğini	-11.7869
▁birer	-11.7869
▁muhabir	-11.7869
ilmesi	-11.787
▁is	-11.7872
ster	-11.7874
▁ava	-11.7874
▁yüzemiyor	-11.7875
▁saklama	-11.7875
▁kamerası	-11.7876
▁gönderdiği	-11.7882
▁halkın	-11.7884
▁boğazın	-11.7886
▁sarhoşsun	-11.7887
▁yapamayacağı	-11.7887
▁üzereyi	-11.7891
▁olaylar	-11.7902
▁esir	-11.7906
▁karışıklık	-11.7907
▁konuşabili	-11.7908
▁yardımcısı	-11.791
▁kaynağı	-11.7913
▁yarışta	-11.7916
▁güçlük	-11.7916
▁anlaş	-11.7917
▁tutacak	-11.7918
▁zafer	-11.7923
▁maden	-11.793
▁içe	-11.7932
▁hoşlanmadığımı	-11.7935
▁hayalini	-11.7938
▁ilacın	-11.7943
▁değiş	-11.7958
▁randevun	-11.7963
▁göremedi	-11.7965
▁amaç	-11.7966
▁durumla	-11.7967
▁havluy	-11.7973
▁kule	-11.7978
▁delil	-11.7982
▁sesin	-11.7982
vi	-11.7989
▁tırmanmay	-11.7989
▁atla	-11.7992
▁yakıt	-11.7998
▁seçtin	-11.7999
▁ağlaya	-11.8001
▁no	-11.8005
▁tutabilir	-11.8009
▁bardakta	-11.801
▁yaşım	-11.8012
▁istemedin	-11.8015
▁gayret	-11.8015
▁çocukluğunda	-11.8016
tmek	-11.8017
▁dinleri	-11.8021
▁salon	-11.8021
▁ağlattı	-11.8022
▁kontrolü	-11.8023
▁öpüşme	-11.8023
▁başardın	-11.8024
▁ikram	-11.8027
▁kuşları	-11.803
▁almasın	-11.8031
▁bacağında	-11.8036
▁çözümü	-11.804
▁çoğunda	-11.8044
▁olamadı	-11.8045
▁değ	-11.8049
▁durmadı	-11.8053
▁koltuklar	-11.8055
▁yerdi	-11.8056
▁fikirlerini	-11.8057
▁gözlükleri	-11.8057
▁hazırla	-11.8058
▁ortağı	-11.8058
▁hakkım	-11.8063
ıyoruz	-11.8064
▁kanıtlayabilir	-11.8067
▁gülümsüyor	-11.8069
▁hastası	-11.807
▁paramızı	-11.8071
imdir	-11.8079
▁koridorda	-11.8079
aşırı	-11.8082
▁aralık	-11.8087
▁örgü	-11.8087
▁abartma	-11.8088
▁tokat	-11.8088
▁alfabe	-11.8089
▁fasulye	-11.8089
▁litre	-11.8089
▁madalya	-11.8089
▁röportaj	-11.8089
▁sırılsıklam	-11.8089
▁sızıntı	-11.8089
▁tezahürat	-11.8089
▁yapayalnız	-11.8089
▁şampuan	-11.8089
▁şükür	-11.8089
▁ergen	-11.8089
▁tayland	-11.8089
▁topluluk	-11.8089
ydos	-11.8089
▁eğleneceğiz	-11.8089
▁hoşnutsuz	-11.8089
▁dostluk	-11.8089
▁pişireceğim	-11.8089
▁psikoloji	-11.8089
▁fermuarını	-11.8089
▁danışmanı	-11.8089
▁izleyeceğim	-11.8089
▁şık	-11.809
▁yılbaşı	-11.809
eşit	-11.809
▁çalışmalı	-11.8091
▁yaşamış	-11.8091
▁dönü	-11.8091
▁hastaymış	-11.8092
▁güvensiz	-11.8092
▁yarat	-11.8092
▁meşgulsün	-11.8093
▁gerçekte	-11.8093
▁yememelisin	-11.8093
▁hizmeti	-11.8093
▁okuyabilirim	-11.8094
▁perili	-11.8095
▁hakem	-11.8095
▁içmiyorum	-11.8095
▁yağlı	-11.8096
▁giyecek	-11.8096
▁kullanıyorsun	-11.8096
▁boğuluyordu	-11.8096
▁katılacağım	-11.8098
▁içten	-11.8098
▁cesedi	-11.8099
▁söyleyerek	-11.81
▁kaldırmak	-11.8101
▁ettirmeye	-11.8102
▁kalabiliriz	-11.8104
▁sıkıntılı	-11.8106
nce	-11.8106
▁yararı	-11.8107
▁vermeyecektir	-11.8107
▁tamamlandı	-11.8107
▁düşünebiliyor	-11.8108
▁üstün	-11.8108
▁gitmekte	-11.8109
▁kopyasın	-11.811
▁kocan	-11.8111
▁bebekler	-11.8112
▁büyükanne	-11.8112
▁yapmamalıyız	-11.8112
▁boz	-11.8116
▁güçleri	-11.8117
▁öz	-11.8118
▁görmeliydin	-11.8121
▁tanıştırdı	-11.8121
▁hakkını	-11.8123
mezdim	-11.8126
▁bulmada	-11.8128
▁planlama	-11.8128
▁esiyor	-11.8129
▁okumalısın	-11.813
▁yükleme	-11.813
▁yaşıyorsunuz	-11.8131
▁evliyim	-11.8131
▁incindi	-11.8133
▁kader	-11.8134
▁sürüyordu	-11.8135
▁edilmeye	-11.8136
▁taşındığını	-11.8137
▁atalı	-11.8138
▁ekibimiz	-11.8143
▁hatırladığım	-11.8144
▁hırsızlar	-11.8146
▁fayda	-11.8147
▁gidemedim	-11.8152
▁katılım	-11.8152
▁hatalıydım	-11.8157
▁katılabilir	-11.8157
▁teması	-11.8162
▁söyleseydin	-11.8163
▁açmasını	-11.8165
▁uğradık	-11.8165
▁sabahın	-11.8167
▁görüşmeye	-11.817
▁kollarında	-11.8172
▁yenme	-11.8172
▁hoşlandığın	-11.8174
▁çıkmam	-11.8177
▁ezber	-11.8179
▁hataların	-11.8179
▁duyabiliyor	-11.818
▁yiyeceğin	-11.8183
▁kaygan	-11.8183
▁dildir	-11.8186
▁kalemim	-11.8187
▁sahnede	-11.8188
▁sarhoşum	-11.8191
▁eyalet	-11.8191
▁sorusun	-11.8191
▁ödedin	-11.8193
▁eğlenmiyor	-11.8195
▁bilmelisin	-11.82
▁kap	-11.8201
muşsun	-11.8201
▁ger	-11.8203
▁kedin	-11.8207
▁aileniz	-11.8216
▁ebeveyn	-11.8216
▁girdiler	-11.8217
biliyor	-11.8217
mazdım	-11.8223
▁gülümsemesi	-11.8228
▁arabaları	-11.8231
▁bahsetmedim	-11.8231
▁karakter	-11.8231
▁uyumayı	-11.8235
▁katılması	-11.8235
▁kaybettiği	-11.8235
▁anlaşmamız	-11.8235
▁yay	-11.8238
▁tey	-11.8239
▁yersen	-11.8242
▁yanlıştır	-11.8244
▁misafirler	-11.8245
▁tara	-11.8247
▁evinizde	-11.825
▁uzmanı	-11.825
▁değiştirdin	-11.8252
▁dayım	-11.8252
▁cevaplama	-11.826
▁çalışanı	-11.826
▁taşıyabilir	-11.8262
▁mayo	-11.8264
▁kutusun	-11.8265
▁tatilinde	-11.827
▁masaj	-11.827
▁biten	-11.8279
ebilecek	-11.8279
▁sonuc	-11.828
▁sormama	-11.828
▁tanesi	-11.8281
▁dörtte	-11.8282
▁dairesinde	-11.8284
▁laf	-11.8284
▁neresi	-11.8291
memiz	-11.8292
▁güvenliğin	-11.8293
▁bavulu	-11.8298
▁bitirecek	-11.8299
▁yerimde	-11.8302
▁boyuyor	-11.8305
▁ortam	-11.8306
▁şişede	-11.8314
▁kilit	-11.8315
▁başlat	-11.8322
▁polisle	-11.8323
▁gerekenleri	-11.8327
▁lisans	-11.8338
▁sınavım	-11.8341
melidir	-11.8342
▁personel	-11.8343
▁tüfeği	-11.8343
▁karıştırma	-11.8347
▁ayrılması	-11.8349
▁kirasın	-11.8351
▁ekibi	-11.8353
▁gelmeyeceğim	-11.8355
▁arkadaşlarımız	-11.8356
▁bizde	-11.8356
▁yazması	-11.8357
▁başlayabilir	-11.836
▁kolum	-11.8361
▁etkiler	-11.8365
▁sınavın	-11.8365
▁tenisi	-11.8366
▁başlatma	-11.8368
▁anlattığı	-11.8371
▁çektiği	-11.8373
▁ağlamakta	-11.8375
▁raporumu	-11.8376
▁giyinmişti	-11.8379
▁üşüyor	-11.8381
▁bulacağımız	-11.8382
▁anneni	-11.8384
▁temmuz	-11.8385
▁baloy	-11.8386
▁bağırmak	-11.8386
▁uzaklar	-11.8391
▁konuşmuyorsun	-11.8392
▁takmıyor	-11.8392
▁yaramayacağın	-11.8394
▁portakalı	-11.8399
▁bacaklarım	-11.8403
▁sürdürme	-11.8404
▁gelemeyeceğin	-11.8405
▁kriz	-11.8405
▁öğrendiğind	-11.8405
▁dinlemeni	-11.8409
▁zirve	-11.8411
▁saygın	-11.8413
▁anlıyorsun	-11.8416
▁öte	-11.8417
▁girin	-11.8421
▁ci	-11.8423
▁karşısın	-11.8424
▁kulağı	-11.8428
▁hoşlanı	-11.8431
▁ateşle	-11.8435
▁olacağımız	-11.8437
▁işitme	-11.8439
▁kalbini	-11.844
stediğimiz	-11.8442
▁uzundu	-11.8442
▁diledim	-11.8444
▁kano	-11.8444
▁kocasın	-11.8445
reti	-11.8446
▁mahremiyet	-11.845
▁yatır	-11.8456
▁ayırma	-11.8457
ebileceğim	-11.8457
▁ilaçlar	-11.8462
▁kalite	-11.8463
▁deve	-11.8465
▁alıştı	-11.8466
▁tehlikesi	-11.8468
▁istemesi	-11.8469
▁borcun	-11.847
▁gönüllüler	-11.8471
▁hızlıdır	-11.8472
▁görüşün	-11.8472
mayın	-11.8474
layacak	-11.8477
▁yüzemediğin	-11.8481
▁öldürüyor	-11.8482
▁bulabildi	-11.8483
▁renkli	-11.8485
nanılmaz	-11.8486
▁cinayetle	-11.8488
▁gelişini	-11.8489
▁üçünüz	-11.8491
▁ayrılmam	-11.8496
▁güvenim	-11.8497
▁mesajını	-11.8497
▁eşin	-11.8498
▁kafeterya	-11.85
▁dikkatliydi	-11.8501
▁çalardı	-11.8503
▁yük	-11.8504
iliyor	-11.8504
▁gözümü	-11.8507
▁yağış	-11.8508
▁aşıktı	-11.8508
▁zorlama	-11.8509
▁hücre	-11.8514
▁yavrusu	-11.8515
▁kırma	-11.8518
▁senedi	-11.852
▁prens	-11.8522
▁görüldü	-11.8522
▁yorucu	-11.8523
▁ceset	-11.8523
▁doksan	-11.8523
▁enstrüman	-11.8523
▁jambon	-11.8523
▁mozart	-11.8523
▁mürettebat	-11.8523
▁resmî	-11.8523
▁zorbalık	-11.8523
▁ölümcül	-11.8523
▁şantaj	-11.8523
▁hemfikir	-11.8523
▁reçete	-11.8523
▁istenilen	-11.8523
▁tetikte	-11.8523
▁zihin	-11.8523
▁tuş	-11.8523
▁duyurdu	-11.8523
▁yaşayamam	-11.8524
▁bayrak	-11.8524
▁hayret	-11.8524
▁kesici	-11.8524
▁çarşamba	-11.8524
▁müsaade	-11.8524
▁alıyordu	-11.8524
▁ezdi	-11.8524
▁25	-11.8525
▁ısınıyor	-11.8525
▁eriyor	-11.8525
▁unutalım	-11.8525
▁buçukta	-11.8525
▁getirildi	-11.8525
▁beklemeyecek	-11.8526
▁anlayan	-11.8526
▁seti	-11.8527
▁çalacağını	-11.8527
▁amatör	-11.8527
▁muhasebeci	-11.8527
▁hazırlayacağım	-11.8527
▁uçurum	-11.8528
▁yenilgi	-11.8528
▁bırakmıyorsun	-11.8528
▁toplantımız	-11.8529
▁mesafesinde	-11.8529
▁bakayım	-11.853
▁ödevin	-11.853
▁titriyordu	-11.853
▁oturuyorlardı	-11.853
▁korkusuz	-11.8531
▁yüzüğünü	-11.8532
▁rusya	-11.8533
▁duymamış	-11.8533
▁kuzen	-11.8533
▁beklemeliyiz	-11.8533
▁verdirdi	-11.8533
▁kapanır	-11.8534
▁aşığım	-11.8534
ılmadı	-11.8536
▁bölgesinde	-11.8536
▁anlaştık	-11.8537
▁te	-11.8538
▁konuşuyorlardı	-11.8539
▁bitirmez	-11.8539
▁ayrılıyorum	-11.854
▁zamanlama	-11.8541
▁bulabileceğimiz	-11.8541
▁karşılaşmadım	-11.8541
▁gidebilirsiniz	-11.8542
▁yurtdışında	-11.8543
▁ağrıyordu	-11.8543
stasyonun	-11.8543
▁bitirdiğini	-11.8544
mayalım	-11.8546
▁alışmak	-11.8547
▁hoşlanırsın	-11.8548
▁karnım	-11.8549
▁dükkanın	-11.855
▁üşüdü	-11.855
▁günümü	-11.855
▁ortaokul	-11.8551
▁parmaklarım	-11.8555
▁sevmeyen	-11.8557
▁somun	-11.8558
▁girmesi	-11.8559
▁boyut	-11.8559
▁böcekleri	-11.8559
▁kalka	-11.856
▁oynamadım	-11.8561
▁işletme	-11.8562
▁öfkeliydi	-11.8563
▁ilişkisi	-11.8564
▁monte	-11.8567
▁eğilimi	-11.8568
▁hissediyordum	-11.8568
▁göremedim	-11.8569
▁resimlerin	-11.857
▁ciddiyim	-11.857
▁unutmaya	-11.857
▁terbiyeli	-11.8573
▁servisi	-11.8577
▁geçmeyi	-11.8577
▁atım	-11.8578
▁alacağın	-11.858
▁sessizliği	-11.8583
▁kaybolduğun	-11.8583
▁konular	-11.8584
▁oğlumuz	-11.8584
▁dinliyordu	-11.8584
▁kısmında	-11.8585
▁üçünü	-11.8588
▁erkeklerin	-11.8588
▁kaybettiğim	-11.8588
▁bacakları	-11.8589
▁biriktirdi	-11.8589
▁kravatını	-11.8592
▁bilmeli	-11.8592
▁izleme	-11.8595
▁yapardık	-11.8596
▁evliliği	-11.8597
▁ayakkabılarım	-11.8599
▁bağlama	-11.8599
▁benze	-11.8599
▁dövüşüyor	-11.86
▁büyükbabası	-11.8602
▁sıradaki	-11.8604
▁keyfi	-11.8604
▁sorumsuz	-11.8608
▁oturmaya	-11.8608
▁dönmüyor	-11.8609
▁biriktiriyor	-11.861
▁yapmaları	-11.8612
▁değiştirmem	-11.8614
▁kalanı	-11.8614
▁ödendi	-11.8615
▁düşmanları	-11.8615
▁hafıza	-11.8615
▁alkolik	-11.8616
▁emek	-11.8618
▁krema	-11.8618
▁gölette	-11.8619
▁bulabilir	-11.862
▁yetenekleri	-11.8622
▁yorumları	-11.863
eceğimizi	-11.8635
â	-11.8636
▁yürürü	-11.8637
▁biçme	-11.8638
▁vaktin	-11.8643
▁kutusu	-11.8645
▁kızma	-11.8647
▁hobisi	-11.8647
▁sürdür	-11.8652
▁olmasam	-11.866
▁uzanıyor	-11.8663
▁yapmıştı	-11.8663
▁makas	-11.867
▁inanmaz	-11.8672
▁ailede	-11.8673
▁kazalar	-11.8674
▁durduğunu	-11.8676
▁kayma	-11.8678
rdu	-11.8686
▁ayağım	-11.8694
▁konuşabileceğim	-11.8703
▁ailemde	-11.8704
▁söylentiler	-11.8704
▁pil	-11.8718
▁çevirmen	-11.8719
▁karşılaştır	-11.8719
▁kendileri	-11.872
▁gözlüklerini	-11.8723
▁yaptığımıza	-11.8724
▁öldürdün	-11.8725
▁bayanlar	-11.8726
▁borsa	-11.8726
▁limon	-11.8727
▁ertelemek	-11.873
▁buradaydım	-11.8732
luyum	-11.8732
▁böcekler	-11.8736
▁sinirlenme	-11.8737
▁artış	-11.8737
▁işareti	-11.8742
▁bardağını	-11.8743
▁hafızam	-11.8744
▁operasyon	-11.8746
▁önemsiyor	-11.8746
▁alınmadı	-11.8747
▁şart	-11.8748
▁konuşursun	-11.8748
▁planla	-11.8748
▁kalmalıydı	-11.8748
▁saklıyorsun	-11.8749
▁boyamay	-11.8752
▁evrakları	-11.8755
▁vermekten	-11.8757
▁görmeyeceğim	-11.8757
▁tadın	-11.8759
▁buzlu	-11.876
▁topla	-11.8761
▁çekmecede	-11.8761
▁söylemeseydi	-11.8766
▁kabak	-11.8766
▁kandırma	-11.8766
▁şüpheleniyor	-11.8769
▁üçümüz	-11.8769
tin	-11.8771
▁açıkl	-11.8771
▁hazırlandı	-11.8772
▁sandığın	-11.8774
▁çürük	-11.8774
▁mutluluğu	-11.8777
▁dersinde	-11.8778
▁ilgimi	-11.8779
▁şüphelerim	-11.8779
▁kesiyor	-11.878
eli	-11.8781
▁oynuyorsun	-11.8789
▁silahlarını	-11.879
▁sandalyesinde	-11.8792
▁kullanıl	-11.8792
▁kayboldum	-11.8797
▁pazartesileri	-11.8798
▁sersem	-11.8801
▁çevirdim	-11.8805
▁konuşabilme	-11.8805
nacak	-11.8806
▁sincap	-11.8806
▁gülümsemiyor	-11.8808
▁uyma	-11.881
lamayacağım	-11.8811
▁isteyeceğin	-11.8812
▁nere	-11.8814
▁yanıldığın	-11.8816
▁kuşkulu	-11.8822
▁ateşini	-11.8825
▁bildirme	-11.8826
▁endişelenmeniz	-11.8826
mizde	-11.8828
▁dere	-11.8829
▁dolap	-11.8832
▁ucunda	-11.8834
▁dönüştü	-11.8834
▁biriktirme	-11.8835
▁dostu	-11.8835
▁içmedi	-11.8838
▁çantaları	-11.884
▁kaybed	-11.884
▁korkutuyor	-11.8841
▁bıçağını	-11.8845
üdür	-11.8846
▁oluruz	-11.8849
▁umursa	-11.885
▁radyoda	-11.8852
▁başlasa	-11.8852
▁sağlama	-11.8854
▁kilitleme	-11.8855
▁fa	-11.8859
us	-11.8859
▁aramalısın	-11.8861
▁okulunda	-11.8862
▁geldiğim	-11.8863
▁demeyi	-11.8865
▁edebilme	-11.8865
▁endişelenmeme	-11.8869
▁duygularımı	-11.8872
▁düş	-11.8873
▁hoşlanırdı	-11.8873
▁buzdolabı	-11.8876
▁cüzdanında	-11.8878
▁koleksiyonu	-11.8878
▁okyanusu	-11.888
▁başarısızlığı	-11.8891
▁çalışmıyordu	-11.8897
▁sırları	-11.8899
▁sırtım	-11.8901
▁suda	-11.8903
▁tebessüm	-11.8903
▁görmesi	-11.8903
▁gidemeyeceğin	-11.8904
▁öldürür	-11.8905
▁ayrılmaz	-11.8906
sk	-11.8907
▁takın	-11.891
▁cevabım	-11.8911
▁hissediyordu	-11.8913
▁kazanabileceğim	-11.8913
▁eldivenler	-11.8914
▁kızarmış	-11.8914
▁hoşgörülü	-11.8917
▁fransızcam	-11.8917
▁seçi	-11.8918
abileceğimi	-11.8919
▁duyuyordu	-11.8921
nekler	-11.8926
▁rehin	-11.8927
▁filmler	-11.8929
▁ülkelerde	-11.8931
▁gelsen	-11.8931
▁çekin	-11.8931
siydi	-11.8934
▁anlamam	-11.8938
▁güvercin	-11.8941
?"	-11.8944
▁mesafede	-11.8944
▁kandırmaya	-11.8944
▁muaf	-11.8948
▁paha	-11.8948
▁kadınlara	-11.8948
▁talebi	-11.8952
▁atıyordu	-11.8953
▁yaşlarında	-11.8953
▁bekliyordun	-11.8959
▁gizem	-11.8962
▁bittiğinde	-11.8962
▁geçebilir	-11.8962
▁ettiğimiz	-11.8963
▁olanın	-11.8963
▁denizci	-11.8967
▁kararım	-11.8967
▁tarafını	-11.897
▁kafalı	-11.897
▁yapıl	-11.8972
▁meslek	-11.8974
▁içmiyor	-11.8974
▁kasırga	-11.8975
▁bando	-11.8978
▁eğdi	-11.8978
▁makarna	-11.8978
▁tesisatçı	-11.8978
▁anlaşılabilir	-11.8978
▁asgari	-11.8978
▁astronot	-11.8978
▁bakılırsa	-11.8978
▁buğday	-11.8978
▁bıyık	-11.8978
▁gidemeyecek	-11.8978
▁hanımefendi	-11.8978
▁husus	-11.8978
▁koruyucu	-11.8978
▁olumsuz	-11.8978
▁stadyum	-11.8978
▁tespit	-11.8978
▁yitirdi	-11.8978
▁şükran	-11.8978
▁pamuk	-11.8978
▁yaygara	-11.8978
▁artistik	-11.8978
▁lehinde	-11.8978
▁söyleyebilsem	-11.8978
▁yaslandı	-11.8978
▁hissedebiliyor	-11.8978
▁uzunluğunda	-11.8978
▁golfçü	-11.8978
▁yoksulluk	-11.8978
▁yetmiş	-11.8979
▁biter	-11.8979
▁buluşur	-11.8979
▁öğreneceğiz	-11.8979
▁çıkacağız	-11.898
▁bindik	-11.898
▁ısınma	-11.898
▁anlatamam	-11.898
▁atom	-11.8981
▁işgal	-11.8981
▁okuyan	-11.8982
▁trenleri	-11.8982
▁karartıcı	-11.8982
▁yarıştı	-11.8982
▁kurtulan	-11.8983
▁semtte	-11.8984
▁ineği	-11.8984
▁uçurdu	-11.8984
▁balina	-11.8985
▁bulman	-11.8986
▁oturduğunu	-11.8987
▁evimizde	-11.8987
▁balıkçılık	-11.8989
▁tarifi	-11.899
▁peruk	-11.8992
▁değiştirecek	-11.8992
▁kötüyüm	-11.8992
▁varsayım	-11.8992
▁dursun	-11.8993
▁harcıyoruz	-11.8993
▁yapamıyorum	-11.8993
▁soruyorum	-11.8995
▁diplomatik	-11.8995
▁durumumuz	-11.8997
▁öğretmendi	-11.8997
▁öncelik	-11.8999
▁söylemiştin	-11.9
▁diler	-11.9001
▁mızmız	-11.9003
▁ayrılacağım	-11.9004
▁miydiniz	-11.9005
▁beklettiğim	-11.9006
▁aylak	-11.9007
▁fikirdi	-11.9008
▁sormuyorsun	-11.9008
▁kaldırı	-11.901
▁fikriydi	-11.9011
▁yakma	-11.9013
▁rengini	-11.9014
▁çıkman	-11.9017
▁dayanılmaz	-11.9017
▁paylaşıyor	-11.9017
▁planlıyorsunuz	-11.9019
▁onardı	-11.9019
▁yuttu	-11.902
▁kağıd	-11.9021
▁çocuğunu	-11.9021
▁seyretmek	-11.9021
▁gar	-11.9023
▁türünü	-11.9026
▁kuvvetli	-11.9026
▁içkisini	-11.9028
▁profesörü	-11.9031
▁tanımıyordum	-11.9032
▁dinlediğini	-11.9034
ebilsem	-11.9034
▁bıraktığı	-11.9035
▁uzaktır	-11.9036
▁dönmeli	-11.9037
laştırıldığında	-11.9041
▁göndermeyi	-11.9043
▁nerededir	-11.9047
nuzu	-11.9047
▁aylar	-11.9047
▁ıslandı	-11.9048
▁konuşula	-11.905
lılar	-11.9051
▁kulaklarım	-11.9051
▁düşürme	-11.9052
▁sürdüğü	-11.9055
▁isteksizdi	-11.9055
uncu	-11.9061
▁yapmamalıydım	-11.9062
▁görüşebilir	-11.9063
▁evlendik	-11.9064
▁koymamı	-11.9065
▁alabiliriz	-11.9068
▁gitmezdi	-11.9069
▁kenti	-11.9071
▁girmen	-11.9072
▁artı	-11.9073
▁çadır	-11.9073
▁başarısını	-11.9073
▁dönmeni	-11.9074
▁düşüneceğim	-11.9075
▁24	-11.9076
▁bıraksan	-11.9079
▁uğramak	-11.9081
▁güvenir	-11.9081
▁etmeyeceğin	-11.9082
▁bekletme	-11.9087
▁valiz	-11.9087
▁üstündeki	-11.9091
▁okuyacağım	-11.9093
▁ağırdır	-11.9093
▁gitmenizi	-11.9095
▁usandı	-11.9096
▁oturmuş	-11.91
▁bilmesin	-11.9102
lemek	-11.9105
▁toplar	-11.9106
▁izlemem	-11.9114
▁istemelisin	-11.9116
▁şirketinde	-11.9118
▁şanssızdı	-11.9119
▁kimliği	-11.9119
▁sözlüğün	-11.912
bo	-11.9121
▁pateni	-11.9122
▁eğitimli	-11.9124
▁dizini	-11.9125
▁yakış	-11.9126
▁okuması	-11.9127
▁kızacak	-11.9128
▁tanımıyormuş	-11.9129
▁saray	-11.9129
▁tecrübe	-11.913
▁yemiyorsun	-11.9133
▁etiketi	-11.9135
▁döndün	-11.9137
▁danışman	-11.9137
▁bavulları	-11.9137
▁gideceğimiz	-11.9141
▁izlerini	-11.9144
▁rekoru	-11.9144
▁yoksun	-11.9145
▁düşüneceğin	-11.9147
▁bulan	-11.9148
▁romanlarını	-11.9149
▁saatlerinde	-11.915
▁vücudun	-11.9151
▁pasaport	-11.9154
▁kentin	-11.9156
▁ilişkiler	-11.916
▁şampiyon	-11.9161
▁değiştirmez	-11.9162
▁geçirmekten	-11.9162
▁gerçeğin	-11.9164
▁dişi	-11.917
▁aileni	-11.9171
dayız	-11.9174
▁öğrenebilir	-11.9176
▁ayar	-11.9176
▁sorusu	-11.9176
▁karakteri	-11.9177
▁bilimci	-11.9188
▁sevinç	-11.9191
▁dönmez	-11.9191
▁bavulum	-11.9195
▁satma	-11.9198
▁yakalama	-11.9209
▁dinlemelisin	-11.9215
▁yapabileceğiniz	-11.9216
▁bagajı	-11.9219
▁seviyorlar	-11.9228
abilirdi	-11.9228
▁tutmadı	-11.9229
▁dinlemiyorsun	-11.9231
▁öğretmemi	-11.9241
▁indim	-11.9252
▁başlamıştı	-11.9256
▁uğramadı	-11.9256
▁amacını	-11.9258
▁ekip	-11.9259
▁sin	-11.927
▁karış	-11.9275
layacağım	-11.928
▁sevgilisi	-11.9283
▁kanama	-11.9291
▁reddetme	-11.9292
onu	-11.9294
▁ağla	-11.9295
▁değdi	-11.9296
▁mücevher	-11.9299
▁köpeklerin	-11.9308
lıkla	-11.9312
▁ro	-11.9312
▁yaklaşım	-11.9326
▁koltuğ	-11.9326
▁avantaj	-11.9329
▁beğenmiş	-11.9329
▁geceydi	-11.933
▁atandı	-11.9334
▁boğulmak	-11.9336
▁söndür	-11.9336
rak	-11.9337
▁menü	-11.9338
▁midesi	-11.9346
▁silahları	-11.9347
▁hatırlamadı	-11.935
▁niyetindeyi	-11.9355
▁yaptıklarında	-11.9356
▁etmemeliydi	-11.936
▁destekliyoru	-11.9363
▁anlamayacak	-11.9369
▁kağıdın	-11.937
▁oturabilirsin	-11.9379
▁algınlığım	-11.9379
▁ömrü	-11.938
▁hor	-11.9386
▁fransızcamı	-11.9387
▁dinleyici	-11.9388
▁desteğin	-11.9388
▁popülerdi	-11.9391
▁buzdolabını	-11.9394
▁sizinki	-11.9396
▁olmayacağımı	-11.94
▁16	-11.9405
▁haberlerim	-11.9405
▁uyumuyor	-11.9408
▁ummuyordu	-11.941
▁yetiş	-11.9413
▁savaştı	-11.942
▁dedikodu	-11.9426
▁açmayı	-11.9428
▁farkın	-11.943
▁görmeyecek	-11.9432
▁tatilin	-11.9432
emedim	-11.9432
▁hoşlandığı	-11.9433
▁kahvemi	-11.9434
▁güçlüsün	-11.9435
▁kaçırdın	-11.9437
▁ölmekte	-11.9443
▁alabileceğimiz	-11.9445
▁suçlanıyor	-11.9445
▁arkadaşımız	-11.9446
▁etmekte	-11.9449
▁aradığımız	-11.9451
şimiz	-11.9453
▁sürmen	-11.9453
▁tutucu	-11.9454
▁dargın	-11.9454
▁dayanıklı	-11.9454
▁gidemeyiz	-11.9454
▁gideyim	-11.9454
▁kâğıt	-11.9454
▁muhafazakâr	-11.9454
▁smokin	-11.9454
▁yaralanan	-11.9454
▁züppe	-11.9454
▁ketçap	-11.9454
▁evvel	-11.9454
▁ördü	-11.9454
▁kastediyor	-11.9454
▁ayarladı	-11.9455
▁duymuş	-11.9455
▁affedeceğini	-11.9455
▁geleneksel	-11.9455
▁iyileşeceğin	-11.9455
▁gürültülüydü	-11.9455
▁bakıldığında	-11.9455
▁hazırlıksız	-11.9456
▁gergindi	-11.9456
▁kurtarıldı	-11.9456
▁esas	-11.9456
▁kavuşturdu	-11.9456
▁belgesel	-11.9456
▁metin	-11.9457
▁kuruladı	-11.9457
▁öğrenmeliyim	-11.9457
▁alev	-11.9457
▁unutmayalım	-11.9459
▁dönmüştü	-11.9459
▁tanırım	-11.9459
▁hissedeceksin	-11.9459
▁kalmalıyım	-11.946
▁felsefe	-11.946
▁kiralık	-11.946
▁işitti	-11.9461
▁üfledi	-11.9462
▁albümünü	-11.9464
▁öğretim	-11.9465
▁bandı	-11.9469
▁kaybetmekten	-11.9469
▁yavaşla	-11.947
▁komikti	-11.9471
▁kasap	-11.9473
▁komada	-11.9474
▁güvenemezsin	-11.9475
▁çalınan	-11.9477
▁aleyhinde	-11.9479
▁girmiş	-11.9482
▁hissim	-11.9483
▁sorumludur	-11.9483
▁vurmadı	-11.9483
▁anlayabiliyor	-11.9483
▁düşündüğünüz	-11.9485
▁ağaçların	-11.9485
▁kalemle	-11.9486
▁dinlenmelisin	-11.9486
▁içersin	-11.9487
▁dökme	-11.9488
▁neşelendirme	-11.9489
▁incitmeyecek	-11.9494
▁kondu	-11.9496
▁yaptırmaya	-11.9498
▁yapabilirsiniz	-11.9498
ch	-11.9501
kinizin	-11.9503
▁filmdi	-11.9503
▁olmalılar	-11.9503
▁eşiğinde	-11.9503
▁olamadım	-11.9506
▁hastayım	-11.9506
▁dostum	-11.9508
▁hap	-11.9509
▁soy	-11.951
▁alnın	-11.9511
▁değerlendir	-11.9511
▁bekliyorduk	-11.9514
sünü	-11.9516
▁dinlemeye	-11.9516
▁kazaydı	-11.9517
▁esprili	-11.9518
▁olmanız	-11.9519
▁saygısız	-11.9519
▁kardeşler	-11.9519
çmek	-11.9522
▁misafirlerimiz	-11.9524
▁yaşamadım	-11.9524
▁söylememek	-11.9526
▁çağrısı	-11.9526
▁şanslıydık	-11.9527
▁söyleyeceksin	-11.9528
▁baharda	-11.953
▁programım	-11.953
▁sandalyede	-11.9534
▁söylemediğim	-11.9535
▁denemeyi	-11.9542
▁istihdam	-11.9543
▁olabilirsiniz	-11.9545
▁kaplan	-11.9545
▁inandım	-11.9548
▁saklamay	-11.9548
▁beğenir	-11.955
▁başlarında	-11.9551
▁kırdığı	-11.9552
▁suçlar	-11.9554
▁sıcaktır	-11.9555
▁başlamayı	-11.956
yemeyiz	-11.9563
▁perdeler	-11.9566
▁basma	-11.9566
▁gelişi	-11.9567
▁uçma	-11.9571
▁giymiş	-11.9572
▁peynirli	-11.9572
▁rahatsızlık	-11.9572
▁teknesi	-11.9573
▁markette	-11.9574
▁beşe	-11.9578
▁yolcular	-11.9582
▁sonuçlandı	-11.9583
▁karışmak	-11.9584
ydin	-11.9584
▁yaşadığımız	-11.9585
▁düşürdüm	-11.9586
▁hatırlıyorsun	-11.9587
▁yerleri	-11.9587
▁karşılıklı	-11.9592
▁9	-11.9594
▁korkusu	-11.9599
▁hükümeti	-11.9601
▁bıraktık	-11.9601
▁almayın	-11.9606
▁oynamam	-11.9606
▁yakalay	-11.9607
▁yumruğu	-11.9609
▁hazırladım	-11.9611
▁hapı	-11.9612
hane	-11.9616
▁koruyor	-11.9617
▁çeviriyor	-11.9617
▁kenarın	-11.9618
▁koltuğu	-11.9618
▁görünüm	-11.962
mıyoruz	-11.962
▁öğrenimi	-11.9624
▁tamirci	-11.9629
nüz	-11.9632
▁istemeyen	-11.9635
▁endişelenmiyor	-11.9635
▁to	-11.9635
▁koltuğunu	-11.9638
▁türde	-11.964
▁kurtar	-11.9641
▁kapatmamı	-11.9642
▁görmemişti	-11.9643
▁iddialı	-11.9649
▁karşılaşma	-11.965
▁düşünmesi	-11.9653
▁ilkbahar	-11.966
▁kuşların	-11.9663
▁yaptırabilir	-11.9664
▁hissed	-11.9666
rıyor	-11.9667
▁beğendi	-11.9667
▁bebeğini	-11.967
▁tekrarlar	-11.9672
▁yaşlandı	-11.9673
▁kiramı	-11.968
▁etmemesini	-11.9685
▁katlandı	-11.9687
▁temizledim	-11.9689
▁kulesi	-11.9689
▁kazandığı	-11.9694
▁çıktın	-11.9694
▁avukatın	-11.9695
nmek	-11.9699
▁uçar	-11.9702
▁hedefi	-11.9702
▁öldürdüğü	-11.9702
▁ulaştım	-11.9703
▁konuşmamalısın	-11.9703
▁tartışıyorlar	-11.9709
▁faturaları	-11.9711
▁tüyler	-11.9712
▁koyuyor	-11.9714
▁götürmemi	-11.9718
▁durağın	-11.9719
▁takıl	-11.9725
▁yönetiyor	-11.9726
▁ederse	-11.9729
▁aradığında	-11.9729
▁masamı	-11.9729
▁önerim	-11.9739
▁teorisi	-11.9739
▁çalışmıyorsun	-11.9742
▁tersi	-11.9745
▁yalancısın	-11.975
▁gecede	-11.9757
▁olmamalıydı	-11.9758
▁çayın	-11.9758
▁kaybolma	-11.9759
▁edil	-11.976
▁geçireceğim	-11.9763
▁kalkış	-11.9766
▁ilgilenme	-11.9769
▁boyda	-11.9771
sü	-11.9772
▁kararıyor	-11.9777
▁bekleyebileceği	-11.9778
▁yeteneğini	-11.9778
▁öldüreceği	-11.9781
▁yemedin	-11.9781
▁babalar	-11.9787
▁etmeliydin	-11.9787
▁aşkı	-11.9788
▁görüşmeler	-11.9789
▁ucu	-11.9789
▁kalbimi	-11.979
▁yüzen	-11.979
son	-11.9793
▁özen	-11.9796
▁sarışın	-11.9804
▁önerini	-11.9806
▁uyuyabilir	-11.9808
▁hapları	-11.981
▁ödev	-11.9814
▁sonbahar	-11.9815
▁isimler	-11.9817
▁rastladı	-11.9818
▁çalışama	-11.9821
▁olunca	-11.9822
▁gizleme	-11.9822
▁mer	-11.9825
▁yapamayacağın	-11.9827
▁cildi	-11.9834
▁kandır	-11.9835
▁barışı	-11.9837
▁içmeme	-11.9842
▁engelli	-11.9844
▁yem	-11.9844
tayım	-11.9844
▁bayrağı	-11.985
▁gerçekleş	-11.9854
▁antik	-11.9854
▁hatırlamaya	-11.9857
▁haziranda	-11.986
▁otları	-11.9861
▁hamle	-11.9863
▁muhteşemdi	-11.9867
▁çıktığında	-11.987
▁alarmı	-11.9874
ınızı	-11.9877
asyon	-11.9877
▁duru	-11.9878
▁he	-11.988
▁seyirciler	-11.988
▁vermen	-11.9888
▁dilli	-11.9892
lamıyor	-11.9899
▁kıyafetleri	-11.9899
▁seyretme	-11.99
▁sürmekte	-11.99
eceksin	-11.9901
▁kapıcı	-11.9901
▁kaş	-11.9905
▁tasarrufu	-11.9905
▁giderleri	-11.9906
▁alışverişi	-11.9908
▁yaşların	-11.9908
▁pazarlık	-11.9908
▁rakip	-11.9909
line	-11.9911
▁öneriyor	-11.9917
▁yıkanma	-11.9918
▁planladığım	-11.9919
▁aş	-11.9919
stiyorsan	-11.9922
▁tutuklan	-11.9922
▁tereyağ	-11.9924
htiyaç	-11.9924
▁piyasa	-11.9924
▁iştir	-11.9926
▁sertti	-11.9927
▁hatamdı	-11.9927
▁sok	-11.9927
▁makbuz	-11.9928
▁gösterisi	-11.9929
▁ruj	-11.9931
▁ağabeyi	-11.9931
▁benzemiyorsun	-11.9936
▁öptüğüm	-11.9936
▁pijama	-11.994
▁sorumluluğunu	-11.9948
▁cüzdanım	-11.9948
▁eşyalarım	-11.9949
bunlar	-11.9949
▁zeka	-11.995
▁sorgulama	-11.995
▁birçoğu	-11.9953
▁sıvı	-11.9954
▁temsil	-11.9954
▁sivil	-11.9954
▁klarnet	-11.9954
▁efsane	-11.9954
▁göç	-11.9954
▁akvaryum	-11.9954
▁bowling	-11.9954
▁dalgın	-11.9954
▁eylül	-11.9954
▁fındık	-11.9954
▁havladı	-11.9954
▁inandırıcı	-11.9954
▁mahsur	-11.9954
▁musluk	-11.9954
▁tasarladı	-11.9954
▁elveda	-11.9954
▁alışılmadık	-11.9954
▁aldatıcı	-11.9954
▁görülecek	-11.9954
▁ummuştu	-11.9954
▁canavar	-11.9954
▁pastırma	-11.9954
▁ılık	-11.9954
▁çiğnedi	-11.9954
▁sinirlendiriyor	-11.9954
▁kobe	-11.9955
▁çamurlu	-11.9955
▁dilenci	-11.9955
▁tekmeledi	-11.9955
▁taşıttı	-11.9955
▁kumanda	-11.9955
▁değiştiriyor	-11.9955
▁kayakçı	-11.9955
▁ablası	-11.9956
▁bakkal	-11.9956
▁kaptı	-11.9956
bileceğin	-11.9957
▁beyni	-11.9957
▁zayıfladı	-11.9957
▁edilmişti	-11.9958
▁sevilmek	-11.9958
▁başlayabiliriz	-11.9958
▁özlediğin	-11.9958
▁sormalıyım	-11.9958
▁14	-11.9958
▁subay	-11.9959
▁konuşmayacağım	-11.996
▁binelim	-11.9961
▁kullanmıyor	-11.9962
▁katında	-11.9962
▁uyuya	-11.9962
▁ütü	-11.9964
▁katılamadı	-11.9965
▁katlanamadı	-11.9965
▁değişecek	-11.9965
▁gömüldü	-11.9966
▁edebilsem	-11.9966
▁açıklayabilirim	-11.9966
▁yetmiyor	-11.9966
▁pat	-11.9967
▁elektriği	-11.9967
▁değersiz	-11.9968
▁satılır	-11.9969
▁yaratır	-11.997
▁sandığını	-11.997
▁aşçısın	-11.9971
▁savundu	-11.9971
▁geçit	-11.9973
▁ağustos	-11.9973
▁yetim	-11.9973
▁kötüsünü	-11.9973
▁sinsi	-11.9974
▁etmektedir	-11.9975
▁söyleyince	-11.9975
▁problemle	-11.9976
▁adet	-11.9977
▁isyan	-11.9979
süz	-11.9979
▁kaçındı	-11.9979
▁düşünmeme	-11.9979
▁uyurum	-11.998
▁mürekkep	-11.9981
▁yapmayacaksın	-11.9981
▁tırman	-11.9985
▁pahası	-11.9985
▁dedemin	-11.9986
▁ütüledi	-11.9986
▁uğrayacağını	-11.9987
▁anlatmaya	-11.9987
kizler	-11.9988
▁azarlandı	-11.9989
▁konudur	-11.999
▁görmelisin	-11.9991
▁döneceksin	-11.9991
▁trenler	-11.9991
▁tanıtım	-11.9993
▁alırız	-11.9993
▁oturuyorum	-11.9994
▁buldunuz	-11.9995
▁heyecanlandı	-11.9996
▁arzusu	-11.9999
ger	-12
▁oynuyorum	-12
▁yüzümü	-12.0001
▁umudumuz	-12.0003
▁sakindi	-12.0003
▁oturmuyorsun	-12.0004
▁savunmasız	-12.0006
▁aptaldı	-12.0006
▁durumum	-12.0012
▁affetmedi	-12.0013
▁akıllıydı	-12.0013
▁gelmiyorum	-12.0013
▁çevirebilir	-12.0016
▁ayrılmayacak	-12.0017
▁geleceğimi	-12.0019
lgilen	-12.0019
▁tavsiyeni	-12.002
▁içtik	-12.0022
▁ayrılabilir	-12.0024
▁yapsam	-12.0027
▁etmemesi	-12.0028
▁ediyorlardı	-12.0028
▁sorduğun	-12.0031
afil	-12.0032
▁tipim	-12.0034
▁bilmiyorlar	-12.0035
▁diplomat	-12.0038
▁omuzların	-12.0038
▁dondu	-12.0039
▁eylemleri	-12.0039
▁golfte	-12.0043
▁bahis	-12.0043
▁doktordur	-12.0043
▁tanıştırma	-12.0044
▁öğretmenlerin	-12.0046
▁öpüyor	-12.0047
▁kaçak	-12.0048
▁yardımsever	-12.0049
▁gidişini	-12.0051
▁kalkmadı	-12.0051
▁beklemiyorsun	-12.0056
▁çağırır	-12.0056
▁zamandı	-12.0063
▁alıcı	-12.0063
▁okumamı	-12.0063
▁gezegen	-12.0065
▁geçinemiyor	-12.0066
▁verdiğimi	-12.007
▁yakalanmadı	-12.007
▁sınavlar	-12.0072
▁ayağı	-12.0073
▁gelmezse	-12.0073
▁dökül	-12.0078
▁ilkokul	-12.0079
▁renkte	-12.0079
meyelim	-12.0081
▁yediğimi	-12.0085
▁giren	-12.0091
▁çağırma	-12.0093
▁cesaretim	-12.0093
▁pili	-12.0093
▁içerdi	-12.0093
ımda	-12.0094
▁müzikle	-12.0094
▁uygula	-12.0096
▁kardeşlerim	-12.0097
▁hastaydım	-12.0102
▁testere	-12.0103
▁yazarın	-12.0107
▁bahsed	-12.0108
▁büyükbaba	-12.0112
▁cezalandırma	-12.0112
sh	-12.0114
▁antika	-12.0115
▁öğrenciydi	-12.0116
▁olmaman	-12.0116
▁semt	-12.0118
▁radyonu	-12.012
▁bilmeyi	-12.0121
▁beklediği	-12.0122
▁iştahım	-12.0123
▁götürme	-12.0123
▁çıkmamı	-12.0123
▁kitaptır	-12.0127
▁y	-12.0128
▁adamların	-12.0131
rs	-12.0134
▁bakıma	-12.0134
▁ho	-12.0135
▁önerme	-12.0136
çimde	-12.0137
▁yürümekten	-12.0142
▁kazanmaz	-12.0143
▁sokmak	-12.0148
▁kardeşidir	-12.0149
▁kirliliği	-12.015
▁sarılmak	-12.0152
▁etmediler	-12.0153
▁bilmeniz	-12.0154
▁yaşıyordum	-12.0155
▁penceresi	-12.0156
▁bitirdiğinde	-12.0157
▁oynamadı	-12.0157
▁kimliğini	-12.0158
▁uzlaşmaya	-12.016
▁tutku	-12.0163
▁arabamız	-12.0164
▁durmayı	-12.0164
▁melek	-12.0168
▁tahminim	-12.0169
▁tarihini	-12.017
▁anneannem	-12.017
▁ilacını	-12.0171
▁çıkarmadı	-12.0171
▁duyguy	-12.0175
lacak	-12.0181
üz	-12.0182
▁planlarınız	-12.0185
▁ceketim	-12.0185
▁kola	-12.0186
▁durmanı	-12.0187
▁görüşmeyi	-12.0189
gra	-12.0193
▁hekimi	-12.0196
lamadı	-12.0197
ilme	-12.0198
▁bulunduğunu	-12.0203
▁eğlenmediği	-12.0204
yorsun	-12.0206
▁bilmediğimiz	-12.0212
▁iniyor	-12.0218
▁kanal	-12.0219
▁tereddütlü	-12.0219
▁ku	-12.0221
▁sağduyulu	-12.0223
▁bıraksa	-12.0224
▁buluştuk	-12.0225
▁döv	-12.0225
▁numaranız	-12.0226
tme	-12.0228
▁öptün	-12.0228
tıyor	-12.0231
▁yağması	-12.0233
▁edinir	-12.0236
▁yıkamasın	-12.0236
▁l	-12.0237
▁azalt	-12.0243
▁faks	-12.0243
▁kaybettiğimi	-12.0244
▁oyuncaklar	-12.0245
▁gelmediği	-12.0248
▁kızmıştı	-12.0249
▁ısırma	-12.025
▁kovulduğun	-12.025
▁cipsi	-12.0252
▁köyün	-12.0253
▁üzülüyor	-12.026
▁alabileceğimi	-12.0264
▁öğrencisiyi	-12.0265
▁umudu	-12.0267
▁görevimiz	-12.0269
▁masraf	-12.0273
▁197	-12.0276
▁yarayı	-12.0279
▁depo	-12.0279
▁mini	-12.028
▁gidebileceğin	-12.0284
▁kullanama	-12.0286
▁vazgeçirme	-12.0286
▁koşma	-12.0287
▁hafızası	-12.029
▁katım	-12.029
▁karşıla	-12.0291
▁gösteren	-12.0294
▁kartını	-12.0295
neden	-12.0295
▁karınca	-12.0296
▁hayaletleri	-12.0297
▁giremezsin	-12.0302
▁olurdun	-12.031
▁düzenle	-12.0313
▁öğrenim	-12.0314
▁hayvanların	-12.0315
▁yatağı	-12.0317
▁dama	-12.0319
▁soya	-12.0322
▁makası	-12.0324
▁üste	-12.0326
▁derdi	-12.0327
▁çalacağım	-12.0329
▁durağında	-12.0334
▁basitti	-12.0335
▁uğraşıyor	-12.0336
▁hatasız	-12.0337
▁dediğimi	-12.034
▁sözlüğ	-12.034
▁trenini	-12.0341
▁okumuş	-12.0343
▁görgü	-12.035
▁komşular	-12.0351
▁bankalar	-12.0351
▁asistan	-12.0353
▁kamyonet	-12.0358
ilebilir	-12.0358
▁konuşacağımı	-12.0362
▁ölçü	-12.0374
şinizi	-12.0377
▁hesab	-12.0379
▁maçını	-12.0388
▁uykuluyu	-12.039
go	-12.0391
▁pastası	-12.0392
▁ücretleri	-12.0393
▁kaçırdık	-12.0394
▁belirlen	-12.0402
▁anlaştı	-12.0404
▁karşılama	-12.0404
▁umursamadı	-12.041
▁mahkumlar	-12.0413
▁işıklar	-12.0414
▁yiyeceksin	-12.0417
▁dokun	-12.042
▁banyoy	-12.042
▁kandırdı	-12.0421
▁ot	-12.0423
▁atadı	-12.0424
▁düşer	-12.0426
▁gölge	-12.0427
lüğü	-12.0429
▁çağıracağı	-12.0434
▁çalıştığımı	-12.0434
▁ödeyeceksin	-12.0438
▁tepesi	-12.0438
▁gemisi	-12.044
▁duyamadı	-12.0441
▁sinirlerim	-12.0443
▁bağışlama	-12.0449
luyor	-12.045
lgilenecek	-12.045
diniz	-12.0451
▁yetişme	-12.0451
▁dönüyoru	-12.0455
▁alırsan	-12.0457
▁vermedik	-12.0458
▁vurdum	-12.046
▁kazanacağımı	-12.046
▁üzgünsün	-12.046
▁bahsettiğini	-12.0468
▁kaydedil	-12.0469
▁giymiyor	-12.0471
x	-12.0474
▁baygın	-12.0474
▁baca	-12.0475
▁sos	-12.0476
▁denge	-12.0477
▁biletin	-12.0479
▁sahtekar	-12.0479
▁acemi	-12.048
▁atasözü	-12.048
▁cankurtaran	-12.048
▁cılız	-12.048
▁ezildi	-12.048
▁fanatik	-12.048
▁muazzam	-12.048
▁perşembe	-12.048
▁torpido	-12.048
▁yulaf	-12.048
▁çeşme	-12.048
▁önsezi	-12.048
▁ılıman	-12.048
▁kargaşa	-12.048
▁911	-12.048
▁komplo	-12.048
▁bıyığı	-12.048
▁ablam	-12.048
▁doğrulttu	-12.048
rlanda	-12.048
▁pasifik	-12.0481
▁yoga	-12.0481
▁harici	-12.0481
▁yunan	-12.0481
▁tarım	-12.0481
▁ettirildi	-12.0481
▁sağanağ	-12.0481
▁ilgilendiriyor	-12.0481
▁söylenir	-12.0481
▁gol	-12.0481
▁arkamızda	-12.0481
▁savun	-12.0481
▁kütük	-12.0482
▁öğlen	-12.0482
▁bulmuyorum	-12.0482
▁çıkamam	-12.0482
▁çalışamayacak	-12.0483
▁peru	-12.0483
▁soğukkanlı	-12.0483
▁sözcüğü	-12.0485
▁yargıç	-12.0485
▁insanım	-12.0485
nmektedir	-12.0486
▁göreceksin	-12.0487
▁devirdi	-12.0487
▁sivrisinekler	-12.0488
▁dönerken	-12.0488
▁duruyorsun	-12.0488
▁yaşayamay	-12.0488
▁küçüktü	-12.0488
▁kızartma	-12.0489
▁seksi	-12.0489
▁atacağım	-12.0489
▁onunki	-12.0489
▁sınıfımda	-12.049
▁bekleyebilirim	-12.049
▁öldüren	-12.0491
▁ülkesi	-12.0492
▁yetiştirmek	-12.0492
▁ceketin	-12.0492
▁giymez	-12.0493
▁nöbet	-12.0493
▁sürprizim	-12.0493
▁saklayın	-12.0495
▁ikiyüzlü	-12.0495
▁donanma	-12.0496
ıyordum	-12.0497
▁bariz	-12.0498
▁filler	-12.0498
▁erkeği	-12.0498
▁çalarım	-12.0498
▁uğrayacak	-12.05
▁karşılandı	-12.05
▁yararlıydı	-12.05
▁cesurdu	-12.05
▁uğramıştı	-12.05
▁uğradığın	-12.0501
▁takmaz	-12.0503
▁takmıyordu	-12.0503
▁metroy	-12.0504
▁güvenen	-12.0505
▁seçmek	-12.0506
▁götürmeyi	-12.0506
▁incitecek	-12.0508
▁istemiş	-12.0508
▁kafeteryada	-12.0509
▁çocukluğumda	-12.0509
▁boyludur	-12.0509
▁bekledin	-12.0513
▁güvenmedim	-12.0513
ji	-12.0513
▁sarsıldı	-12.0514
▁bulmaz	-12.0515
▁sebzeler	-12.0516
▁se	-12.0516
▁dönmeliyi	-12.0519
▁geleceğiz	-12.052
▁etmiştim	-12.0522
▁borçlarını	-12.0524
▁gönderdiğim	-12.0525
▁vazgeçmeyeceğim	-12.0526
▁vücudum	-12.0527
▁güldürme	-12.0529
▁gelmemizi	-12.053
▁unutmadım	-12.0535
▁yaşlılar	-12.0537
▁istemeliydi	-12.0538
▁yaklaş	-12.0539
ah	-12.0539
▁odaklanmış	-12.0539
▁yapabilirdik	-12.0539
▁yemeyeceğim	-12.054
▁düğününde	-12.0541
▁tekrarladı	-12.0541
▁atıcı	-12.0541
▁yarışmaya	-12.0543
rmak	-12.0544
▁kaçıracaksın	-12.0544
▁alamıyor	-12.0546
▁teklifimi	-12.0547
▁süremez	-12.0548
▁aramda	-12.055
▁geçiriyorsun	-12.0553
▁it	-12.0555
▁havamda	-12.0561
▁uyanma	-12.0562
▁arkadaşla	-12.0564
▁borcum	-12.0565
▁tutkulu	-12.0567
▁kolu	-12.0571
▁çıldırmış	-12.0571
▁iklimi	-12.0572
▁çalıştırıyor	-12.0573
▁sorununuz	-12.0573
▁satmayı	-12.0577
▁fırtınası	-12.0578
▁geçindi	-12.0581
▁bitişikte	-12.0584
▁paspas	-12.0584
▁delice	-12.0585
▁stok	-12.0586
▁titre	-12.0589
▁ışıkt	-12.0594
▁başkanın	-12.0599
stediğimi	-12.06
▁dediğim	-12.0601
muşum	-12.0604
▁ödeyeceğin	-12.0604
▁yetenek	-12.0605
▁performans	-12.0606
▁düşeni	-12.0607
▁kameram	-12.0608
▁suçlamaları	-12.0609
▁sevdin	-12.0609
▁kariyeri	-12.0613
▁soyu	-12.0614
▁suçlamak	-12.0618
▁uçur	-12.062
▁kısaydı	-12.0621
▁tanıyı	-12.0622
▁göndermedi	-12.0622
▁durdurmasın	-12.0624
▁doldu	-12.0625
▁sü	-12.0627
▁bırakmam	-12.0628
▁şekerli	-12.063
▁komşumun	-12.0631
▁şakası	-12.0631
▁kovuldum	-12.0632
▁gözyaşlarını	-12.0636
▁çağırdım	-12.064
▁toplantılar	-12.0641
▁alınacak	-12.0643
▁endişelenmeyin	-12.0645
▁sevindi	-12.065
▁yetkili	-12.065
▁ge	-12.065
▁hızlıydı	-12.065
▁hesabın	-12.0654
▁ertele	-12.0655
▁şişesini	-12.0658
▁eşyalar	-12.0658
▁varınca	-12.0659
▁defterini	-12.066
▁olmalarını	-12.066
rmek	-12.0662
▁kapatıldı	-12.0662
▁lavabo	-12.0663
▁unutmaz	-12.0665
▁çarpma	-12.0668
▁masası	-12.0669
▁beklemeyeceği	-12.067
▁yakaladın	-12.0671
▁annemle	-12.0674
▁gördüler	-12.0674
pi	-12.0676
maması	-12.068
▁işlem	-12.0685
▁süreç	-12.0686
▁danış	-12.0687
▁dükkanında	-12.0689
▁önemini	-12.0689
baba	-12.069
▁yükseltme	-12.069
▁arayı	-12.069
▁şampiyonluğu	-12.0692
▁korkuyorlar	-12.0693
▁evinizi	-12.0693
▁etmezse	-12.0693
▁yenileme	-12.0693
▁doğar	-12.0699
▁eğitimin	-12.0705
▁atan	-12.0705
▁bulunabilir	-12.0706
▁çadırı	-12.0707
▁taraftan	-12.0707
▁amcasını	-12.0709
▁korkacağın	-12.0709
▁suçlamalar	-12.071
▁tarihinde	-12.0711
▁müşteriler	-12.0716
▁kahramanı	-12.0717
▁çamaşırı	-12.0721
▁geçmesi	-12.0733
▁kazanmış	-12.0738
▁partinde	-12.074
▁zevki	-12.0743
▁depresyon	-12.0743
yemiyorum	-12.0747
▁gelmeyebilir	-12.0749
▁koleksiyonun	-12.075
▁gitmemelisin	-12.075
▁salladım	-12.0751
her	-12.0754
▁bilemez	-12.0755
▁balkonda	-12.0756
▁kutluyor	-12.0758
▁isı	-12.0758
▁yükseklikte	-12.0759
▁göründüğün	-12.076
▁davranışları	-12.0763
▁lavaboy	-12.0764
▁iznim	-12.0765
▁dolarım	-12.0768
▁astronomi	-12.077
oz	-12.0771
▁unutama	-12.0772
▁ikizi	-12.0775
▁ezmesi	-12.0778
▁beklenen	-12.0778
▁horladı	-12.0779
▁dolardır	-12.0786
▁sıkışmış	-12.0789
▁olmayacağı	-12.0795
▁bakmama	-12.0795
▁bagajım	-12.0797
▁etmememi	-12.0798
leyebilir	-12.0798
▁vücudu	-12.0799
▁geldiğimiz	-12.0801
▁parmağı	-12.0801
▁kafanı	-12.0802
▁boyamasın	-12.0804
▁eğilimli	-12.0805
▁sokağ	-12.0807
▁okyanusun	-12.0808
▁edemeyeceğimi	-12.0811
▁çocukluğu	-12.0812
▁gez	-12.0813
▁dükkânı	-12.0814
▁kurulu	-12.0815
▁biliyormuş	-12.0815
▁kulağım	-12.0816
daydın	-12.0819
▁ilgileniyorsun	-12.0819
▁polisleri	-12.0823
▁dolabın	-12.0823
▁başaracağın	-12.0824
▁vurdun	-12.0825
▁alırdı	-12.0826
▁şiş	-12.0827
▁tavsiyeniz	-12.0829
▁hoşlandın	-12.083
▁döndüğün	-12.0832
rlar	-12.0833
mayacaksın	-12.0834
▁çalışmış	-12.0839
▁bavulumu	-12.0842
▁öneriler	-12.0842
▁imzala	-12.0843
▁koyacağımı	-12.0851
▁garipti	-12.0851
▁vermede	-12.0853
ör	-12.0855
▁sorularını	-12.0858
▁cezasını	-12.0863
▁planlanmış	-12.0864
▁hayvanı	-12.0868
▁cevapla	-12.087
▁inanmam	-12.087
▁görünüşün	-12.0874
▁vurul	-12.0879
▁adaylığın	-12.0879
babası	-12.088
▁kutladı	-12.0882
▁tavsiyen	-12.0884
▁çaldın	-12.0886
▁konuşamaya	-12.0889
▁mektub	-12.089
▁süren	-12.0891
▁gelmemesi	-12.0895
▁adaya	-12.0899
▁sanatı	-12.0903
▁duymaya	-12.0904
▁kaynaklar	-12.091
▁sıkıyor	-12.0911
▁denemekte	-12.0913
▁harf	-12.0914
▁yetiştirme	-12.0915
▁yoruldu	-12.0916
▁yaklaşa	-12.0919
▁anlayışı	-12.092
▁okumasın	-12.092
▁unutmadı	-12.0921
▁küfür	-12.0921
▁noktası	-12.0923
▁vali	-12.0924
▁kabus	-12.0926
▁söylerler	-12.093
▁şemsiyem	-12.093
imizi	-12.0935
▁vergileri	-12.0936
▁pr	-12.0937
▁dolabını	-12.0941
▁hissettiği	-12.0941
▁gülleri	-12.0941
▁duymakta	-12.0941
▁kurar	-12.0942
▁mezuniyet	-12.0943
▁takılıyor	-12.0945
▁riskleri	-12.0948
▁vicdan	-12.0948
▁eğlendin	-12.0948
rdi	-12.0951
▁durdurun	-12.0953
▁çocuklarımızı	-12.0961
▁tanışmadı	-12.0963
▁önemseme	-12.0963
▁sürüyorsun	-12.0968
▁otobüsler	-12.0968
▁liderleri	-12.0971
▁mermi	-12.0974
▁öptüğün	-12.0976
▁avcı	-12.0976
▁kostüm	-12.098
▁bıçağım	-12.0989
▁duyabilir	-12.099
▁oradaydın	-12.099
▁suçun	-12.099
▁gerekçe	-12.0991
▁düşünürdü	-12.0991
▁dükkânda	-12.0994
▁felç	-12.0995
lanabilir	-12.0995
▁cevaplayamadı	-12.0999
▁parmakları	-12.1
▁kaçını	-12.1
▁bulundur	-12.1001
▁ortaokulda	-12.1002
▁bittiğin	-12.1003
▁mağazası	-12.1004
▁yapabildin	-12.1008
layabilirim	-12.1009
▁kalmasın	-12.1015
▁sandığım	-12.1016
▁ahlak	-12.1018
▁detay	-12.1018
▁etmeyeceği	-12.1023
▁çantada	-12.1024
▁gezisi	-12.1024
▁kullanacak	-12.1024
▁masam	-12.1025
▁seçer	-12.1025
▁kulakları	-12.1026
▁çizim	-12.1026
▁aralar	-12.1028
▁broşür	-12.1028
▁bilge	-12.1028
▁sivrisinek	-12.1028
▁hizmetleri	-12.1029
▁sürprizdi	-12.1029
▁kaçırdığım	-12.1029
▁fazladır	-12.1031
▁öğüt	-12.1033
▁bü	-12.1034
▁saatleri	-12.1036
”	-12.1036
▁alabalık	-12.1036
▁büyüttü	-12.1036
▁bıkkın	-12.1036
▁havlıyor	-12.1036
▁maddi	-12.1036
▁meteor	-12.1036
▁müteşekkir	-12.1036
▁porsiyon	-12.1036
▁rezil	-12.1036
▁shakespeare	-12.1036
▁telgraf	-12.1036
▁zelanda	-12.1036
▁şımarık	-12.1036
▁yunanistan	-12.1036
▁önemsemiyor	-12.1036
▁dul	-12.1036
▁tetiğ	-12.1036
▁öksürdü	-12.1036
▁çözüldü	-12.1036
▁sıcağ	-12.1036
▁yoğurt	-12.1036
▁çamaşırhane	-12.1036
▁marka	-12.1036
▁güvenilebilir	-12.1036
▁zer	-12.1037
▁görüşecek	-12.1037
▁akar	-12.1037
▁incinmiş	-12.1037
▁giyinir	-12.1037
▁üretir	-12.1037
▁yelkenli	-12.1038
▁gitmedik	-12.1038
▁yaramıyor	-12.1038
efil	-12.1038
▁getireyim	-12.1039
▁karton	-12.1039
▁paund	-12.1039
▁çömeldi	-12.1039
▁los	-12.1039
▁diller	-12.104
▁inanabiliyor	-12.104
▁tarafımda	-12.1041
▁çalamaz	-12.1041
▁takarım	-12.1042
▁yarasa	-12.1042
▁başlamalıyız	-12.1042
▁nezaketini	-12.1042
▁utanıyorum	-12.1042
▁verilecek	-12.1042
▁zammı	-12.1043
▁atletik	-12.1043
▁itfaiye	-12.1044
▁çocukluğumuz	-12.1044
▁edilecektir	-12.1044
▁affedecek	-12.1045
▁memnuniyetle	-12.1046
▁tökezledi	-12.1047
▁kaybeden	-12.1047
▁güldük	-12.1047
▁yakınlarında	-12.1048
▁çektin	-12.1048
▁öğrenciyken	-12.1048
▁eğitildi	-12.1049
▁ciddiydi	-12.1051
▁zayıflamak	-12.1052
▁öldürüldüğünü	-12.1052
▁benimsedi	-12.1052
▁ayrılıyoruz	-12.1052
▁öpmüyor	-12.1053
▁şaşırırdı	-12.1054
▁durumdayız	-12.1055
▁gizlilik	-12.1055
▁bırakıyor	-12.1055
▁hatasıydı	-12.1055
▁kayağı	-12.1056
▁pişirecek	-12.1058
▁bilinçsiz	-12.1059
▁üzülecek	-12.106
▁çevrildi	-12.106
▁büyüye	-12.1061
▁kanıyor	-12.1062
▁etkilenmişti	-12.1063
▁nara	-12.1065
▁meraklıydı	-12.1065
▁yaygındır	-12.1066
9'	-12.1067
▁kovulacak	-12.1067
▁büyüksün	-12.1067
▁huylu	-12.1067
▁bulaştırdı	-12.1068
▁ucuzdur	-12.1068
▁olmayabilirim	-12.1068
▁dayak	-12.1069
▁yapabilmeli	-12.1069
▁israfı	-12.1071
▁övgü	-12.1071
▁imzalamak	-12.1072
▁yapabildiğim	-12.1075
▁edebilirsiniz	-12.1075
▁imzalar	-12.1075
▁duydunuz	-12.1075
▁getirmeye	-12.1075
▁çocuğumuz	-12.1075
▁kurallarını	-12.1076
▁ağırdı	-12.1076
▁sorguluyor	-12.1077
▁yararlandı	-12.1078
▁takılır	-12.1083
▁toy	-12.1083
▁gelmediğin	-12.1083
▁alabilirsiniz	-12.1084
▁uygundur	-12.1088
▁anlamanı	-12.1088
▁çeken	-12.1088
▁öldürüyordu	-12.1089
▁yanınızda	-12.1089
▁büyükbabasını	-12.1092
▁bari	-12.1093
▁parçasıdır	-12.1094
▁konuşmanız	-12.1094
▁içmedim	-12.1095
▁kazanmam	-12.1096
▁doğmuş	-12.1097
▁yaparsak	-12.1098
▁yetişir	-12.1099
▁bölümünü	-12.11
▁delisin	-12.11
▁aşısı	-12.11
▁gölü	-12.11
▁yıkaman	-12.1102
▁sokağın	-12.1103
▁tekniği	-12.1103
▁korkmuyordu	-12.1105
▁izleyin	-12.1105
▁gitsin	-12.1105
▁merdiveni	-12.1108
▁durduracağım	-12.1109
▁saklanaca	-12.1109
▁yakalayacak	-12.111
▁günümüzde	-12.111
▁çimleri	-12.1112
▁emirleri	-12.1118
▁düşüyordu	-12.1118
▁dinlemiyordu	-12.1119
▁olabilme	-12.1121
▁edecekler	-12.1122
▁kaybolduk	-12.1122
▁tutuklanmadı	-12.1123
▁beklememizi	-12.1131
▁ihti	-12.1133
▁konuşmadığını	-12.1134
▁kaynakları	-12.1135
▁isterler	-12.1136
▁inek	-12.1137
▁defterin	-12.1139
▁ağırlık	-12.1139
▁sakalını	-12.114
▁çıkarabilir	-12.1142
▁fenerini	-12.1146
▁burs	-12.1147
▁geçiş	-12.1148
▁notları	-12.1154
▁durduracak	-12.1155
▁açacağım	-12.1157
▁v	-12.1157
▁girmeyi	-12.1159
▁modeli	-12.1159
▁enerjim	-12.116
▁aşağısında	-12.116
▁verse	-12.116
▁bardağım	-12.1163
▁birimiz	-12.1163
▁sıkıştım	-12.1164
▁anlamlı	-12.1166
▁dövüşü	-12.1167
▁patronunu	-12.117
▁çiziyor	-12.117
▁gidileceğin	-12.117
▁okulumuzda	-12.1171
▁kaçmayı	-12.1173
▁sattığını	-12.1174
▁mantar	-12.1176
mamıştım	-12.1177
▁kaşların	-12.1181
▁oluyoruz	-12.1181
▁zararsız	-12.1182
bileceği	-12.1186
rabilirim	-12.1188
▁kitaplarım	-12.1189
▁gizle	-12.119
▁mezar	-12.119
▁engeller	-12.1191
▁şekil	-12.1193
▁edilmedim	-12.1194
▁süreceğim	-12.1197
▁ayrılmış	-12.1197
▁zekalı	-12.1199
▁güvenlidir	-12.1199
▁koyabilir	-12.1201
▁başkasını	-12.1205
▁beğeneceğini	-12.1205
▁problemim	-12.1208
▁fareler	-12.1216
▁görülme	-12.1219
▁içecekler	-12.122
▁yorgunuz	-12.1221
▁kiralama	-12.1222
▁omuz	-12.1222
▁sekreteri	-12.1225
▁yarası	-12.123
▁kalabileceğin	-12.123
▁sekreterim	-12.1232
▁üşütme	-12.1236
▁kızımız	-12.1238
▁davetiye	-12.1239
▁dikkati	-12.1239
▁sakladım	-12.1241
alışacaksın	-12.1243
▁içindeki	-12.1245
▁söylememiş	-12.1254
▁cinayeti	-12.1256
▁kaybol	-12.1257
▁şartları	-12.126
▁tavanı	-12.1266
▁sözlüğüm	-12.1266
▁yaprak	-12.1266
▁heykel	-12.1267
▁kanserin	-12.1268
▁etmediğimi	-12.1269
▁altındadır	-12.127
▁taktım	-12.1271
▁planımı	-12.1271
▁açıl	-12.1272
▁izliyorsun	-12.1273
▁dilemedi	-12.1274
▁dersini	-12.1274
▁önerimi	-12.1274
▁çimi	-12.1279
▁dinlenebilir	-12.1288
▁silahım	-12.1288
▁çıkarttı	-12.129
▁kedimi	-12.1292
▁kırdın	-12.1293
▁tanıma	-12.1293
▁tutuklama	-12.1294
▁işlerimiz	-12.1302
▁göbe	-12.1308
▁kurdum	-12.1309
▁ağrın	-12.131
▁düşünceleri	-12.131
▁kadeh	-12.1312
▁pi	-12.1316
▁binebilir	-12.1317
▁karıştır	-12.1318
▁hoşlanmıyorsun	-12.132
▁redded	-12.1321
▁takmak	-12.1323
▁çiftçiler	-12.1325
▁başlı	-12.1326
▁yaptıracağım	-12.1329
▁çorbanı	-12.1329
▁asma	-12.1331
lığında	-12.1332
▁ayrılmasın	-12.1335
▁davranmıyor	-12.1337
▁jacksonlar	-12.1337
ton	-12.1337
▁isteriz	-12.1339
▁yemen	-12.1342
▁yıldı	-12.1347
▁odanda	-12.1347
▁yo	-12.1348
▁cazı	-12.135
▁sebzelerini	-12.1351
▁kaşı	-12.1351
▁koyduğu	-12.1353
▁fotoğraflarını	-12.1354
▁dilemesi	-12.1355
▁kokuyorsun	-12.1355
▁öğrendiğim	-12.1358
▁renkleri	-12.1358
▁bahsediyorsun	-12.1359
▁şarkıcısı	-12.1366
▁işimizi	-12.1368
▁derecesi	-12.1369
▁söylesin	-12.137
▁havai	-12.1371
▁kibrit	-12.1371
▁gelmekten	-12.1372
▁iyileşmesi	-12.1376
▁tanıştığı	-12.1382
▁bekleyemezsin	-12.1382
ılması	-12.1386
▁geçemedi	-12.1386
▁bakmıyor	-12.1386
▁seslerini	-12.1386
▁sporla	-12.1388
▁düştüğün	-12.1389
▁ahırı	-12.139
▁yolculuğ	-12.1391
▁güçlüyü	-12.1392
▁göremez	-12.1395
▁çalışmama	-12.1395
▁hoşlanıyordu	-12.1396
▁inancım	-12.1397
▁elemanı	-12.1398
▁gelirler	-12.1402
▁hastadır	-12.1402
▁dışındaydı	-12.1407
▁teröristler	-12.141
▁robot	-12.1412
▁elbisemi	-12.1413
▁hislerini	-12.1413
▁başlıyorsun	-12.1414
ılmak	-12.1414
▁arılar	-12.1417
▁kamyonun	-12.1424
▁kanı	-12.1426
▁kanıtın	-12.1433
▁koşulları	-12.1434
▁hıçkır	-12.1434
▁gitarın	-12.1435
▁sınavında	-12.1446
▁şeftali	-12.1446
ılamaz	-12.1454
▁dileği	-12.1455
sundur	-12.1456
▁yapılabileceğin	-12.146
▁bırakılma	-12.1461
▁bulmanı	-12.1462
▁biletimi	-12.1466
▁güvenmez	-12.1467
▁botları	-12.147
▁düşünmez	-12.1472
▁ettirme	-12.1478
▁yaptırdın	-12.1478
▁noktaları	-12.1478
▁sevmesin	-12.1487
▁tümü	-12.1487
▁kimsin	-12.1487
▁savaşmak	-12.1489
▁okumuyor	-12.1489
▁dinlemen	-12.1493
▁vardiya	-12.1494
ılmıştı	-12.1495
▁sopası	-12.1504
▁kalanın	-12.151
▁başlayan	-12.1512
▁edemeyeceğim	-12.1512
▁takvim	-12.1512
▁içgüdü	-12.1515
▁uçuşu	-12.1516
▁seyreder	-12.1522
▁hint	-12.1523
▁karışıktı	-12.1523
▁kovul	-12.1525
▁ticareti	-12.1526
▁cin	-12.1529
▁olabilirler	-12.153
▁öğreniyorsun	-12.1531
▁co	-12.1531
▁yeğeni	-12.1534
▁ısıtıcı	-12.1534
▁durumlar	-12.1535
tılı	-12.1536
▁oyunda	-12.1539
▁fakirdi	-12.1543
▁arayacağımı	-12.1547
▁hırsı	-12.1548
▁arıyorlar	-12.155
deyiz	-12.1554
▁avukatını	-12.1554
▁fikirlerin	-12.1557
▁postanede	-12.1557
▁kafan	-12.1558
▁görülmek	-12.1562
▁olayın	-12.1564
▁ocak	-12.1564
▁hoşlanmaya	-12.1569
▁bölgesi	-12.1575
▁ordusu	-12.1576
ysam	-12.1577
▁umuyorsun	-12.1578
▁sırrımız	-12.1578
▁takımımızda	-12.1585
▁yıkamam	-12.1587
▁konuk	-12.1587
▁gelemezsin	-12.159
▁tasarımcı	-12.159
sas	-12.159
▁kuruş	-12.1593
▁beklentilerin	-12.1594
▁uymadı	-12.1596
▁öptüm	-12.1596
▁cesaretin	-12.1596
▁koro	-12.1599
▁şehirlerde	-12.16
▁laboratuvar	-12.16
▁evlenmesin	-12.1602
▁hiçbirine	-12.1603
▁söylendiği	-12.1603
▁ödemem	-12.1603
▁mağara	-12.1605
▁sinyal	-12.1606
▁besliyor	-12.1609
▁saklı	-12.1609
▁kayna	-12.1609
teşekkür	-12.1611
▁öğrenmen	-12.1611
▁göğsünde	-12.1615
▁hastanedeydi	-12.1617
▁unutur	-12.1619
▁yaşlanıyor	-12.1619
yacaksın	-12.162
rış	-12.1621
▁kaygılı	-12.1621
▁teneke	-12.1621
▁tükenme	-12.1622
▁tezgahta	-12.1623
▁okuyamaz	-12.1623
▁hissedersin	-12.1623
▁yelken	-12.1624
▁boks	-12.1624
▁yaralanmış	-12.1624
obra	-12.1624
▁apaçık	-12.1624
▁demokrasi	-12.1624
▁haddin	-12.1624
▁kürk	-12.1624
▁nagoya	-12.1624
▁nihai	-12.1624
▁pirinci	-12.1624
▁pozitif	-12.1624
▁sofistike	-12.1624
▁teşhis	-12.1624
▁tornavida	-12.1624
▁twitter	-12.1624
▁ufo	-12.1624
▁öpüşüyor	-12.1624
▁üzdü	-12.1624
▁puro	-12.1624
▁duruşma	-12.1624
▁rutin	-12.1624
▁çürümüş	-12.1624
▁kıpırdama	-12.1624
▁okuyucu	-12.1624
▁örüyor	-12.1624
▁bitince	-12.1624
▁suçlayamam	-12.1624
▁görülebilir	-12.1624
▁kucakladı	-12.1624
▁esneme	-12.1624
▁“	-12.1624
▁azalıyor	-12.1624
▁çoğunluğu	-12.1624
▁60	-12.1625
▁imkânsız	-12.1625
▁st	-12.1625
▁eğlendirdi	-12.1625
▁itaatkar	-12.1625
▁yıkayacağım	-12.1625
▁söylenmeli	-12.1625
▁kullanılabilir	-12.1625
▁dağıldı	-12.1625
▁gerektiriyor	-12.1625
▁tokatladı	-12.1625
▁gireceğim	-12.1625
▁güveç	-12.1625
▁düşünmüş	-12.1626
▁rahibe	-12.1626
▁yağmıyor	-12.1626
▁meşe	-12.1626
▁konuşayım	-12.1626
▁gelecekler	-12.1627
▁yıkıcı	-12.1627
▁suçluyorsun	-12.1628
▁güvenmediğini	-12.1628
▁seslendiğini	-12.1629
▁patenle	-12.1629
▁tüketti	-12.1629
▁gidemiyorum	-12.1629
▁veriliyor	-12.163
▁taciz	-12.163
▁okuyacağını	-12.1631
▁kep	-12.1631
▁deneyebilirim	-12.1631
▁parçaladı	-12.1631
▁vardığımızda	-12.1632
▁beslenme	-12.1632
▁kalamazsın	-12.1632
▁üşüyorum	-12.1632
▁kalanımız	-12.1632
▁hatırı	-12.1632
▁kuyruğun	-12.1632
▁girerken	-12.1633
▁boyutta	-12.1633
▁girişiminde	-12.1634
▁tutuyorsun	-12.1634
▁düşür	-12.1634
▁dönmem	-12.1635
▁ağzımı	-12.1635
▁aksine	-12.1636
▁almıyoruz	-12.1638
▁düşmanca	-12.1638
▁aitti	-12.1639
▁0	-12.1639
▁dalmış	-12.1639
▁yürüyorum	-12.1639
▁dakikalığına	-12.1641
▁kurtaran	-12.1641
▁güvendeyiz	-12.1642
▁alacaksınız	-12.1642
▁güvenle	-12.1643
▁pulları	-12.1644
▁etkisiz	-12.1645
▁verirse	-12.1646
▁söylemeyeceksin	-12.1647
▁saklanıyordu	-12.1647
▁hayranlık	-12.1648
▁karmaşıktır	-12.1648
▁zevkti	-12.1648
▁yürüdüğünü	-12.1648
▁kısaca	-12.1649
▁istemiştim	-12.165
▁güvence	-12.1651
▁yaşayabilir	-12.1652
yabilirsin	-12.1655
▁sandviçimi	-12.1656
▁şaşırtmadı	-12.1657
▁varmadı	-12.1657
▁denk	-12.166
▁ağırlıkta	-12.1661
tra	-12.1661
▁beslemeyi	-12.1664
▁sevmeyeceğin	-12.1664
▁büyükannemin	-12.1666
▁kapak	-12.167
▁endişelenmeyi	-12.167
▁halledebilir	-12.167
▁sakız	-12.167
▁çiğniyor	-12.1672
▁bulmadık	-12.1672
▁duyamadım	-12.1673
▁çan	-12.1674
▁bitirmeye	-12.1674
▁binası	-12.1675
▁yapmasan	-12.1679
▁kemancı	-12.168
▁konuşuyorduk	-12.1681
▁teklifim	-12.1682
▁fişini	-12.1685
▁kelepçeli	-12.1685
▁yararlıdır	-12.1687
▁döneceğimi	-12.1689
ğınızda	-12.169
▁asistanım	-12.1691
▁okumanı	-12.1692
▁faydasız	-12.1694
▁yorgunduk	-12.1697
▁gelmesin	-12.1701
▁parmağın	-12.1702
▁kaldınız	-12.1703
▁utanıyor	-12.1703
▁yetiştir	-12.1707
▁sıkışıklığı	-12.1708
▁uyuması	-12.1713
▁hoşlanmıyordu	-12.1715
▁yüzeyi	-12.1717
▁içeme	-12.1718
▁aslın	-12.1718
▁açmayın	-12.172
cık	-12.172
▁vazgeçmelisin	-12.172
▁kariyer	-12.172
▁komşusu	-12.1721
▁birasını	-12.1721
▁vurmaya	-12.1722
▁gülmeyi	-12.1725
▁böl	-12.1727
▁dudakların	-12.1727
▁dokunabilir	-12.1728
▁gülmüyor	-12.1729
▁denememe	-12.1729
▁zenginim	-12.1729
▁ayık	-12.173
▁açacak	-12.1733
▁hu	-12.1736
▁yakaladılar	-12.1737
▁kullanmakta	-12.1737
▁hissettik	-12.1739
▁ağlamayacak	-12.1743
lamıyoruz	-12.1746
▁inanamadım	-12.1749
▁vazgeçmeye	-12.1752
lamış	-12.1753
▁bırakmayacağı	-12.1754
▁olabiliyors	-12.1755
▁80	-12.1755
▁sormayın	-12.1758
▁gidebilme	-12.1762
▁içen	-12.1762
▁kafana	-12.1763
▁yanıtlamak	-12.1768
▁defteri	-12.1769
▁ezberledi	-12.177
▁parmağında	-12.1775
▁mesajım	-12.1779
▁sorununu	-12.1783
▁ülkeler	-12.1783
▁tasarımı	-12.1783
▁duyguları	-12.1789
▁düğünümüz	-12.1791
▁nüfusun	-12.1792
▁fırçalama	-12.1793
▁alabildi	-12.1794
▁anlamadın	-12.1801
▁evliler	-12.1803
▁getirmesini	-12.1803
▁gülmez	-12.1804
▁bakıcı	-12.1804
▁ceplerin	-12.1805
▁kullanılacağın	-12.1805
▁boşaltma	-12.1806
▁üstüm	-12.1811
▁topa	-12.1813
▁havası	-12.1814
▁aileler	-12.1817
[...]
